#version: 0.2
Ġ Ġ
Ġ t
i n
Ġ a
ĠĠ ĠĠ
e r
ä ¸
o n
h e
Ġ s
e n
a n
r e
a t
ï ¼
o r
ã Ģ
Ġ p
ç ļ
Ġt he
çļ Ħ
i s
e s
Ġ m
ï¼ Į
Ġ c
i t
a l
Ġ o
Ġ w
Ġ d
Ġ b
a r
Ġ f
e d
ä º
Ġ n
ĠĠ Ġ
à ¤
in g
á Ģ
l e
a s
o u
Ġa n
â Ģ
ãĢ Ĥ
å ı
Ġ in
Ġ h
æ ľ
t i
ä »
ĠĠĠĠ ĠĠĠĠ
r o
e l
Ġt o
e t
Ġo f
å ħ
Ġ l
Ġan d
i c
Ð °
Ġ k
å ¤
i l
o m
å Ī
s t
a m
en t
å ®
ä ½
è ¿
Ġt h
Ġ Ð
Ġ re
å Ĳ
Ġ e
æ ĺ
ç Ķ
Ġ g
a c
u n
å ľ
i d
i m
i on
a d
á ł
Ġ v
æ Ī
u r
Ġ à
ãĢ ģ
u s
u t
å Ĭ
o l
ä ¹
á ŀ
ç »
Ġ y
à º
ĠĠĠĠ ĠĠĠ
ä¸ Ģ
e c
o t
æĺ ¯
æ ĸ
i g
è ¯
å °
i r
a k
u l
Ġ I
à ½
a y
Ġ T
v e
Ġ S
Ø §
å Ń
å Ľ
o s
æ Ĺ
e m
Ð µ
a g
Ð ¾
Ġ i
è ®
Ġ is
o w
o d
ä¸ į
æľ ī
ä ¼
Ġf or
åľ ¨
å ¹
Ġs t
Ð ½
Ġ A
u m
Ð ¸
Ġ (
at ion
å į
æ Ŀ
Ñ Ĥ
a b
Ġ on
Ñ Ģ
æ ī
l y
é ĩ
å º
c h
Ġb e
à ¥
a p
å ·
Ġ à¤
Ġ =
Ġ C
äº Ĩ
t er
äº º
è ¡
å ¾
Ġ r
å ¼
é Ģ
è Ģ
Ġ Ø
v er
ti on
æ ķ
á ĥ
it h
å ¯
c e
å ¸
å ĩ
å Ĩ
Ġ M
ĥ ½
i k
å Ĵ
âĢ Ļ
à ¦
æ Ģ
r i
t h
ç Ľ
Ġy ou
Ġth at
Ġa l
ä¸ Ń
Ġ j
å Į
s e
Ñ ģ
ĠĠĠĠĠĠĠĠ ĠĠĠ
Ġa s
åĴ Į
Ġc on
è §
Ġd e
at e
Ġp ro
Ġ P
à ª
ä¸ º
âĢ ľ
- -
æ ł
âĢ Ŀ
an d
Ġw ith
an g
q u
å ¥
er e
is t
Ġ B
es t
ä» ¥
æ Ĭ
Ġ it
Ð »
Ġ u
è ´
è ¦
ç İ
ç §
à ²
) ;
er s
æĪ ĳ
Ġw h
å¤ §
ç ī
à ¸
Ġn e
çĶ ¨
è¦ ģ
Ġ he
o p
è µ
å ¿
en d
Ġa t
re s
Ġ Ù
Ġ {
/ /
es s
æ Ń
Ġ "
æ °
ä¸ ª
å ±
æ ³
é Ĺ
æ Ķ
çĶ Ł
t e
ä¸ Ĭ
å ½
è ĩ
o c
a in
å İ
Ġ D
Ġs e
o k
u d
æ ŀ
é Ŀ
à ®
åı ¯
Ġ H
Ø ±
è ĥ½
h t
é Ļ
æĹ ¶
Ġ á
i e
o g
ä ¿
Ñ ĭ
è¿ Ļ
Ġ or
a v
Ù Ĩ
i f
Ġ le
u b
æ İ
Ñ ĥ
Ð° Ð
åŃ ¦
or t
ç º
Ġc om
Ġ E
n d
Ù Ħ
å ĳ
Ġ N
i z
Ġw as
an t
Ġ R
Ġe x
Ġ $
à ¼
Ġ }
ç Ń
ç Ĳ
o re
æ ²
Ġ F
Û Į
Ã ¡
å¯ ¹
i a
åĪ °
il l
æ µ
l d
ä½ ľ
ã ģ
ro m
p l
Ã ©
è¡ Į
æ ĥ
Ġa re
u c
à¼ ĭ
ä¼ ļ
Ġ L
Ġ un
à ¨
ç ľ
Ġ W
it y
Ġc h
æ ¯
é ¢
è ¾
Ġ z
ĠT he
åĩ º
åı ĳ
æĪ Ĳ
å¹ ´
Ù Ī
Ġt r
å ĵ
Ð ´
i v
æĿ ¥
t r
åĪ Ĩ
æ Į
æ Ħ
Ġ G
å ¦
m ent
Ġ ×
è ½
á Ī
æĸ ¹
äº İ
ec t
á Ł
a ve
o v
à¤ ¾
ä¸ ļ
Ġs h
æ ĭ
Ġ us
Ġ \
ä¸ ĭ
Ġ en
åĽ ½
i p
åľ °
Ġn a
çĲ Ĩ
é ģ
ä ¾
Ù ī
å· ¥
am e
Ġth is
_ {
å° ±
u re
( )
i b
al l
Ġb y
u st
el l
è Ĥ
å¤ ļ
èĩ ª
in d
in e
ï¼ ļ
å ī
ç ®
on g
Ġs a
Ġw e
å Ł
u e
Ã ¤
ĠĠĠĠĠĠĠĠ ĠĠĠĠĠĠĠ
ä» ĸ
u p
ig ht
è¿ ĩ
Ã «
ç «
Ġi f
o st
Ġf rom
åĬ ¨
ä¹ Ł
ä» ¬
Ð¾ Ð
Õ ¡
r a
åĲ İ
ar t
æĢ §
Ġn ot
é ĺ
Ġ O
å® ļ
Ġ -
ç Ĥ
p ort
é «
p e
in t
ag e
Ġm e
ar d
æ ±
å Ģ
Ø ª
Ã Ń
i es
Ġ J
å® ¶
u k
à ´
æ³ ķ
Ġ K
è¿ Ľ
a h
Ġa c
ç ¨
n e
Ð º
ou t
ac k
æ ¸
æ ¬
æ ´
Ġa r
çİ °
Ø ¯
é« ĺ
ä½ ĵ
å¥ ½
éĿ ¢
t o
åĲ Į
c l
p er
: :
Ġa b
ç ½
ur n
Ñ ĸ
à ·
à »
æ ı
å¦ Ĥ
or m
æľ ¬
å ģ
Ġh ave
f f
Ġ im
åŃ Ĳ
Ġc an
áĢ º
ou ld
om e
ä¹ ĭ
ou r
çŃ ī
èĢ Į
a re
x t
á »
ä¸ İ
å® ŀ
åĬ Ľ
Ġ Ã
ac e
. .
åĲ Ī
an s
åĮ ĸ
ti c
at a
à §
as s
-- --
Ù ħ
à «
as t
e k
Ġd o
Ġ Õ
Ġ //
æī Ģ
Ġs p
é ¡
å¾ Ĺ
æ Ľ
ç» ı
åħ ¶
ç Ł
Ġp l
id e
é ĥ
åħ ¬
Ġa d
u g
d er
à ¯
l l
åº ¦
Ġre s
Ġ Î
i al
ç ¬
i ve
ä½ ł
e p
Ġ .
ic h
ä¸ »
ul t
i le
Õ¡ Õ
o b
Ġ ,
Å ¡
à¤¾ à¤
å° ı
äº §
å¿ ĥ
el f
æ į
é ĥ½
è ·
é ķ
ab le
i j
on e
è °
Ġ áĢ
a w
æĸ ĩ
Ġp r
Ġal l
Ð ¼
à ¶
Ġa p
åħ ¨
å¼ Ģ
) .
æ Ļ
ç Ŀ
æľ º
à ³
i re
Ġ '
as e
at ed
Ã ³
Ġre t
èĢ ħ
é Ľ
åº Ķ
ç ¤
Ġc l
Ġ Ø§
Ù Ĭ
á ī
he n
æĸ °
éĥ ¨
r ou
Ġyou r
åħ ³
g a
ç ³
Ġ U
à °
Ġw or
ac h
Ù ĩ
éĩ ı
åĬ ł
ç Ħ
è¯ ´
g e
Ġà ª
å »
è ¶
Ġ qu
n t
éĢ ļ
Ġs o
en s
Ä į
é ļ
éĩ į
Ġ *
åĪ ¶
ç§ į
à¥ į
Ġ |
at h
Ġ Ñ
ic e
Ġp er
å Ŀ
éĹ ´
Ġ âĢľ
g et
é £
áĢº áĢ
äº ĭ
æı Ĳ
á ĭ
åĨ ħ
æķ °
à¥ ĩ
Ġcom p
) ,
åī į
á Ĭ
it e
a z
é Ĥ
çĤ ¹
al ly
Ġp re
a j
ak e
à ¬
åı¯ ä»¥
åĽ ł
è ī
Ġ Ñģ
Ġh is
à¥į à¤
Ġp ar
Ð ²
æ Ł
ç ©
åĵ ģ
çĽ ¸
Ï Ħ
Ġret urn
Ġu p
Ġt e
çī ©
è ģ
åı Ĭ
Ġ Ċ
æ° ´
Î ±
Ä ±
æľ Ģ
çĶ µ
å¤ ©
Ġb ut
æĥ ħ
ç Ļ
ĠT h
Ġà ¦
c t
× Ļ
ç ´
Ġw ill
è Ĭ
Ġo ut
im e
å ¢
Ġh er
ĠĠĠĠĠĠĠĠ ĠĠĠĠĠĠĠĠ
Û ķ
Ġ âĢ
æ ¶
è¿ ĺ
w e
é ľ
d e
Ġn o
f orm
ç ¾
ç¨ ĭ
Ø ³
ac t
Î ¿
Ġg o
f er
è® ¾
Ð° Ð½
ĠI n
ou s
ç³ »
Ġm an
æĹ ¥
ç ķ
æĦ ı
it ion
æŀ ľ
st r
è¡ ¨
en ce
× ķ
ig n
éģ ĵ
Ġst r
th er
Ġm y
Ġ Y
Ġa m
ç ł
å¸ Ĥ
ç Ĺ
é ħ
Ġ áł
æķ Ļ
Ġ V
ç® ¡
æĪ ĸ
s o
ä¸Ģ ä¸ª
an ce
ä¿ Ŀ
çĦ ¶
éķ ¿
ent s
g h
åħ ¥
ä¹ Ī
* *
= =
ar i
Ġ <
on t
a il
ĠÐ ¿
çľ ĭ
Ġà ¨
or d
çĿ Ģ
Ġh as
' s
T he
Ġl a
os e
å¤ ĸ
ä½ į
^ {
ä½ ¿
èµ Ħ
b er
åĬ ¡
Ġd is
o ok
ou nd
æ ģ
Ö Ģ
å» º
é Ķ
å± ķ
É Ļ
Ġ er
å¼ ı
ç ¡
res s
t y
c tion
h a
Ġcon t
Ú ©
å½ ĵ
( "
Ġ ro
Î ¹
" ,
Ã ¶
æ¯ Ķ
er v
Ġo p
æľ Ł
Ġw ere
æĺ İ
å¾ Ī
Ð° ÑĢ
èµ ·
å §
ä¸ ī
Ġh ad
ç¬ ¬
k e
Å ¾
Ä ģ
ã Ĥ
ti m
è® ¡
I n
áĢ ¬
p ro
å ķ
æ ¡
à ©
Ð° Ñ
è ĥ
ar y
on d
ation s
å¸ ¸
w a
å° Ĩ
ç ±
çĽ ®
æĽ ´
áł ł
s p
Ð ³
âĢ ĭ
Ġwh ich
ç ĸ
ç» ĵ
ä¿ ¡
en g
å¹ ¶
äº Ľ
y a
è§ £
} $
n g
ä½ Ĩ
ĠÐ ½
Ġ /
ä» İ
Ġon e
Ġthe y
k s
å¹ ³
æ´ »
Ġthe ir
è Ī
ä» ¶
Ġs u
ï¼ ī
ç ²
à¤ °
æĹ ł
åİ »
r y
æī ĭ
Ġne w
Ġd i
t a
ç ¥
ï¼ Ī
éĩ Į
æľ Ī
h er
Ġm ore
Õ ¸
è Ĳ
æŃ ¤
é¢ ĺ
w o
ik e
ç Ī
ĠØ ¨
e ar
Ñ ı
Î ½
è ĭ
æŃ £
Ĵ áŀ
åŁ º
el y
ç ĥ
æ² ¡
n i
áĢ ¸
a i
à µ
p le
Ġe v
ç ¼
æĥ ³
æ ·
éĤ £
à¤ ¿
è Ħ
d uc
åĪ ©
æĪĳ ä»¬
åľ º
çī ¹
å® ī
Ġo b
Ġ el
ï¼ Ł
é Ĵ
Ġa g
od e
æ¬ ¡
æł ·
l o
j e
éĹ ®
áĢ ¯
áŁ Ĵáŀ
å ĸ
ow n
Ġà ¸
en e
Ðµ Ð½
ic al
Ġe m
éĩ ĳ
Ð ·
or s
l i
æİ ¥
è £
åĮ º
is h
å·¥ ä½ľ
us e
Ġk u
çŁ ¥
é ª
Ġs c
ĠÐ º
Ġin ter
c ess
×ķ ×
an a
à¯ į
à ¾
éľ Ģ
è ¢
t s
i o
è į
iz e
en c
ãĢ ĭ
ãĢ Ĭ
áŀ ¶
Ġ :
Ġf e
å £
çĶ ±
æ Ĥ
æį ®
å ŀ
ĠÐ ´
è º
äº Į
Ġm u
ä» £
Ġg et
Ñģ ÑĤ
æĦ Ł
á º
å· ±
k a
è´ ¨
ing s
Õ ¶
at er
ç ģ
áł ¢
c om
×Ļ ×
Ġ et
åı ¸
àº ²
ĠÐ ¸
åĳ ĺ
Ġs he
Ġt ime
åģ ļ
ou nt
y e
Ã ¼
áĢ ¹
or y
ĠÙ ħ
É Ķ
èĩª å·±
. âĢĿ
Î µ
Ġp o
c on
æľ ¯
b e
æ° ĳ
åı ĺ
v el
Ó Ļ
Ġab out
ar k
e x
æ± Ĥ
Ġá Ĭ
ic k
Ñ Į
m a
Ġd a
ĠĠĠĠĠĠĠĠ ĠĠĠĠĠĠĠĠĠĠĠ
y s
Ġo ver
te xt
åĲ Ħ
tion s
ç» Ł
Ġd es
áłł áł
il d
ĠÐ ±
Ð° Ð»
ad e
æł ĩ
àº Ļ
Ġv al
Ġj e
n a
æ º
æĬ Ģ
èº «
åĲ ĳ
æ ¨
åĲ į
Ġt a
åı ª
Ġ &
ro w
Ġ +
ti v
g r
è¿Ľ è¡Į
Ø ´
å½ ¢
ç½ ĳ
ï¼ ģ
Õ ¥
åİ Ł
re e
Ġan y
in k
áĢ ±
ç» Ħ
æµ ģ
Ð° ÑĤ
æ »
åħ ·
áĢ Ń
é ¦
Ġs ome
f t
à½ ¦
Ġbe en
áł ¤
à¤ ¨
n ing
ay s
ç¾ İ
æľ į
---- ----
ç ¦
àª ¾
ï¼ Ľ
ub l
y st
áŀ¶ áŀ
oc k
è§ Ħ
Ġwh o
Ġv er
æķ Ī
ol l
p t
à¥ Ģ
åį ķ
è½ ¦
j ect
ĠÐ ²
et h
. s
an c
ä¸ ¤
æĶ ¿
Ø§ ÙĨ
Ġf un
o ve
Õ «
is s
he d
o j
Ġo ur
áĢ Ħ
å¤ Ħ
Ġm a
Ġth ere
p ut
è¢ «
Ð ¿
Ù Ĥ
é ĵ
Ï ģ
( );
á ģ
åħ¬ åı¸
at i
Ġs elf
Ġg r
re at
åħ ĥ
Ï ĥ
Ġn g
Ġà¤ ķ
v al
Ġthe m
u al
_ _
Ġ ÑĤ
Ġal so
é »
Ø ¨
Ġa f
ĠI t
Ġw hen
å¼ º
å¯ ¼
er t
äº ¤
i h
Ġo ther
ä» »
á» į
åŀ ĭ
æĶ ¶
éĢ ī
en ti
æ° Ķ
å Ļ
Ã ¥
Ġk e
ul l
à¦ ¾
æĮ ĩ
p ar
Ġp e
å· ²
p r
è Ļ
Ġin t
Ġk n
Ġà ²
Ġw ould
ç§ ĳ
Ġ$ \
Ġb et
æĮ ģ
èī ²
Ġin to
r or
ĠC h
ç« ĭ
re d
æ ®
un g
áĢ Ģ
èĢ ĥ
çº ¿
áĥ Ĳ
åĽ ŀ
ä» ·
er m
is e
Ġas s
ie w
åı Ĺ
æł ¼
Ð¸ Ñ
è¿ Ĳ
Ã ł
è· ¯
p on
å° ĳ
Ġth an
s h
ĠÐ ¾
Ġp os
åĪ «
à¤¿ à¤
en er
Ġ [
ç± »
ç¤ ¾
Ġin d
åı £
Ö Ĥ
r it
ap p
é ©
Ġwor k
ä¼ ł
cl ud
am b
å® ¹
ir st
Ġb u
i el
p s
l a
ç¤ º
æ²¡ æľī
æ £
å¸ Ī
Ðµ ÑĢ
èĢ ģ
Ã º
çĽ ´
çł Ķ
s s
yst em
é¡ ¹
è ¨
è° ĥ
e g
åĻ ¨
ĠS t
ĠØ ¯
è¾ ĥ
Ð ±
Ï Ģ
ç» Ļ
ol d
Ġb o
å® Į
åı ĸ
åį ģ
é£ İ
æ¯ ı
ç¡ ®
s elf
Ġd if
Ġa v
åĽ ¾
ã ĥ
Ġl ike
i an
åķ Ĩ
Ġle t
å½ ±
ä¼ ģ
æĶ ¾
Ġb l
Ġm od
y pe
Ġre g
æ² »
åıĳ å±ķ
çĹ ħ
Ġm ay
çľ Ł
S t
ang e
Ġwh at
ĠH e
Ġd et
as h
Ġ es
ç Ĭ
å¢ ŀ
áł¢ áł
åħ Ī
al a
è® ©
è ±
Ġ Ú©
è¯ ģ
ig h
ä» Ģ
Ġh im
ir a
f r
Ñ Ī
Ġs up
è Į
Ġk a
ĠÐ ¼
Ġa k
Ġs et
al e
æĬ Ĭ
Å Ł
j a
âĢ Ķ
h o
éĹ ¨
åĮ ħ
éĢ ł
å Ķ
Ï Ĥ
Ġ Ä
Ġb ec
at es
è® ¤
æĸ Ļ
ri b
Ġcom m
æĢ »
Ġad d
áł ¡
Ġ #
Ġc o
æ³ ¨
Ø ²
p os
èĤ ²
ĠÙ Ī
ä¸ ĵ
àª¾ àª
Ġm ed
ver y
Ġcon s
Ġde f
çº §
t ing
æķ ´
Ġre c
m e
Ġne ed
è ¥
å® ĥ
éĹ® é¢ĺ
æŀ Ħ
ad a
æī ĵ
å¤ ĩ
Ġs k
al i
n o
ç®¡ çĲĨ
Î ·
è® º
áĢ¸ áĢ
Ġf l
å¥ ¹
èĬ Ĥ
èĩ ³
Ġà ®
æĬ ¥
Ø§ Ø±
å¤ ´
Ġy ear
Ġp h
Ð ¹
Ġà ¹
à½ ²
è¯ ¥
Ð¾Ð ²
Ġm in
æģ ¯
ä¾ Ľ
åħ ī
Ġ áĥ
ti ve
åĢ ¼
à¯į à®
Ġp ri
p h
è¥ ¿
ä¹ ł
Ġs i
e le
el s
an y
Ġof f
Ġn i
in a
æ¨ ¡
ä»Ģ ä¹Ī
Ġst ud
Ġl ong
ubl ic
çİ ĩ
ar a
ti l
ä¼ģ ä¸ļ
f ul
æĶ ¹
t u
ver s
Ġb r
un d
åŃ ĺ
åĬ Ł
Ġon ly
ĠØ§ ÙĦ
æĿ ¡
ec h
è´ ¹
ĠÐ ·
- >
ç ħ
ĠØ ª
Ġs m
à¥ ĭ
à½ Ĥ
e b
T h
ĠTh is
æĪ ·
Ġsa id
g an
åĩ Ĩ
è ħ
à³ į
à§ ĩ
éĻ ¢
æŁ ¥
æµ ·
Ġà ¶
å¥ ³
i ed
à¤ ķ
Ï ħ
Ġm ak
Ġus e
à« ĩ
è§ ģ
Ġs ub
ä¹ ¦
åı Ī
è İ
× Ķ
Ġh ow
åı į
éľĢ è¦ģ
Ġd ec
è¾ ¾
éĢļ è¿ĩ
æ¸ ħ
t en
Ġb ack
Ġy a
åĪ Ļ
ol og
åĨ į
Ġc ol
Õ¸ ÖĤ
Ġun der
o y
ì Ŀ
it s
æī į
e h
éĿ ŀ
Ġan g
æº Ĳ
Ó ķ
ç½ ®
å°± æĺ¯
è½ ¬
c i
Ġc ould
à ±
m er
Ġf in
) )
éĽ Ĩ
áĥĲ áĥ
b a
æŃ ¥
å Ħ
Ġit s
b le
p tion
à½ ĳ
Ä «
am a
c re
$ $
Ġs ec
ç® Ĺ
éª Į
è§ Ĥ
ul ar
å¦Ĥ æŀľ
at ing
æĿ ĥ
on s
e w
ç´ ł
ç² ¾
çĻ ½
= "
ot h
áł¤ áł
æł ¹
åĽ Ľ
a use
ä¹ ī
' ,
ä½ ķ
Ð¸ ÑĤ
ç© ¶
áĢ Ĳ
Ġ ed
f ore
Ġ x
t t
Ġpro v
à¤ ¤
Ġ id
if ic
Ì £
åĪ Ľ
à¦¾ à¦
Ġtr ans
áĥ ĺ
æĹ¶ éĹ´
à» Ī
è¯ Ĩ
å ĭ
è£ ħ
çİ ¯
ä¸ ľ
Ã ½
k u
Ġm en
âĢ ¦
Ġn um
Ġf irst
n er
Ġsp ec
ç¥ ŀ
Ġj ust
å¸ ¦
Ġt wo
æ ¼
Ġkn ow
rou gh
at ch
å ²
æĶ ¯
. "
Û ĩ
ç© º
e v
áĢŃ áĢ¯
Ñ ħ
al s
åħ ±
l ed
è¯ Ŀ
á Į
è¯ ķ
Ġw a
Ò Ľ
l es
àº² àº
åĮ »
à³į à²
ur r
ou gh
( '
æĢ Ŀ
Ġd ata
ä¸Ń åĽ½
åĨ µ
à Ń
Ġre l
à ¹
æ ¢
y n
è® °
ä½¿ çĶ¨
à½ ¼
Ġf r
Ġ Å
Ġthe se
é Ł
Ġex p
åı °
ç ĭ
Ú ¯
ç ı
å¤ į
àºĻ àº
. get
å± ±
tr ing
i y
Ã ¨
Ġ q
Ġre qu
im port
Ġá ĭ
Ġá Ī
== ==
ä¸ ĸ
åĨ ³
Ä ©
æ¡ Ī
æł ¡
an e
b o
m s
Ġs om
ä¸ ĩ
à¤ Ĥ
iel d
E R
in i
å ĥ
Ġin v
Ġres ult
Ġc he
å¿ «
Ġd id
æİ ¨
ä½ İ
æĸ ½
Ġp art
æĺ ĵ
Ġe ff
u es
z a
Ġp a
áĬ ķ
æĬĢ æľ¯
Ġ áŀ
Ġs l
èģ Ķ
an k
æ¶ Ī
× ¨
Ġl ook
t ed
å¿ ħ
å¼ ķ
ÑĢ Ðµ
Ġe le
è¯ Ń
Ù ĥ
ä¸ Ķ
p o
áł¡ áł
Ġdif fer
Ġp ol
Ġth rough
Ġ end
åŃ Ĺ
i ent
åį ³
æ¸ ¸
Ġthe n
Ġre m
áĢ Ļ
ä¼ ĺ
¯ áł
èĲ ¥
Ø ¹
æľį åĬ¡
ter n
éħ į
åı Ĥ
àµ į
as ed
Ġhe l
or k
Ġp res
Ġv o
op le
æĬ ķ
à¤ ²
Ġw ant
ä»ĸ ä»¬
c k
áĢ ¼
y m
ment s
ar g
Ñ ĩ
Ä ħ
Ġm em
i x
è§ Ĩ
il ity
à§ į
} \
ĠW e
in s
Ġm ake
Ġ ÏĦ
Ġo l
åŁ İ
æµ ĭ
× ľ
Ä ĥ
Ġk o
i er
ç³» ç»Ł
ow er
åı¯ èĥ½
éĩ ĩ
É Ľ
çłĶ ç©¶
ib le
R e
éĢ Ł
an n
Ã ª
áĢ ķ
C on
æĢ ģ
Ġm o
Ġs er
åĦ ¿
çķ Į
il i
æ· ±
at ive
Ġm ost
Ġ !
sp ace
Ġsh ould
Ð¾ ÑĢ
Ð¾ Ð»
Ġ Ñĥ
r u
ĠâĢ ĺ
Ð¸ Ð½
ļ áŀ
f un
em ent
Ġm et
Ġd el
å® ¢
åŃ¦ çĶŁ
it ies
æİ §
Ġo d
Ġh and
he s
é£ Ł
è¿Ļ ä¸ª
Ñĭ Ð½
é ¥
åĩ ł
Ġfor m
à¦ ¿
Ġà¤ ¸
çĥ Ń
æĺ ¾
Ġl i
å¹ ¿
æĪ ĺ
áĢ Ķ
Ġb a
é¢ Ĩ
ä¾ ĭ
à² ¿
åį Ĺ
Ġwh ere
æ ĵ
ik a
åĵ į
ç» Ĩ
à§į à¦
èĬ ±
Ä ĩ
ç¤¾ ä¼ļ
Ġp ers
éĺ ²
Ġaf ter
çĲ ĥ
Ġl o
_ s
Ġs im
' t
çĬ ¶
à½ ĸ
åİ ĭ
h at
çĪ ±
æĸ Ń
Ġer r
d a
am p
Ġpro duc
åı ·
Ġs ur
Ð°Ð ¼
.. .
æĬ ¤
Ä ĵ
å¢ ĥ
áĢ ·
ç ª
Ġw ell
ut e
Ġac c
è¡ Ģ
Ġt al
Õ¡Õ ¶
åĬ ©
åĬ ŀ
ĠâĢ ĵ
è ĳ
Ð¾ Ð½
éĻ Ĳ
Ġ _{
áĥ Ķ
è¿ ĳ
è¯ ·
ä¾ ¿
Ġv ar
Ġp ublic
Ġfun ction
v en
id er
Ġcl ass
Ġ= =
è± ¡
re ad
Ġsu ch
éĻ ¤
ĠØ ³
le t
ion s
Ò ¯
an i
Ã §
w n
Ġpe ople
æ£ Ģ
Ġt ak
Ġat t
o od
à» ī
ä¸» è¦ģ
æ ħ
éĢ Ĥ
il y
è ı
è® ®
å§ ĭ
å¸ ĥ
Ø§ ÙĦ
åĳ Ĭ
Ġin clud
Ġt i
ĠĠĠĠĠĠĠĠ ĠĠĠĠĠĠĠĠĠĠĠĠĠĠĠ
l ine
Ã £
Ġv an
à¨ ¾
" )
ou n
v i
a u
w ard
Ñ Ĩ
ĠØ ¦
Ġi z
Ġw ay
æ® µ
if e
åħ »
Ð°Ð ²
Ġin form
Ġus ed
Ġs am
ģ àº
we en
ĠÐ½ Ð°
ä¸Ń çļĦ
Ã ¸
Ġe very
äº Ķ
uc t
Ġ× Ķ
å¤ ª
æĥħ åĨµ
Ð°Ð ´
èĩ ´
ä» Ĭ
ar ch
æµ İ
rou p
at or
n y
æŀ Ĳ
æľ ª
Ġ _
O N
àµį à´
Ġim port
Ä §
æ ĳ
åĢ Ļ
el a
ar s
Ġs erv
Ġl oc
pl ic
Ġg l
ad d
z i
Ġn d
ov a
n ame
è¶ ³
z e
çļĦ äºº
çī ĩ
ç ¢
o f
I N
æĸ¹ æ³ķ
éļ ¾
è¶ Ĭ
à¤ ¸
f ig
am s
æ ¥
Ġo g
Ġ ent
Ġs ign
Ġ ir
a f
w ay
ç§ ¯
m in
Ù ģ
od y
Ġd r
å¹ ²
y o
I d
éĻ ħ
u tion
æĪ ¿
åĮ Ĺ
, âĢĿ
æŀ ģ
l ar
ot her
å ł
ç» ´
- s
çĸ Ĺ
P ro
# #
Ġa ut
it a
t on
Ġse e
à½ ¢
à³ ģ
Ġb el
le ct
Ġex per
Ġn ga
æĮ ī
åĥ ı
** **
æ Ĳ
ç« Ļ
Ġz a
Ġbet ween
ow s
åĳ ¨
Ġg u
à¯ ģ
k i
ä¸į åĲĮ
. c
at ic
f l
æ¬ ¾
Ðµ ÑĤ
Ġev en
Î ¼
áŀ Ģ
à¥ ģ
æķĻ èĤ²
à¤ ®
çħ §
ç¦ »
åĳ ½
Ġ est
æ Ĵ
re t
Ġs ystem
I t
å¸Ĥ åľº
g er
äº§ åĵģ
Ø Į
Ġd on
èµ °
av a
æĿ Ĳ
Ã µ
Ġhel p
v a
è¨ Ģ
Ó ©
ä¸į æĺ¯
Ġel se
áĥĶ áĥ
ur ing
v o
ec tion
èģ Į
å± ŀ
Ġd own
èĤ ¡
Ġst art
à¤ ¹
å± Ĥ
c c
æİ Ĵ
éĺ Ł
o ol
ä¹ Ĳ
at ure
a ir
ä¿¡ æģ¯
_ d
it t
Ġt em
Ġà¤ ®
çĶŁ æ´»
u res
áº ¹
Ġin st
c ri
Ġn ow
vel op
à½ Ħ
å¤ ±
r ap
Ġc or
Ġh igh
Ġc ar
èį ¯
åĽł ä¸º
ç» Ń
g o
k o
Ðµ Ð»
Ð°Ð º
Ġ il
b u
et s
ç»ı æµİ
æıĲ ä¾Ľ
Ġ Z
r en
Ġs ol
åį ĩ
è§ ī
å ¡
s on
Î º
Ð¾ Ð´
Ġm on
åı ĭ
ÖĢ Õ
. l
Ã© s
ĠP ro
× Ĳ
× ª
Ġver y
Ä Ĺ
ic es
æĸ¹ éĿ¢
. S
æ´» åĬ¨
ĠÙ Ĩ
Û Ĳ
Ġd en
à½ ´
à½ ĵ
è¯ Ħ
Ġà ¬
åŃ¦ ä¹ł
à¸ ²
R es
us h
æ» ¡
s er
e ver
Ð¾Ð ¼
éļ ı
å½± åĵį
à· Ĭ
g y
åĪ Ĺ
Ġf il
) :
èĮ ĥ
ÙĦ Ùī
àº ĩ
er a
Ã ²
è¯ ¾
_ c
\ %
à²¿ à²
Ġm at
éĩį è¦ģ
áĢ ½
urr ent
áŀ ĵ
é¢ Ħ
Î »
Ø ¬
Ġgo od
Ġc all
Ú Ĩ
à® ¿
m an
Ġr ight
Ġag ain
Ġf ind
ak a
æ ļ
æĭ ©
Ġj a
Ġbec ause
å¤ Ł
Ġ: =
Ġe ach
N ame
u ro
Û Ĵ
Ø ©
A T
f ic
è¿ ŀ
Ģ àº
æīĢ ä»¥
eth od
å± Ģ
Ġd ire
Ġman y
è´ £
é¦ ĸ
ag es
å ¨
ä¿ ®
ĠÐ ¶
éĻ ©
y p
è¶ ħ
è¦ģ æ±Ĥ
. p
ç§ °
} ,
Ð° Ñģ
Ġc re
æķ° æį®
Å ³
Ġbe fore
æĢ İ
ĠC om
Õ¥ Õ
åĪ ĩ
Ġd ist
Ġf oll
å¼ ł
Ġt est
è¾ ¹
Ð°Ð ·
åĽ ¢
å®ī åħ¨
Ġà¤ ª
Ġre ad
çº ¦
ä¸Ģ ç§į
çİ ĭ
iz ed
į àª
Ġà º
d d
Ġt Ã«
× ŀ
Õ¸ÖĤ Õ
Î ¯
Ġá ī
à« įàª
ad i
Ġg ener
Ġcon st
çľ ģ
àº ±
o h
Ġv ari
åĪ Ĵ
Û ģ
ĠA r
éĢī æĭ©
pon se
çľ ¼
ation al
t he
d ot
o ver
áĢ »
å ĺ
ĠÐ¿ ÑĢ
Ġb il
I D
u a
E r
} )
are d
æľ Ľ
ç Į
éŁ ³
at s
Ġpl ay
E S
ne w
t or
áł ¦
ĠA l
å Ĥ
. d
å¾ ĭ
äºº çļĦ
Ġwh ile
å£ °
ãĢĤ âĢĿ
çĽ Ĭ
f o
on i
Ġv is
åĿ ĩ
à¦¿ à¦
ĠĠĠĠ Ġ
å¾ Ģ
um ent
åŃ ©
s et
L ist
u le
æ ¹
è®¾ è®¡
åĨ ľ
Ġmu ch
Ġà ´
è¿ °
Ġ `
æĿ ¿
ro l
r ay
èİ ·
b l
ĠY ou
ä½ ı
àº Ķ
Å ¼
Ġk om
åĪĨ æŀĲ
Å ©
Ġin s
à®¿ à®
Ð¾Ð ³
æ¸ ©
E x
Ġh ere
à¾ ±
. com
Ġy ang
Ð ¶
in es
é© ¬
å¾ ·
er n
Ã¶ r
it i
è¿ĩ ç¨ĭ
en a
à½ º
åĲĮ æĹ¶
} {
áī µ
e f
à« Ģ
àº °
en i
Ġ @
ect ed
-------- --------
åĲ ĥ
æķ ħ
áĢ Ľ
åŁ Ł
ĠÐ ³
Ð°Ð ¹
it ed
Ġ ÑĢ
è¿Ļ æł·
am ent
Ġval ue
Ġ Â
_ t
åħ ĭ
Ġpro cess
Ġs ti
Ġs in
Ġyear s
âĢ Į
Å Ĥ
ç» ĩ
è® ¸
ĠI f
áĥĺ áĥ
áĢĦ áĢºáĢ
æ² ¹
Ġpers on
, "
Ġl ist
Ġ um
i et
çŃ Ķ
å· ®
r ic
É ĸ
é ¾
C h
à½ ł
åĬ ¿
Ġc ase
åħ ħ
Ġn il
as a
æ ¿
åİ Ĩ
Ġus ing
è¿Ļ äºĽ
ä»¥ åıĬ
ä¸Ģ äºĽ
æĸ ¯
åĨ Ľ
èĪ ¬
ä» ħ
Ġo m
v ed
ĠA nd
er y
our ce
" );
p ec
æĹ¶ åĢĻ
çĶŁ äº§
æł¹ æį®
åĽ½ å®¶
è§ Ĵ
éĶ Ģ
Ð¾ ÑĤ
. ,
Ġb re
Ñ Ĭ
Ġqu e
æĸ¹ å¼ı
Ù ¾
á į
j u
áĢ Ĭ
èĩªå·± çļĦ
Ġch ar
çŃ ĸ
èĥ½ åĬĽ
Ġ ì
Ġv e
åħ¶ ä»ĸ
Ġm ade
b r
ä¸į èĥ½
Ġà¤ ¹
it u
åľ Ł
Ġf ound
et a
m i
Ġde velop
åĨ Ļ
è ŀ
áĪ Ŀ
ä½Ĩ æĺ¯
al se
ĠS he
åħ į
åį İ
A R
Ġth ose
Ġt er
b y
Ġc r
å¥½ çļĦ
. m
d ay
Ġs ame
ath er
Ñ į
Ġdo es
fr ac
< /
Ġdiffer ent
× ĳ
ä¾ Ŀ
al th
c ir
åĨħ å®¹
qu e
é ĸ
Ġ )
Ġà °
ç± ³
áĢ ħ
at us
Ġ= >
l er
E N
n ess
á Ĥ
Ġth ink
Ġd ie
in ess
am es
è ª
Ġbe ing
as k
in ed
ĠA n
A N
Ġpo int
Ġf am
Ġb oth
Ġd an
Ø§ Ø
e y
è¯ »
çĻ ¾
àª ¨
eng th
æĤ ¨
çº ¢
å¾ ®
c ent
Ã¤ r
Ġb est
as i
g ht
çģ «
é¡¹ çĽ®
Ġ Q
à§ĩ à¦
s i
p or
Ġ Å¡
Ã ¦
Ġm ain
ä¸Ģ å®ļ
à» Ģàº
Ġs ay
éĻ į
áĢ ŀ
çŁ ³
tim e
áŀ Ħ
æł ¸
æī ¿
× ©
Ġfoll ow
Î¿ Ïħ
åŁ ¹
Ġp ost
éĥ¨ åĪĨ
Ġb i
çİ° åľ¨
åħ· æľī
æĻ ¯
Ġd ay
çļĦ æĺ¯
Ġn ame
} ^{
åĽ ´
ç¬¬ ä¸Ģ
ter s
èĲ ½
Ï Į
à¨¾ à¨
àº Ń
æıĲ é«ĺ
Ġr un
ä» ½
Ġre al
Ġm ark
Ġv a
Ġhe ad
il a
ãģ ®
Ġt ake
ar m
v ent
is a
Ġsh ow
Ġin cre
ur i
ar n
å·² ç»ı
_ p
Ġnum ber
ç ¿
im a
Ø³ Øª
ä½ľ çĶ¨
ĠA s
on a
èĭ ±
e xt
ä¼ Ĺ
Ġb us
Ò £
è½ ½
l and
C l
Ġo wn
Ġ! =
e ad
ant s
ĠF or
åĲ «
Ġg iv
Ï ī
- b
æĭ ¬
à· Ĵ
åħ ļ
d en
Ġf a
rou nd
à¥ ¤
ç® Ģ
à½ ĺ
as on
} (
å¯¹ äºİ
ÙĪ Ø±
ç»Ħ ç»ĩ
T ype
_ m
k an
ĠÙ ¾
å· ŀ
å£ «
åĩ ı
à¥įà¤ ¯
åı Į
() .
Ġd em
w ork
å ©
gr am
å® Ŀ
åº ı
Ġl ife
: "
Ġan al
ire d
å¯ Ĩ
ç Ĩ
å§ Ķ
ess age
é º
åģ ¥
O R
ä½ľ ä¸º
Ġap pro
Ã ®
Ġk an
is m
A r
Ġf act
Ø§ Øª
à² ¾
S tring
Ġ Äį
æī ¾
ou se
æĤ £
åĸ ľ
çŁ¥ éģĵ
is k
è´ Ł
ä¸Ģ èĪ¬
Ġm ga
Ġor gan
ĠT r
è´ ¢
Ð¸ Ñı
Ġp ot
æĿ ĳ
qu est
çİ¯ å¢ĥ
p p
Ġtr ue
ce pt
ç« ł
S T
è¿ĺ æĺ¯
? âĢĿ
c he
è¿Ļ ç§į
äº ī
æĭ ī
- d
Ġdis c
èµ Ľ
åĪ Ŀ
ä¹ °
åį ı
è¾ ĵ
o le
c dot
C om
à¤ µ
Ġv i
è Ĩ
ä¸ ¥
Ġde p
ĠÙ Ħ
str ing
à¯ģ à®
Ġl ast
å¤§ çļĦ
æŀ Ĺ
í ķ
æĸĩ åĮĸ
å»º è®¾
ä¸Ĭ çļĦ
enc y
å® ¤
j i
Ġt il
å° Ķ
çĽ ĳ
Ġd er
Ġre p
æ¿ Ģ
Ġinform ation
ä¹Ł æĺ¯
éĥ½ æĺ¯
ĠB ut
Ġc ent
ra w
è½ »
çī Ī
as es
it al
å¿ µ
Er ror
Ã ¬
áŀ Ķ
à½ £
äº Ĵ
à²¾ à²
s k
ç» Ī
ÛĮ ÙĨ
Ġh a
åĲ ¦
Ð¸ Ð»
çī Į
m u
_ l
åĪ° äºĨ
s a
åº ķ
Ò ĵ
in al
ÙĨ Ùī
åı ²
æį ¢
áŀ ĺ
æĹ ©
éĿ Ĵ
Ġc le
V al
ĠÙ Ĥ
Ġc ap
Ġar ound
éĺ ³
åĮħ æĭ¬
åħ³ ç³»
Ġ ÏĢ
ĠØ ±
ç¾ ¤
çļ ®
Ġc are
Ġex am
ain ed
_ f
Ġch ild
à¶ ±
Ê »
åĽł æŃ¤
ac tion
h i
an o
æ± Ł
p a
åº ·
à¸ £
Ġpar tic
Ġ X
v es
Ġp ass
åĩº çİ°
- m
Ġ >
y l
çĶ ·
çĽ¸ åħ³
Ġpos s
v iew
à¥įà¤ °
Ġm ag
Ġsti ll
Ġm i
æİ§ åĪ¶
è¿ ľ
åĬŁ èĥ½
åĳ ¢
Ñĭ Ð»
ro ll
ë ĭ
é¡ »
T o
æĺ Ł
Ð¾ Ñ
å¤Ħ çĲĨ
a ult
åº ľ
] .
Ġt ype
æĢİ ä¹Ī
× ł
ur a
áĢ ¾
Ġpro f
r ist
åĲ ¬
å¼ Ĥ
åį ´
W e
å¸ ®
de f
u i
Ġo s
ust om
åŃ© åŃĲ
äº ²
in o
èĥ½ å¤Ł
d u
Ġpri v
ä¸ĸ çķĮ
fun c
è´ Ń
æ¯Ķ è¾ĥ
ic t
d s
Ã« r
åĸ Ħ
âĢ ¯áł
å¼Ģ å§ĭ
D ata
ur s
h ip
Ġpro ble
Ñģ Ðº
- c
Ġc ell
åĲ Ĺ
çı Ń
ty pe
å¾Ī å¤ļ
àº µ
æ¼ Ķ
åĲ ¸
ain ing
æ ¤
à« ĭ
ab el
Ġk on
æĪĸ èĢħ
iz ation
Õ¸ Õ
ro ss
à¸ Ļ
Ġ× Ĳ
i ence
åĩ »
æŃ ¢
at t
h y
ain s
Ġk w
áŀ Ł
Ġt ech
o x
Ġm ar
Ġu k
Ú ¾
A L
ĠU n
Ġle vel
ul a
ä¸ĵ ä¸ļ
äºº åĳĺ
} =
Ġg reat
us s
] ,
Ġo per
ur al
Ġcomp le
åį Ĭ
ot e
áĢ ľ
ĠØ ´
æīĢ æľī
Ġm ust
ĠI s
åıĳ çĶŁ
ĠN ew
Ġt im
Ġp op
èī ¯
ä» ĭ
.. ..
Ġp ag
èī º
åĳ ³
æ¶ ²
é» Ħ
Î ¬
Ġm ethod
Ġtr y
è Ń
Ù İ
g in
ï¼ļ âĢľ
ot t
åĵ ª
re am
re m
v ar
T r
Ġp ati
re g
æ ¦
æŃ »
Ġop en
æŁ Ĳ
Ä Ł
Ġap p
Ġwor ld
à© ĩ
à¤ ª
Ġth ree
æ²» çĸĹ
éĢ ģ
å¯ Į
Ġ× ľ
f ace
ir i
Ġto o
Ġb er
ar ly
Ġ- >
Ġá »
ĠS h
at o
åº Ĺ
ess ion
b i
å½ ķ
Ð¸ Ðº
ic a
Ġt ri
éĿŀ å¸¸
Ã ¢
åį ¡
Ġs ing
Ġgo ing
áŁ ĭ
Ø Ń
Ø ®
Ä Ļ
ãĢ ĳ
å® ³
ç« ¯
ãĢ Ĳ
Ġe qu
Ġn on
ĠÎ ±
Ġdes ign
áĢ ģ
Ø§ Ùħ
ij e
ch ool
à¤¾à¤ °
Ġst and
è ²
olog y
èŀ į
æĪ ı
E n
æ¬ ¢
Ġsm all
eh ova
Ġmod el
çļĦ ä¸Ģ
ag a
Ġh ome
å° ½
uc k
çķ Ļ
e e
ti es
ĠE x
Ðµ Ð¼
à© Ģ
Ġex t
ic i
æĵ į
åı ¦
çĶ± äºİ
et er
æĻ º
ĠC on
èĳ Ĺ
æĪĲ ä¸º
ak o
Ġcont in
å¤§ å®¶
åŃĺ åľ¨
Ġper form
àª °
Ġ< <
u h
f or
ä¼ ¤
oc i
à³ Ĩ
Ġ× ĳ
Ð¸ Ð¼
Ġc our
éħ Ĵ
Ġprov id
c ed
å¿ Ĺ
Ġh al
n os
Ġle ad
áĪ Ń
Ġ// /
áł¦ áł
Ðµ Ðº
áĥ Ŀ
ç ¯
åı ¤
itt le
em s
ĠÐ µ
ĠáĢ ¡
ç§ »
è´¨ éĩı
ou ght
å®ŀ çİ°
çİ ©
ĠH ow
é Ĩ
Ö ģ
åĶ ®
ĠThe y
å·¥ ç¨ĭ
Ø§ ÛĮ
.s et
Ġsec ond
Ġp ut
Ġp od
end s
Ġbe h
Ġcons ider
çķ ¥
ĠÎ º
Ġor der
ic s
è® Ń
ti k
w ays
al ity
Ġa y
ç»ĵ æŀĦ
ĠR es
æĬķ èµĦ
p i
éĶ Ļ
() ,
ĠØ ¬
Ġc a
Ø º
Ġhe t
m ed
is ion
Ġt erm
end e
Ġl og
Ġp at
ĠTh ere
æ¯ į
==== ====
áĢ± áĢ¬
àº »
id a
Ġpres ent
n s
å® ĺ
C ont
c es
th is
Ġc urrent
_ id
ij a
ç µ
um a
àº §
Ġ ;
ar get
äº ¬
Ġm as
åĽ Ń
Ġsup port
Ġd uring
cl ed
' )
è· Ł
u f
è® ²
er o
è Ľ
em b
åĢ ĭ
çĭ ¬
Ä Ľ
É ©
æĻ ®
éĴ ±
Ġà¤ ¬
ect or
R E
is tic
Ġm ul
Ġà¤ ħ
Ġo k
enti al
Ġb ir
× ¢
or a
éĵ ¶
æķĻ åŃ¦
Ġr a
Ġac tiv
ç¼ ĸ
ug g
Ġim p
×Ļ× Ŀ
åŁº æľ¬
ÙĪ ÙĨ
ist s
Ġin c
åŁº ç¡
Ġl ine
Ġm al
em ber
ä» ĺ
ap e
Å ĳ
à¤ ¯
l ess
os s
Ġ ë
è Ĺ
æĻ Ĥ
Ġa z
ĠÎ µ
Ðµ Ð´
Ġs al
Ä± n
enc es
à¨ ¿
ate g
iv id
åŁºç¡ Ģ
å¾ ģ
w h
áĪ į
Ġas k
é¢ Ŀ
ç¦ ı
Ġto p
Ġpl ace
Ð°Ð ³
ç £
st and
è¡ ¥
Ġ ur
à½ Ķ
Ġà¤ķ à¥ĩ
éħ ¸
à´ ¿
L E
Ġo ld
çª ģ
æ ½
eth ing
cir cled
Ġ Ïĥ
P ar
Ġcomm un
åħ Ń
Ġer ror
å® ¡
áĢ ®
çł ´
s c
çĶ¨ æĪ·
Î ³
Ġt urn
ak i
text circled
av ing
op e
ab ility
Ġstr ing
Ġfe w
ĠR e
l u
Î Ń
Ð½ Ð¾
Ġ ut
Ġpre d
Ġm us
è´ §
é¦ Ļ
. f
çĶ »
pl ay
äºĨ ä¸Ģ
Ġpro t
th ing
Ġi ha
b s
Ġk i
end er
is ter
( &
l ig
åºĶ çĶ¨
å¾ ħ
Ġw ater
Ġv ol
Ġne xt
Ġd oc
é ¼
Ġs oc
ç»ĵ æŀľ
Ġre f
åĲ §
ä¸ª äºº
åħ ´
áĢ ²
ĠÃ ł
Ġwith out
Ġbus iness
Ġwe ek
ç» ľ
Ġt u
r al
ent ly
æłĩ åĩĨ
um p
Ñĸ Ð½
Ġn y
å± ħ
m it
r ight
. A
æĪĳ çļĦ
Ġ* /
åĽ º
é ¸
çŁ¥ è¯Ĩ
a x
Ġ× ŀ
Ġst ate
áī ¥
Ð°Ñ ħ
r ite
áŀ ·
æľ ĥ
iss ion
Ġm ight
æĹ ı
Ġstr uct
ä¹ĭ éĹ´
Ġfe el
åıĳ çİ°
Ġcon d
Â ł
äºº æ°ĳ
âĢ ¯
am i
ti g
ĠáĬ ¥
Ġre port
it er
Ġd u
y t
åİ ¿
Ġl ittle
çĹ ĩ
od el
or n
Ġ ide
ĠĠĠĠĠĠĠĠĠĠĠĠĠĠĠĠ ĠĠĠĠĠĠĠĠĠĠĠ
ition s
ç ĵ
Ġto t
æį Ł
à¤ ¦
ÙĪ ÙĦ
Ġstud y
v ir
ç ĩ
Ġf n
tim es
Ġh app
un k
æ³ ¢
è½ ¯
H e
uc cess
æĶ¿ åºľ
äº ĳ
et t
è¿Ļ ä¸Ģ
[ i
é Ń
is hed
Ġl im
å¦Ĥ ä½ķ
en se
á ±
ut h
ĠØ ®
à® ¾
ĠÑ ĩ
G et
r is
å· ¦
ä» ¤
æ² ³
Ġcom e
æ³¨ æĦı
è®¾ å¤ĩ
è¯ į
è§Ħ å®ļ
( s
Ġpl an
Ġpr int
Ġb as
" >
- f
A n
à¸ ĩ
om en
is i
æĿ¥ çļĦ
l ing
áĢĦ áĢ¹
é» ĳ
Ã¡ l
à¤ Ĺ
éĩĩ çĶ¨
× ĵ
ĠÙ ģ
in c
èµĦ æºĲ
å¿ħ é¡»
I T
tr a
lo ad
æĬ Ĺ
ro p
Î± Î¹
A S
åŃ¦ æł¡
Ġc al
ç¬¬ äºĮ
ac ter
èĭ ¥
Ġimport ant
Ø ¦
em p
Ġs w
Ã¡ n
é¢ ĳ
èĦ ĳ
Ġh um
Ġà¤ ľ
Ġad v
se arch
æĿĲ æĸĻ
à² °
Ġex pl
Th is
çĤ º
çŁ Ń
Ġloc al
à½¦ à¾
m p
ĠC l
( c
Ġre ally
Ø§ Ø¯
Ġpro per
ĠÙ ĩ
Ģ à¸
æī §
ç¼ º
ul ation
åĿ ļ
áŀ Ľ
ä¸ ´
áĪ µ
d i
ce ption
Ġf ield
s im
æĭ ħ
Ġ %
Ġeff ect
m l
èĢĮ ä¸Ķ
ĠâĢ Ķ
åħ¶ ä¸Ń
Ġpro gram
ä¼ ¼
m at
Ġà¤ ¨
åĿ Ĺ
Ġsom ething
Ġe as
id ent
r t
éĢ Ļ
al k
er i
Y ou
ä¸º äºĨ
l an
ç ¶
Ġan other
á» ¥
at iv
Ġ× ©
áĢ ¶
ä¸Ń å¿ĥ
Ġf alse
à®¾ à®
in ation
è®¡ ç®Ĺ
erv ice
ĠÑ ħ
b ack
Ġb ar
à¥ Ĥ
è ³
çĽ´ æİ¥
à² ¦
å¸ Į
Ġd ri
Ġs pe
æĤ£ èĢħ
àºĩ àº
Ö Ħ
×ķ× ª
Ġh ar
Ġp or
× Ĺ
æŁ ĵ
Ġqu es
áŀ ı
Ġ Ò
æĿ¡ ä»¶
n ot
Ġb ook
Ġp ur
un a
Ġg roup
é ł
ÙĨ Ø¯
Ġhe alth
Ġresult s
Å «
å¯ Ł
áĭ Ń
at ely
åħ «
Ġdire ct
o ot
æĿ İ
åĬ ³
" ;
Ġpriv ate
ĠO n
Ġd al
Ġg row
çļĦ æĹ¶åĢĻ
é ¤
Ġar g
âĢ ĺ
le ction
Ġd at
( t
åį ĥ
å®Į æĪĲ
Ġst d
æī ¹
Ġus er
d ate
ç¨ ³
ff er
é ²
ä¸ ¾
áĥĿ áĥ
el t
Ġke y
à¬ ¾
: //
å¢ŀ åĬł
Õ¥ ÖĢ
åĪ© çĶ¨
ĠÄ ĳ
Ġne ver
ar ge
ç´ ¢
Ġg ot
it or
è®¤ ä¸º
Ġp Ã¥
åı ³
Ġ Å¾
åºĶ è¯¥
àŃ į
Ġch o
Ġs v
. P
A C
um e
âĢĿ ï¼Į
Ġle g
Ġm il
à¨ °
- t
ĠS tring
. C
Ã ±
y d
Ã¡ s
ay a
äº§ çĶŁ
éĤ£ ä¹Ī
æ ĩ
à² ¨
é¾ Ļ
ĠA ll
àµ ģ
Û Ī
åı ¥
åĪ »
Ð¸ ÑĢ
Ġà »
ĠT o
- l
Ġ Ð°
è¯ ī
è¿ĺ æľī
Ġwith in
er r
ç½ĳ ç»ľ
äº ļ
åº §
ail able
ãĢ Į
et e
è Ĵ
åįķ ä½į
Ġh an
å½¢ æĪĲ
á» ĭ
+ +
èĻ ½
à· ı
Ġy e
å° Ħ
Ð½ Ñĭ
Ġb ro
Ġke ep
ater ial
j o
( f
it ive
áĢ ¡
ĠF r
ç¥ ¨
ãĢ į
éļ ľ
ress ion
ĠÙ ĥ
Ú Ń
Î ®
æĹ ħ
Ġth ings
Ġf ile
ãģ «
éĿ ©
) );
è§£ åĨ³
å¦ Ī
Ġh o
w w
à¶ º
er c
Ġp ower
æľī æķĪ
Ġre ce
Ġen g
Ñĭ ÑĢ
le ase
æľ ¨
Ġre st
Ġl ot
Ġo cc
Ġp al
ĠÙ Ĭ
Ġj o
ç´ §
äº «
áŁ Ĩ
E T
Ġbu ild
u z
n et
à¦ °
ag er
uk a
Ġs ize
Ġbet ter
àº ļ
Ġcon n
f ter
Ġle ft
åģ ĩ
æĺ ¥
åį °
Ġm ut
Ð¸ Ð²
æľ ĭ
ä¸į ä¼ļ
äºĨ è§£
Ġg re
æ°´ å¹³
w are
ãĢĤ "
- p
éĺ ¶
Ġl ik
Ġbre ak
im o
à± į
Ġs um
u ally
Ġl iv
Ġch ang
è¡Į ä¸º
( d
ĠI nd
çł ģ
ç¬ ĳ
. h
è¡Į ä¸ļ
ç» §
Ġal ways
Ġa ff
æ¸¸ æĪı
Ġl ess
Ġdid n
cl ass
el i
çĹ Ľ
è ©
Ð°Ð ±
Ġi k
Ġ Ì£
im ent
g i
Ġt re
clud e
Ġw rit
ert ain
è¿Ļ æĺ¯
O b
éĶ ®
áŁ ģ
ol o
åĨ ·
Ġpro m
val ue
Ġf ree
áĢ ļ
A M
in ter
av i
Ġde v
è¡¨ ç¤º
Ġp ay
ä½ Ļ
çĽ® åīį
ar an
Ð¾ Ñģ
Ġcont rol
Õ ¿
V iew
om a
Ġinter est
çº ³
Ġku ti
åį ł
ol or
( self
Ġf ri
ç¨ İ
Ġvo id
Ġà¤ ¤
æ¯ Ĵ
Ñ İ
r ation
A s
å®ŀ éĻħ
] ;
Ġb ody
vi ous
us i
ĠØ ¹
tr y
Ġme as
áŀ »
( m
Ð°Ñ Ī
I C
tr act
ä¾ Ĩ
Ġt reat
Ġm or
ä¸į æĸŃ
Ġm aj
ä½ł çļĦ
at u
å¤§ åŃ¦
à° ¿
ke y
. D
çĽ ĺ
I m
çĶ ³
Ġp i
pr int
Ġn j
aw a
__ __
ĠØ ¢
b ers
Ġà¤ °
id th
æĵį ä½ľ
Ġap pe
A P
Ġse ver
à² µ
A l
Õ¡Õ ¯
Ġth ought
ĠP ar
èµ· æĿ¥
à· Ģ
I S
Ġc ost
B ut
Ġà¤ ¦
is ed
Ġh ard
ol a
çĽ® æłĩ
Õ« Õ¶
æĢ ¥
çº ª
Ġg e
B y
áĢ «
æĶ¯ æĮģ
áĭ į
U n
áŁĴáŀ ļáŀ
Ġm ov
Ġv iew
ì Ĺ
Ġà¤ µ
åģ¥ åº·
Ġr ange
æľĭ åıĭ
è° ¢
Õ ¨
åĪ ¤
F or
Ú º
. t
Ã¤ n
ti f
æĴ Ń
åĲĦ ç§į
Ġsin ce
èĥ Į
g en
Ġadd ition
Ġ ?
Ï ĩ
z j
at an
ri x
çĶ ²
å¤ «
èĩª çĦ¶
" :
Ġche ck
**** ****
str uc
ĠE uro
áł İ
ç» Ŀ
Ġn et
à´¿ à´
Ġl ight
æķĪ æŀľ
à¸ ±
Ġa way
Ġen er
åº Ĭ
éľĢ æ±Ĥ
Ġw on
Ġc ustom
Ġsign ific
àª ¤
Ġs ure
ti ce
çĦ¶ åĲİ
Ð´ Ð°
Ġc oun
áĢ¬ áĢ¸áĢ
ad o
y le
áĢ °
åģ ľ
ĠÐ½ Ðµ
Ġm om
åį «
ç» ĥ
âĢ¦ âĢ¦
ure d
{ \
Ġk as
Ġà ·
Ġb al
ç§ĳ åŃ¦
Ġt yp
() );
ab a
() )
ĠÐ´ Ð°
Ġgiv en
Ġ ing
r on
Ġmon th
us ed
åī Ĥ
æ´ Ĺ
ä»ĸ çļĦ
Ġp an
ãģ Ł
Ġagain st
éĥ¨ éĹ¨
æł ĳ
Ġcon f
ĠA mer
å½ ©
à¬ °
c o
ìĿ ´
T ext
Ġà¤ Ĩ
è ĸ
ä¿ ĥ
un e
ak an
Ġch ange
ap s
O n
N o
Õ¡Õ µ
ä¸¤ ä¸ª
Ġof fer
i ver
c hed
z y
æĻ ļ
re l
Ġme an
æĽ ²
com m
ä»· æł¼
æĦ ¿
Ġáł ¬
åŁİ å¸Ĥ
ÉĻ r
ab ly
éĴ Ī
Ġn ull
Ã£ o
à± ģ
u x
ĠS ystem
Ġp ath
res ent
k l
èĤ ī
ay er
m m
æĺ¯ åĲ¦
it le
n u
æ¡ £
Ġtech n
ĠA d
à¦ ¨
ĠN o
Ġp ap
Ġ} ,
Ġu g
w er
con st
åķ Ĭ
ud e
ç¬ ¦
id s
Ġinclud ing
ik u
ç² ī
æ¦ Ĥ
ip s
" "
åĨ ²
éģ ¿
Ġh ist
áĢºáĢ ¸
Ġf ac
ä¸į è¦ģ
ut a
åıĺ åĮĸ
$ \
å¥ Ĺ
é£ ŀ
ĠO r
Ġ Ã©
æ± ½
Ġev ent
à¸² à¸
èĥ ŀ
k en
p an
Ġrequ ire
æĭ Ľ
Ġro om
Ġte xt
// //
Ġpro ject
ys is
æľº æŀĦ
j en
Ð°ÑĤ Ð°
èİ· å¾Ĺ
éĻ Ħ
Ġst ep
ä»» ä½ķ
plic ation
Ñĥ Ð»
ä¸ ĥ
åŃ £
ç²¾ ç¥ŀ
à±į à°
Ġav ailable
çĪ ¶
ĠM ar
Ġfam ily
æħ ¢
æİ ¢
Ġis s
åĽ½ éĻħ
Ġind ivid
å² ģ
y es
ang a
æ ©
ĠG od
Ġre search
B u
ou ble
æŃ ¦
Ġs chool
à¸ Ń
å· ´
å¾Ĺ åĪ°
Ġà¤ ²
it o
æ£Ģ æŁ¥
å¥ ĩ
Ġm ill
es u
ä¹ĭ åĲİ
Ġp as
áĢĢ áĢºáĢ
èı ľ
æĸ° çļĦ
Val ue
pl es
Ġe k
åľ° æĸ¹
æĽ ¾
Ð¾Ð ±
ä¸Ģ æŃ¥
p ha
ĠÑ Ī
æķĻ å¸Ī
çģ µ
åĪ¶ åº¦
Ġw he
Ġg en
× §
Ġb ig
åį ļ
Ġn Ã«
z en
R O
Ġl ove
à° ¾
åıª æľī
Ġh ig
Ð°Ñ Ĩ
ht t
Ġo ch
us er
Ö ī
Ġt an
re f
æĺ¯ ä¸Ģ
Ġ Éĸ
å¹³ åı°
r ing
p ect
à¥ Ī
ãģ Ħ
Ġfollow ing
ĠA t
Ġf re
ä¿Ŀ æĬ¤
å»º ç«ĭ
æķ £
ik o
àº° àº
éģ ĩ
ä¹ ħ
àª ®
ut es
åĲĪ ä½ľ
ç» ¼
Ġp ub
d iv
éĵ ģ
anc es
Ġf ar
Ġpati ents
Ġ$ (
A nd
é ½
Ġrequ est
end ing
I f
åº ĵ
p ed
è¿Ĳ åĬ¨
Ġc ount
Ġserv ice
Ġg ive
Ð°Ð ¿
Ġl ow
Ġs ide
A D
ç« ŀ
çĶ ļ
Ġf ull
Ġn ec
à§ °
Ġcre ate
I I
" .
n um
Ġa ir
vers ity
Â ·
Ä ¡
Ġ& &
ic ally
it es
ä»· åĢ¼
ĠS o
èį ī
ad er
ĠĠĠĠĠĠĠĠĠĠĠĠĠĠĠĠ ĠĠĠĠĠĠĠĠĠĠĠĠĠĠĠĠ
Ġ ul
ĠÑģ Ðµ
Ð¸ Ð¹
åĪ ļ
åİŁ åĽł
ä»£ è¡¨
c ul
åı ¶
æ¨¡ å¼ı
à· Ķ
and a
our s
Ġs uccess
ä¸» ä¹ī
éĢ Ģ
. M
c le
ot s
ad u
Ġv ers
æĸĩ ä»¶
ar ing
æĢ§ çļĦ
ä¸ļ åĬ¡
C T
ĠÂ «
vir on
Ġmark et
ur ther
Ê ¼
w ord
è¡¨ çİ°
i os
âĢ ĵ
Ġma x
Ġk ind
åħ· ä½ĵ
ĠU ni
ä»¥ ä¸Ĭ
åı «
å® £
âĢĶ âĢĶ
éĺ ¿
è®¡ åĪĴ
Ð¾Ð º
Ġs y
å¯¼ èĩ´
Ġn orm
à« ģ
æľī åħ³
ãģ Ĺ
i od
ec tive
Ï į
po int
Ġl aw
ĠÕ °
] )
Ð¸ÑĤ Ðµ
Ġg ame
in clude
] [
éĿ Ļ
Ġpr im
Ġpr ac
Ġl arge
Ġf lo
è´£ ä»»
Re quest
èĻ ĳ
Ġare a
ëĭ ¤
áģ ĭ
äº ¿
in ing
Ġin f
å¸Į æľĽ
ç½ Ĺ
Ġim pro
åİ Ĥ
é¡ º
ãĤ ĭ
å¼Ģ åıĳ
Ġb it
ĠW h
in n
Ġá» į
å¸® åĬ©
U R
ĠÃ ¥
à¤¾à¤ ¨
Ġd ays
. g
m t
éĿ ł
p ly
èģ ļ
çĤ İ
f rom
or der
ä¹ Ŀ
éª ¨
Ġb ased
Ġexam ple
Ġ Ú¯
Ġab le
äº§ ä¸ļ
Ġt w
- k
Ġs ira
è ĵ
Ġ ÒĽ
ith er
å© ļ
ard s
Ġv ir
æĿ ¾
le v
Ġn u
× Ľ
Ġposs ible
ĠØ¯ Ø±
ä¸Ģ èµ·
à¯įà® ķ
Î¹ Îº
à¼ į
à¤ ¬
Ġl and
áŀ¶áŀ ĵ
m en
ä¸ °
èĢģ å¸Ī
ĺ Ðµ
æ³ķ å¾ĭ
åº Ń
æĿ Ĥ
Ġall ow
Ġd om
è¿ ½
Ġdet erm
Ñĥ ÑĢ
áĪ Ī
Ġexper ience
æŀ ¶
Ġs z
ie ve
Ġf Ã¶r
i i
çĶ¨ äºİ
it ial
æľī éĻĲ
Ð Ĳ
Ġn am
read y
Ġte am
Õ« Õ
Ġa i
àª Ĥ
c tr
Ġá į
ä¸Ģ æł·
ĠÎ ¼
y ch
åĵģ çīĮ
Ġunder stand
Ġáł ª
os p
çŃ ĳ
Â »
å®¢ æĪ·
) {
ç¾İ åĽ½
Ġm ind
¹ £
ĠB e
ĠP r
Ġsignific ant
Ã« s
ç ĺ
æĪĳ åĽ½
à¬ ¿
E D
## ##
æ¤ į
Ä ĭ
ord ing
id es
ap h
áŀ ĳ
ig a
çĻ »
Ġprov ide
çĲĨ è®º
Ġob s
o z
Ġan s
ĠÕ ´
Ûķ Ø±
Ġf our
Ġac cess
Î ¸
ĠP l
åľ° åĮº
ur y
è¯ ¯
il ar
Ġm ove
Ġn at
ä¹ ¡
ä»¥ ä¸ĭ
ou d
. st
Ġun d
al o
b ar
tic al
enti f
Ġ< /
Ġar t
ail s
éķ ĩ
Ġ× ķ
æıĲ åĩº
åī §
ang u
áŀ ļáŀ
it ing
å ª
èĽ ĭ
um i
à® °
Ġun til
ä¸Ģ æ¬¡
Ġres ponse
ĠÃ ¼
ĠHow ever
ou th
or i
æĪĲ åĬŁ
fer ence
un t
æĭ ¿
åī ¯
Ð¸ Ñģ
ç»ı èĲ¥
ä¹ İ
Ġst at
æĹ ¢
ä¸į ä»ħ
Ġin te
àª ¿
× ¤
è¿ĩç¨ĭ ä¸Ń
ç»Ĩ èĥŀ
iv ed
one y
end ed
æŃ Į
Ġspec ific
Ð´ Ñĭ
Ġm aterial
od i
à¶ »
Ġfin al
æ¯ Ľ
ç§ĳ æĬĢ
Øª Ùī
( p
. F
u j
ĠP h
åĿ Ĳ
æ¶Ī è´¹
I P
pl o
Ï Ĩ
Õ¸ÖĤÕ ´
l og
ĠW hen
á»į n
ç»ĵ åĲĪ
èĻ½ çĦ¶
ÙĪ Ø¯
æĽ´ å¤ļ
éĢ Ĳ
áŀ ¾
à¹ Ī
à¨¿ à¨
Ġs at
àµģ à´
ĠÐ· Ð°
çī¹ åĪ«
Î ´
id d
es e
Ġindivid ual
S h
Ġun i
áŀ Ļ
ore d
Ġg Ä§
Ġp ain
ç§¯ æŀģ
ag ement
Å Ļ
áłłáł Ń
ĠÐ »
å® Ī
ãģ ¨
ãģ ¯
Ġchild ren
éģ İ
åĢ Ł
Ġacc ount
Ġsoc ial
Ã³ n
Ġf ace
Õ¡ ÖĢ
Ġt ell
ĠÑģ ÑĤ
ic ro
ĠA m
I nd
è¡ £
£ áł
Ð¸Ñ ħ
åĸľ æ¬¢
T ime
ĠÃ ®
Ã ´
àº ´
} +
ir d
og rap
à§ ģ
å ³
ä¸Ģ ä¸ĭ
è¿Ľ åħ¥
Ġs on
æıĲ åįĩ
æĶ¿ çŃĸ
å¤ ľ
ãĤ Ĵ
èĭ ı
åİĨ åı²
¯ à¦
Ġa w
Ġin put
æĢĿ æĥ³
b ut
Ø µ
ul u
Ġk oj
b an
¶ áł¢áł
ur ation
Ġcomp any
áŀ ¸
ĠÏĦ Î·
åĮ» éĻ¢
Ġof ten
Ġw ind
çĨ Ł
Ġl ab
if ied
ag s
th ers
à¤ ļ
_ st
ĠS ome
ot o
åħ ¸
èĭ ¦
ri es
æ± ī
Ġex c
al u
Û Ĩ
Ðµ Ñģ
Ġk at
àº ¡
à½¢ à¾
Æ Ĵ
à¤ ľ
Ġpar a
Ġproble m
à¶ Ń
K ey
v ing
Ġs n
cri ption
C O
à¸ µ
Ġen c
à´ ¾
ist a
å»º è®®
ac y
çī Ľ
éĢł æĪĲ
r s
Ġst op
ç© ¿
en ing
W hat
èĮĥ åĽ´
ac es
ap i
æľĢ åĲİ
ĠG r
Ø§ Ø³
ĠL e
ab les
çľĭ åĪ°
æĿ¥ è¯´
h ing
ag i
éĢ ı
Ġor ig
æī ĺ
ç¬¬ ä¸ī
åĽł ç´ł
àº ģ
× Ŀ
ä» į
an u
Ġp Ã«r
Ø ·
áº ½
at ures
pon s
ĠThe se
ĠÃ ¶
à¤° à¥įà¤
Ġ --
é£İ éĻ©
é¢Ĩ å¯¼
àº² àºĻàº
å¹´ çļĦ
# include
Ġb ene
Ġtim es
åĪĽ æĸ°
Ð¸Ñ ĩ
Ġm er
è½ ®
åħ³ äºİ
å¥ ĸ
ãģ ¦
ion al
ä¹Ł ä¸į
Îµ Î¹
å½¢ å¼ı
Ġme et
k t
Ã½ ch
b en
àª µ
Ġàª ķ
áŁ Ĥ
éĴ ¢
åĽ °
Ġ ÚĨ
Ġl es
Ġf ore
Ġaut h
Ġf ut
å¼Ģ å±ķ
à¯ Ī
h u
ĠÙħ ÛĮ
Ã ¹
on es
å®¹ æĺĵ
' );
Ġspec ial
ë Ĭ
Ġpro b
a a
le g
áŁ Ħ
äºº ä»¬
viron ment
Ġcl os
Ġmul ti
fun ction
Ġcall ed
p ond
è° Ī
è¿Ļ éĩĮ
Ġper iod
Ġcour se
Ġk un
Ġpartic ular
Ġal ong
éĩ Ĭ
Ġw ar
Ġs em
äº ®
è¯ Ĺ
Ä ĳ
æľī çļĦ
é¡ ¾
ac he
à® ¤
æĸ¹ æ¡Ī
ç» ©
a im
âĢĿ ãĢĤ
æ· ·
Ġá Į
ĠÕ §
Ġin de
[ '
Ġd one
ĠB l
áŀ ĸ
st e
åł Ĥ
j son
à¾ ²
æ² Ļ
Ø§ Ø´
if y
_ S
ĠĠĠĠ ĠĠ
àº ģàº
Ê ĭ
àª ķ
ic an
Ġu z
el ta
åıª æĺ¯
L L
Ġal ready
e z
çļĦ äºĭ
Ġtot al
å½ Ĵ
Ġsh ort
Ġchar acter
é¡ µ
al pha
ç¬ Ķ
Ġval ues
Æ °
à°¾ à°
O r
ç»¼ åĲĪ
Ġen ough
áł¤áł ¨
l j
éĵ¶ è¡Į
ç©º éĹ´
c er
at ter
l s
Ġà ¥
le y
ç» ¿
ak ing
or ies
å®ŀ æĸ½
I ON
Ġp ast
h an
ĠTh at
æīį èĥ½
ĠÐ ¡
ang an
et y
ä¸Ģ çĽ´
. add
æ¥ ¼
our ces
Ġmak ing
ab il
è¯ ¢
Ġth ing
ĠB r
è¾¾ åĪ°
äº Ī
Ġind ic
ind ex
ç¡® å®ļ
Ð¾Ð ¹
ê °
Û ĭ
ä¿Ŀ æĮģ
à¶ ¸
Ġn ight
æľ Ŀ
ĠØ Į
æ¹ ĸ
ok en
v is
Å Ľ
Ð° Ò
ir m
èĨ ľ
l ik
ok o
æĺ¾ ç¤º
A ng
he t
ple ment
Ġto get
é¤ Ĳ
Ġs ugg
. $
Ġt arget
am et
ÛĮ Ø±
a ff
èı Į
Ġinv ol
it ch
op y
åį ±
Ġtoget her
Ġe z
Ġp ress
ä¿Ŀ è¯ģ
Ġe yes
Ġd ue
ro id
Ġcom b
éĻ Ī
æĪĲ æľ¬
Ġsever al
A ll
Ġb es
Ġse g
ä¾ §
} -
ç» į
åĬł å¼º
er ing
o ff
l n
à¥ĩ à¤Ĥ
å° ģ
Ġass oci
k y
ç¨ĭ åºı
Ġj ob
çĸ ¾
_ in
en n
Ġne g
and s
ĠÐ¾ ÑĤ
é ±
D e
Ġwh y
ä¼ °
Ġb ed
ä¿ Ĥ
In fo
Ġf oc
áĢĦáĢºáĢ ¸
ãģ §
Ġbil ong
èŃ ¦
pos ed
Ġs us
æ¯ ķ
è¶ £
åį ĸ
çĻ ¼
Ġl ib
Ġh ouse
ide o
Ġre d
çĬ¶ æĢģ
Ġdevelop ment
Ġc ertain
ol s
Ġf ood
Ġcont ent
Ġy et
. b
åĲ ¯
ĠÃ §
à¸ °
Õ µ
Ġm is
å¾ Į
f e
Ġstr ong
Ġ} );
å¾ Ħ
áĬ ĵ
éĴ Ł
le ment
Ġc reat
Ġtr ad
æı ¡
èĮ ¶
æĮ ¥
Ġab s
Ġh aving
Ġh tt
çļĦ è¯Ŀ
Å ¥
u ch
Ġ Ã©s
ä¼ł ç»Ł
è® ¨
ĠÕ ¸
id ence
Ġex ist
Ġobs erv
è· Ŀ
ç¡ ¬
è®¾ ç½®
çŃ ¾
æĸ Ĺ
en ed
Ïģ Î¿
Ïī Î½
ä¸į è¿ĩ
Ġk ar
Ġà¦ ķ
Ġle ast
I s
O S
p ing
ê ³
Ñĥ Ð´
èĹ ı
Ġh old
ack age
ç³ ĸ
( \
om an
å» ¶
é± ¼
åĬ ª
æī ©
ĠA b
S et
N A
éļı çĿĢ
à¦ ķ
ĠØ¨ Ùĩ
çº ¸
m on
Ġc ir
Ġáĭ ¨
Ġpos ition
Ð½ Ð°
ÑģÑĤ Ð²
ÃŃ t
ģ à¸
r at
æŃ£ å¸¸
U ser
ĠD e
Ob ject
ob al
Ġà¤ Ĺ
ĠW ith
Ù Ĳ
Ġc ame
Ġdr ug
om s
çļĦ å¤§
o int
Ġinter n
Ġt able
Ġsing le
ĠM an
c a
s el
Ġob ject
Ġind ust
Õ¥Õ ¬
g round
éĶĢ åĶ®
Ġin fl
ic y
ĠS p
Ġhum an
ĠÕ ¯
le x
çĶļ èĩ³
è´ µ
um n
Ġto ok
um b
Con fig
ĠÑ Ĩ
y r
Ġme ans
ç¯ ĩ
ti al
ç ĳ
if t
Ġj ava
æİ ª
ĠáĬ £
å»º çŃĳ
d o
A t
ay out
Ġrec ord
Ð¸ Ð·
ok e
? "
ĠG et
Ġon line
åħ µ
Ġab ove
å®Į åħ¨
Ġth ough
à² ²
è§ī å¾Ĺ
u v
Ġwork ing
åĲĪ åĲĮ
àŃį à¬
em a
æĮī çħ§
ĠÐ Ĳ
ÑĤ Ð°
Ġtal k
èĢĥ èĻĳ
Ġcomm on
Ġs il
ac i
é¥ ®
U S
åĮĹ äº¬
Ġdes c
an je
è ¸
éĽ ¨
Q u
Ġd he
Ġco ver
ç¿ »
ot a
çĸ «
åĩ Ģ
Ġrep resent
res h
æ° §
Ø± Ùī
( x
æĭ ¥
Ġt ur
Ġg a
Ġl ater
ro s
É £
å° į
æİ Į
ç¨³ å®ļ
Ġstud ents
æ¢ ¦
ĠU S
ak s
è½¯ ä»¶
ol i
ëĬ Ķ
is ing
ç¼ ©
m as
çĬ ¯
ĠE ng
ĠÑ Ħ
æīĭ æľº
- in
ĠĠĠĠĠĠĠĠ Ġ
ell a
æ¸ ¯
äº¤ æĺĵ
Ġwor d
çļĦ éĹ®é¢ĺ
Ġa ch
åŁ¹ è®Ń
Ġc y
Ġh ot
th ough
on y
ĠW hat
Ġgo ver
Ġserv ices
Ðµ Ð¹
O p
àº ·
C H
ell er
è®¸ å¤ļ
w an
Ġob t
áŀ ħ
à¶± à·Ĭ
pl oy
ĠF ig
Ġà¹ Ģà¸
n ÃŃ
z o
çĽ ĸ
. L
Ø¯ Ùī
ä¸ Ŀ
Ġdo or
n Ã©
Ġd ig
og n
æĶ »
éĿ¢ çļĦ
P l
æĽ´ åĬł
Ġcell s
æĿ Ł
Ġrel ations
à¹ ī
m ost
ab l
¯à¦ ¼
é¢Ĩ åŁŁ
Ġs itu
æ° ¸
Ġac ross
· áł
ĠE n
ak u
Ä± r
Ġt en
ĠØ Ń
ill s
è´Ł è´£
Ġpol it
Ġlook ing
Ġà¥ ¤
Ġanal ysis
à½ł à½²
åĬª åĬĽ
ç¨ĭ åº¦
è¯´ æĺİ
Ġd in
çī Ļ
m y
ag ed
Ġst atic
åĨ³ å®ļ
à¦ ¤
ar row
yn c
å¢ŀ éķ¿
as ing
Ġ );
m ission
W ith
Ġàª ª
Ġac t
N ode
Ð¾Ð³ Ð¾
ç¤ ¼
Ø§ ÙĬ
ĠÑ ı
_ name
åĪĨ åĪ«
áī °
Ġinclud e
à´¾ à´
è¿Ľ ä¸ĢæŃ¥
å¼ķ èµ·
× ¡
ial ly
Ð ¡
I M
om is
Ġs ens
A c
Con text
O ut
å® ľ
or g
lect ed
ud i
æ´ ¾
åĢ Ĵ
è· µ
Ġal i
æĸ¹ åĲĳ
à½Ĥ à½¦
Ġre duc
s ide
ãģ ª
. w
à¯įà® ¤
à¥ĩ à¤
Ġ ãĢĤ
Õ¡ ÖĢÕ
à¬¾ à¬
åħ °
áłłáł ¨
å¨ ģ
q a
éľ ²
Ġà¨ ¦
àºĶ àº
æī§ è¡Į
It em
æ±½ è½¦
èĦ ±
ec e
ĠÎ ´
l en
Ġan n
çĸ ĳ
Ġà¹ Ī
éĽ ¶
er ror
wh ere
ç§ Ģ
èĪ ª
ri ed
Ġg i
M ap
Ġass ert
Res ponse
àŃ ĩ
Ġ ÛĮ
åŁ¹ åħ»
è ľ
z n
Ġon ce
Ġh at
Ð¾Ð ·
åıĬ æĹ¶
áĥĶáĥ ĳ
_ b
ĠM y
éĩı çļĦ
ä»ĭ ç»į
Ġc u
) $
Ġener gy
Ã¡ t
æ¸ Ĳ
áŁ ĩ
åħ³ éĶ®
or th
íķ ĺ
ik i
ĠE r
Ġre ason
ç® ±
à¨ ¤
æĭ į
Ġn ia
am an
åĤ ¨
' :
åĺ ħ
iz a
ç»ı éªĮ
Ġw omen
à» į
Ġbec ome
F ile
in y
.l og
Ġph ys
Ġe ar
Ġf i
ê ²
Ñĭ Ð¼
Ġse en
Ġ Ñĸ
åĢ ĳ
du ce
çĿ £
m ut
e qu
ĠØ§ÙĦ Ùħ
Ġn ag
à» ĥ
Ġid entif
St ate
æĿ Ģ
u an
Ð½ Ðµ
áŀ Ĭ
Î± ÏĦ
ĠC ol
am o
è§ ¦
áĥĺáĥ ¡
à¶ ļ
Ġk ap
he ck
å®ŀ éªĮ
åľ Ĩ
he ad
Ġdoc ument
ay o
c hes
åıį åºĶ
çĮ ®
oh n
Ġ Ûģ
à² ¤
Ġo thers
ail ed
Ġtem per
è¯ Ĭ
Ġl os
åį ·
åħ¨ åĽ½
Ġkn own
---------------- ----------------
ç ¹
so le
olog ical
å¹¶ ä¸Ķ
ib ility
£ áĥ
æĺ¯ åľ¨
Ġtreat ment
ï¼Į âĢľ
} ;
ç®Ģ åįķ
im al
ä½į ç½®
Ħ à¸
æĺİ æĺ¾
Ġen s
Ġ[ ]
éĺ ħ
Ġsp ace
A B
Ġe ver
h ib
is es
ĠÐ¿ ÑĢÐµ
ä»» åĬ¡
å¹ ¸
p ri
Ġam ount
Ġm ap
Ġmaj or
Ġask ed
å¹ ¼
åŃ Ķ
Ġto ward
ì ŀ
Ġà¤ Ń
Ġhig her
Ġj ed
Ġdisc uss
ç½ ª
Ġp ort
Ġproduc t
ä»İ èĢĮ
ad es
ĠÐ ĳ
æ² ī
èĥ ľ
È Ļ
ä¸ľ è¥¿
éĺ¶ æ®µ
. N
al ing
æĬ ĺ
ä¹ĭ ä¸Ģ
Ġadd ress
æĹł æ³ķ
é¦ĸ åħĪ
im i
ä¸ĭ è½½
éĺ »
r c
Ġres pons
áĪ ĺ
Ġs ite
u ed
Ù Ĵ
Ġob j
Ġle arn
Ġr ate
Å Ī
Ġat u
Ġáł ²
èĦ ļ
Ġt as
cl us
Ġcon text
ä½ĵ ç³»
é¡ ¶
Ġso ft
ud a
çĽ® çļĦ
Ġc rit
Õ ½
ep t
p x
l as
Ġques tion
Ġhe art
åĿ ı
å° ļ
cri pt
Ġc ur
à§ ĭ
Ġn an
æĢ Ģ
åĩº æĿ¥
Ġ ess
d ata
éĹ »
ä¸į åı¯
om b
' m
à¾± à½²
li ent
in ce
Ġp en
áī ł
Ġt ill
Ġse em
ãģ Į
ç»§ ç»Ń
Ġsh own
m et
L e
æŃ£ ç¡®
åĭ ķ
t es
Ø§ ÙĤ
at al
éĵ ¾
Ø³ Ùī
Ġt ag
E M
ep end
ul es
Ġam ong
Ġm b
Ġcon c
Ñĥ Ð²
ĠÐ¿ Ð¾
ĠI m
Ø§ Ø¨
ĠA p
Ġw ent
æĬ¥ åĳĬ
çĶµ åŃĲ
ek e
ire ct
Ġnd i
Ġrequ ired
ol ution
ä¼ ĳ
çĶ °
à¤ £
Ġim age
æķ ĳ
åĪ º
Ð¸Ñ Ĩ
ä¸įåĲĮ çļĦ
^{ \
à» ģàº
or o
str uct
è ¼
æ¥ Ń
Ġb ab
Ġneed s
Ġs ym
ç ·
ĠáĢ Ļ
) ãĢĤ
E vent
Ø± Ø¯
M an
Ġw alk
èĦ ī
áŁĴáŀ ĵ
ens ion
ne y
es us
à² Ĥ
åģ ı
vo id
op er
Ġsim ilar
am u
ant u
çİ° ä»£
áŀ ĩ
Ġm atch
ang o
Ġd est
ub a
åĬ³ åĬ¨
Ġcon fig
åĳ ¼
con om
åıĤ åĬł
Ġf urther
èĻ ļ
Ġy o
Ï İ
ti fic
u ff
Ġpre vious
Ġm oney
Ġgener al
Ġ| |
è° ģ
Ġs el
en ge
æĢ ķ
ĠP a
å¥ ¶
éĺ ´
ç« ¥
Ġs ays
åİ ļ
Ġmom ent
ĠS e
rib ute
ver t
en u
åĩı å°ĳ
æı ı
æľī ä¸Ģ
å¤ ı
ĠÐ ļ
æĦŁ è§ī
Ġwhe ther
U T
Ġsugg est
àª¾àª Ĥ
à© ±
S he
ç§ ģ
Res ult
cl es
èµĦ éĩĳ
p ose
od es
ur u
æ± ĩ
áĢ¬ áĢ¸
æİ Ī
éĢŁ åº¦
Ûķ ÙĨ
Ġe ither
éģ¿ åħį
g es
æĦı ä¹ī
ĠC ar
Ġc ou
Ġp age
èº« ä½ĵ
Ä« b
åĨ Į
ĠÃ ¨
ä¼ ´
p re
ov ed
- h
èµĦ æĸĻ
Ġyou ng
O T
Ġk ab
Ġcol or
áĬ Ĳ
ä» ª
( n
Ð Ł
^{ -
åħ³ æ³¨
and e
q l
æĮĩ å¯¼
å®ŀ è·µ
å¿ĥ çĲĨ
ĠS c
ti re
f ort
èĦ ¸
ĠUni versity
æĶ¿ æ²»
ç¼ ĵ
in it
ç´ ¯
w i
å® ģ
D E
. T
Ġc ode
ĠM e
åħ¶ å®ŀ
ur ity
Ðµ Ð³
æ¬ §
Ù ı
con fig
ç»ı è¿ĩ
Ġm ai
à· Ļ
Õ¸ÖĤÕ ©
Ñĸ Ð»
æľī äºĽ
åıĹ åĪ°
Ġqu ality
ĠR eg
ap a
è® ¿
Ġr isk
Ġnec ess
il der
à°¿ à°
Ġele ctr
rou ps
Ġr ad
åĪ ĺ
i ous
ç ŀ
æĺ¯ ä¸Ģä¸ª
Ġan ti
b ed
éĸ ĭ
A dd
ä¸ ½
é¦ Ĩ
Ġor g
u til
ĠA ss
P ath
çī¹ çĤ¹
è Ķ
× ĺ
p ela
Ð¸Ñ ĺ
ĠÐ ľ
åĢ º
re ate
åĽ½ åĨħ
a o
ĠáĢ Ģ
åħ± åĲĮ
ĠÐ¸ Ð·
he l
Ġed uc
éĢ Ķ
å¸ Ŀ
ä½ ³
èīº æľ¯
å·¥ ä¸ļ
Ġl ower
å® «
. R
Ġl at
áĢ ĸ
Ïĥ Î·
ful ly
par am
Ġen vironment
å®¶ åºŃ
ma x
å¸ ģ
åĩĨ å¤ĩ
ĠY ehova
æ» ĳ
Ġte ach
ä»¥ åĲİ
È Ľ
æĸ½ å·¥
ĠÕ ¥
æ¶ ¦
Ġqu ick
çĥ Ī
' ;
. _
åıĤ ä¸İ
ĠN one
ï¼ī ï¼Į
çĶ³ è¯·
Ã¸ r
à¦ ²
à¤¾à¤ ²
ĠD r
éĸ ĵ
S ervice
im um
ul i
åľ ĭ
ÙĬ Ø©
ä¹ĭ åīį
è°ĥ æķ´
Ġl arg
Ġc ult
im in
Ex ception
g ing
çģ ¯
x y
il t
zj oni
Ġe arly
å±ŀ äºİ
u it
and om
av el
uk u
å® ½
Ġun a
Ġb ad
å®ī è£ħ
æ± ¡
Ġ Ô
Ġ× ¢
è· ĳ
Ġperson al
g b
ìĿ Ħ
æľīéĻĲ åħ¬åı¸
ig e
as ter
al t
çİ ī
éĻį ä½İ
Ġdo ing
è¿ İ
um u
asa un
Ùī ÙĦ
Ð½ Ð¸
è¯ ¦
is on
èµĦ äº§
ut o
st d
Th ere
ä»Ĭ å¤©
( (
g ed
çĲĨ è§£
Î¹ Î±
Ġm eng
Ġto day
ç Ĵ
j s
. B
ì Ħ
ĠÃ® n
à¥įà¤ ¤
è¡ ¡
å± ĭ
áĢ² áĢ·
åŃ ¸
å°± ä¼ļ
he m
L a
Ã³ Ì£
Ġb ak
Ġmak es
ie f
å° ¼
Ġproduc ts
Ã¡ r
çļĦ æĥħåĨµ
æĶ¶ åħ¥
è® ¢
èĤ ¤
ul o
Ġto ld
re en
æİ ī
Î¿ Î½
Ġinv es
s um
ÑĢ Ñĥ
htt p
Ð°Ñ ĩ
åĩº äºĨ
oc al
y ing
Ġinde x
ä¿Ŀ éĻ©
Ġà¦ ª
Ġ+ =
eng an
amet ers
Ġà¦ ¸
å¼ ±
E C
ar b
ç«ŀ äºī
i us
Ġa ge
Ġinv est
m un
f ect
Ġb lo
ï¼Ł âĢĿ
re ct
Ġf ig
ag ing
Ð¾Ð ¶
A G
Ġun t
æĻº èĥ½
Ġm essage
æ´ ²
éĩį çĤ¹
Ġr az
è¡Į æĶ¿
an te
Ġs ound
ìĿ ĺ
Ġincre ase
w ide
Ã¼ n
æİª æĸ½
Ġde g
Ġh ab
el se
ĠáĢ ŀ
ä¸į å¾Ĺ
le ft
áł¡áł Ń
d z
à¦ ®
Ġcl ose
tiv ely
å® Ĺ
k er
m o
Ġst e
Ã °
tu ally
å¼ ¹
à¤ ¡
un i
à· ļ
ĠT im
åª Ĵ
Ġg od
è »
s ub
Ġt id
æĪĳä»¬ çļĦ
Ġre view
ap t
ĠP er
Ġrelations hip
éĩĳ èŀį
Õ¡Õ ´
åĮº åŁŁ
ĠC ent
// /
ĠM ed
å° ¤
æ»¡ è¶³
çļĦ åıĳå±ķ
g u
Ġbe gin
ä¹ Ļ
it em
Ġac tion
èģĶ ç³»
åĵ Ī
Ġcommun ity
áī ³
ar r
à² Ĺ
à¨ ¸
èĩª åĬ¨
Ġh om
Ñ Ħ
ä¿ĥ è¿Ľ
æĭ Ł
ĠĠĠĠĠĠĠĠĠĠĠĠĠĠĠĠ ĠĠĠĠĠĠĠĠĠĠĠĠĠĠĠ
ÙĬ ÙĨ
ÆĴ e
× Ĵ
Ġwe bs
Ĺ àºµ
Ġm es
èģĮ ä¸ļ
Ġn ie
Ġcomp ut
! (
ant a
ti r
Ġk wa
S c
æ¨¡ åŀĭ
' ]
ç« Ł
æĮģ ç»Ń
an ja
ĠÑ į
áł Ĥ
é² ľ
áĢĢ áĢ¹
st er
Ġs ent
ic ient
ac ed
Ġdef ault
Ġwor ds
led ge
Ġfut ure
éĥ½ æľī
port un
åĬ ±
I L
Ġgover n
è¿ Ŀ
Ġlook ed
Ð¾Ð ¿
Ġf av
à»Ī àº
o res
ĠáĪ ĺ
i um
Ġv y
è¡¨ è¾¾
Ġn ÃŃ
il le
Ö ¼
æİ¥ åıĹ
åıª è¦ģ
Ã¤ Ã¤
Ġà¨ ¸
æ£Ģ æµĭ
à© ĭ
çŃĶ æ¡Ī
ĠO ne
Ġcle ar
Ø± ÛĮ
åĲĮ åŃ¦
Ġe p
N um
èĤ Į
è¯Ħ ä»·
ĠH is
n es
ä¹Ł æľī
H ow
j oy
çı ¾
åħħ åĪĨ
ä¸¥ éĩį
â ĳ
à¸ ¢
Ġon a
æĦı è¯Ĩ
k om
Ġcont act
Ġ/ *
å· ¨
' re
å·¦ åı³
ĠIn st
I nt
ç±» åŀĭ
or ld
O f
Ġchang es
Ġwho le
Ġà¨ ķ
Ġz v
éļ Ĳ
Ûķ Øª
Ò ±
U N
P S
áŀ¶áŀ ļáŀ
ill ed
Ġàª ¤
Ġáī ł
åħ¨ éĥ¨
' '
Ġpartic ip
tiv ity
éģ Ĺ
" ).
Ġb ase
_ n
è¡ Ĺ
Ġperform ance
f ile
amb da
g ress
ä¸Ĭ æµ·
Ø§ Ø²
- n
áŀ ¢
Ġmem bers
ç½ĳ ç«Ļ
p m
. âĢĻ
t est
ÏĢ Î¿
Ġhow ever
Ind ex
ÓĻ Ð°
Ġam b
æľ «
pl ace
ĠÐ¾ Ð±
) ]
éĩ İ
Ġcond itions
å¹ ħ
( b
r ate
Ġget ting
çŁ ¿
å Ĺ
un ch
ac hed
æĹ¥ æľ¬
à¦¾à¦ °
à¬¿ à¬
ÄĹ s
Ġvari ous
à¤¿à¤ ķ
E L
ä¸ĩ åħĥ
à¤¾à¤ ¤
o id
ä¸° å¯Į
IN G
U p
Ð°ÑĢ Ð°
ĠÅ ĭ
Ġdoes n
Ġstart ed
Ġk ur
áĪ ĭ
Ġany thing
æĶ¹ åıĺ
åĲĪ çĲĨ
Ġn ov
Ġstud ies
ĠÎ ¿
éĽ ª
_ P
à® ©
at ors
Ġw at
à¸ ´
éº »
A d
Ã³ w
µ áł¢áł
é ¹
ÐµÐ½ Ð¸
ä¿Ŀ éļľ
èĢ Ĳ
åĩº çļĦ
àª¾àª °
åį Ī
. in
ĠÃ º
èĥ ¶
éĻ¤ äºĨ
Ġl en
æĮ ĳ
oc ation
Ġf all
amb a
çļĦ å·¥ä½ľ
Ġfr ont
ed er
æĸ ¼
ug a
Ġro le
Ġbl ock
f a
çĿ ¡
æĬ ĵ
ar ning
æ¥ ļ
Ġsup er
Ġà¤ ¯
ĠÄ ¯
al d
Ġk am
Ġneed ed
or age
Ġk ont
Ġg ir
Ġse arch
æĹħ æ¸¸
áŀ ¼
åĿ Ģ
Ġin itial
çĥ Ł
Ġc ut
å¤ļ å°ĳ
à¨ ¨
Ġf o
çļĦ å°ı
ÉĻ n
æĢ§ èĥ½
ä½ł ä»¬
Ġ ÅŁ
D et
Ĥ à°
è¶ħ è¿ĩ
k on
Ġdist rib
ç§ Ł
Ġlo ad
an ia
======== ========
ç§ ĭ
Ġd iv
i en
Ġ ÑĢÐµ
ight s
Ġwant ed
ç³» åĪĹ
ek a
áĮ Ī
b eta
æ ¾
G roup
y i
å ´
áĭ «
ÛĮ ÙĦ
is c
Ġhal f
æĸĩ æ¡£
Ġe en
Ñ ī
è®¤ è¯Ĩ
Ġm ot
Ġbel ow
Ġn av
ä½ Ľ
Ġm w
res ult
Ġw in
åħ¨ éĿ¢
Ġsub ject
r av
ä½ĵ çļĦ
æ© Ł
æĶ¹ éĿ©
åıĸ å¾Ĺ
æ± ł
Ġ ill
è´¹ çĶ¨
çĶŁ çī©
Ġdis e
èĢĥ è¯ķ
Ð°Ð ¶
Ġnorm al
ann el
ä¸º ä»Ģä¹Ī
og le
ĠC o
pl ate
è´ ·
- w
Ð¾Ñ ĺ
è¯ ĳ
Ġprof ession
æ¶ ī
à½ ¡
áłłáł ·
áĪ ¨
Ġout put
roll er
ac c
Å Ĩ
ers on
Õ¡Õ ¿
è¿ŀ æİ¥
ic tion
ain er
çľŁ çļĦ
Ġf it
Ġeas y
åŁº éĩĳ
à® ³
Ġtak en
Ġappro ach
åĿļ æĮģ
åİĭ åĬĽ
l or
ech an
. )
Õ ¾
Ġbene f
st ance
Ġs ource
pl ied
Ġ Ö
åĮĸ çļĦ
æķ´ ä¸ª
ĠC an
er ver
Ġà¦ ¬
ĠÐ¾ Ð´
N a
s g
ar o
bo x
re c
art ment
. W
éļ Ķ
b ook
Ì ģ
D es
è´ ´
us ing
éĺ µ
ÙĨÙī ÚŃ
il es
Ġal most
åĨ °
ĠÑ ĺÐµ
Ð¸ ÑģÑĤ
_ T
Õ¸ÖĤ Õ¶
Ġpro te
h am
val id
ĠA c
Ġc ases
ow a
Ġem p
Ġh y
) =
k n
$$ \
ÙĪ Ùħ
àª¨ à«ĩ
ì ł
äº¤ éĢļ
èĤ ¿
æĺ ł
Ġf elt
m od
æ¯Ķ å¦Ĥ
Ïĥ ÏĦ
çĸ¾ çĹħ
ä¾ĭ å¦Ĥ
çª Ĺ
éĽ ·
Ġup on
Ġdif fic
pon ent
Ġà¤ ī
Ġar tik
us es
Ġin n
Ġà¨ ¹
med i
[ ]
Ġ â
è´ ¦
pl it
åĳĺ å·¥
an ti
id i
Ġst ory
Ġwor ks
m b
èĪ ŀ
áĭ µ
çī¹ å¾ģ
P r
Ġin i
Ñĥ Ð½
é» ŀ
ĠâĢ ŀ
ĠÃ ¬
çĽ¸ å¯¹
Ġw r
Ø £
áłİ áłł
ł áĥ
) \
Ġ× Ļ
× ¦
à² ³
ang le
ãĢ Ģ
à¨ ¹
çļ ĩ
à® Ł
el o
Ò ³
Ò Ń
ah an
áĢ Ĩ
çĶŁ åĳ½
Ġàª ¸
Ġ ig
Ġe g
Ġm un
ni h
anc ed
cdot s
Ġm ass
I G
Ġr ather
åķĨ åĵģ
Ġcomp on
Ġw o
ed e
Ġbo ol
Ġunt uk
Ġpot ential
Ġinte gr
ï¼ İ
min ist
ãģ Ļ
e ff
Ð Ŀ
Ġstand ard
Ġexp ect
ì §
Ġ Ð°Ð»
Ġdesc rib
ä¹ ³
im b
Ġd am
Ġac tually
Ġsa w
S o
à¤¾à¤ Ĥ
å·¥ åħ·
è´ ¥
Ġsur face
æº ¶
æĹ §
à© °
éĢļ å¸¸
æĹ¶ ä»£
Ġes pec
Ġ× Ľ
Ð¸ Ð´
Ġ} ;
ä¹ ±
à½ ģ
æ¯ı ä¸ª
å¤ ®
Ġi b
port s
ÑĤ Ð¾
ĠD es
= '
ĠØ £
äº ¦
_ w
B l
æģ ¶
g s
idd le
Ð ¢
ç¶ ĵ
åĵ ¥
ĠH er
Ġf ive
Ġl ive
u tions
S ize
ĠÙħ ÙĨ
tr ans
Ġo v
Ġp ubl
æ¹ ¿
à¨ Ĥ
ãĢĤ ãĢĤ
æ´ ģ
l ist
Ġimpro ve
çļĦ éĩįè¦ģ
Ġe conom
ĠE l
éĤ£ äºĽ
Ġfre qu
Ġcomple x
Ġbr ing
å¯ »
- y
ĠEuro pe
Ġpro d
à«įàª ¯
Ġh or
tic le
Ġm el
. cl
r am
èĩª èº«
se qu
åģļ å¥½
çº ¯
åİŁ åĪĻ
ï¼ģ âĢĿ
ĠØ§ Ø²
O M
qu es
Ġpre t
nos ti
Ġauth or
k in
åĩ Ŀ
å®ĥ ä»¬
è¯Ń è¨Ģ
Ñĭ Ð·
ç² Ĵ
Ġáł ł
æķ ı
å° ¿
ĠS te
Ġf u
è¿Ĳ è¡Į
ìĹ Ĳ
. app
Ġh am
à«ĩ àª
Ġc ity
çĪ ¸
éĹ Ń
Ġth row
ç¬¦ åĲĪ
ĠM ay
åĳ Ī
Æ° á»
EN T
W hen
Äį i
Ġh ours
éķ ľ
! !
ç¦ ģ
è «
Ġv ia
Ġn as
Ġlevel s
áĭ °
Ġn ak
Ġop portun
Ġáłł áł
åľ Ī
Ġu til
áĢĶ áĢºáĢ
aj u
Ġevery thing
r up
- g
Ġmonth s
cre ate
áł £áł
Ġl oss
n ie
le ep
Ġ âĢĿ
Ġsystem s
al an
åĪ ¸
Ñĭ ÒĽ
Ġpap er
èĪ ĩ
av en
à½ Ģ
ä½ľ åĵģ
Ġsol ution
èĤ ¯
Ġà¹ ī
æĲ Ń
é¥ Ń
Ġsim ple
Î± Î½
é½ Ĳ
æ¸© åº¦
ĠÎº Î±Î¹
® à¯į
èĦ Ĥ
à©± à¨
duc t
Ø¯ Ø§
d an
å¯¹ è±¡
ear ch
ä¼ĺ åĬ¿
éĽĨ åĽ¢
é¥ °
à¤¿à¤ ¯
Ġnot hing
ĠC ont
( {
èĢ ³
è§Ħ èĮĥ
Ġa le
å «
Ġval id
Ġ Ú
ç§ ĺ
ex p
Ġfe atures
St atus
Ġb ur
Ġbeh avi
çļĦ å½±åĵį
} }
Ġst ay
> >
Ġf ast
Û Ķ
è ļ
äº¤ æµģ
Ġop tions
ĠJ ohn
ĠA fter
ra ft
y an
in ary
ress ed
m ar
r un
Ġd engan
Ġd z
struc tion
> <
P C
Ô ¥
ç»Ħ æĪĲ
y on
Ġprovid ed
Ġfun d
ä¼ļ è®®
å¼ Ł
Ġà¤® à¥ĩà¤Ĥ
Ġst atus
l im
à¦ ¬
Ġto k
ell ing
Ġne ar
ç¡® ä¿Ŀ
è§Ħ åĪĴ
è¾ ĳ
E lement
é«ĺ çļĦ
æ §
Ã« n
çĥ §
æľº ä¼ļ
ic o
Ġo t
Ġs ave
èĢħ çļĦ
à» Ħ
çĶµ è¯Ŀ
ä¹ĭéĹ´ çļĦ
æ³ Ľ
ver age
Ġ" ""
F r
ĠØ ²
Ġide a
Ġk or
áĢĦ áĢ·
åįģ åĪĨ
åĸ Ŀ
Ġph ot
[ "
p et
èĤ Ŀ
u u
tern al
Ġpoint s
ãĤ Į
Ø§Ø ¦
Ġsome one
èĪ ¹
Ġsh ows
åĲ ī
æľŁ éĹ´
çĶ¨ çļĦ
Ðµ Ð·
åºĶ å½ĵ
Ġcom es
å°ı æĹ¶
Ð° ÑģÑĤ
v ol
æ® Ĭ
th u
ition al
å¦ ĩ
A b
Ġre fer
àº ¥
Ġv ideo
Ġfin anc
d es
èª ª
as tic
Å¾ e
Ä ¾
æ¯Ķ èµĽ
Ġen joy
æ´ ĭ
Õ ¯
Ġ eller
Ġb ud
æĺİ ç¡®
al ar
Ġse par
op h
Ġl ink
angu age
Ġfri end
Ġans wer
Ġàª ®
Ġs it
Ġk new
Ġhand s
Ġnet work
ur ch
ä¸ĭ çļĦ
Ġn ode
" ãĢĤ
åĩł ä¸ª
æĭ¥ æľī
ec ond
L og
ap ter
Ġn em
ĠV al
Ö ¸
W h
_ C
Ġexp ected
Ãł n
F ield
_{ \
áĢĢ áĢŃáĢ¯
ele ct
Ġk er
ĠÑģ Ð²
iz ing
ĠB y
aj a
åģ ¿
éĴĪ å¯¹
m ap
áį ¢
ix ed
ĠA g
le te
H T
åĩ ½
ĠA dd
Ùĥ Ùī
ver se
éĻ Ĩ
æµ ĵ
æ² Ł
Ġcontin ue
Ġmeas ure
Ġch all
æĬ ½
ĠÏĦ Î¿Ïħ
Ġcon cent
Ġd ate
P h
Ġbl ack
Ġcl ient
Ñĸ Ðº
à§ Ģ
èį £
' e
Ġcan not
Ø ¶
sel ves
O D
ig ma
à· ĥ
aw o
Ġe ye
Ġactiv ity
ãĥ ¼
ä½ĵ éªĮ
Ġbeh ind
èĤ ¥
Ġpro ced
O ver
çľŁ æŃ£
ik an
ent al
çİ° è±¡
å¯ ¦
Ġd ouble
Ġeffect s
Ġwas n
æľº åĪ¶
az i
Ġfl ow
áĢħ áĢºáĢ
Ġoff ic
Ġper cent
åĨ ł
çĽ Ľ
ah a
è¿Ļæł· çļĦ
Ġse ason
Ġk ad
Ġm iss
- a
at form
æľª æĿ¥
ĠN e
åº Ĩ
Ġa h
è° ĵ
w á»įn
Ġt ek
ĠJ ehova
ĠE d
z er
é¢ ľ
ĠáĢ Ĳ
Ġ} )
Ġt ou
Ġc oll
åŃ¦ éĻ¢
am in
åħ¨ çĲĥ
Ġblo od
åı¦ å¤ĸ
à¸± à¸
Ġlik ely
O L
Cl ass
iv al
le c
à¯įà® ª
Ġt ar
à¶ §
tion al
Ġl ength
Ġw ak
áĬ ¥
å½ĵ çĦ¶
çĦ ¡
Ġtak ing
be gin
åĲİ çļĦ
ĠP ol
Ġst ra
åĮ» çĸĹ
æľĢ å¤§
H and
Ġcle an
æĳ Ħ
op s
am ma
ug h
åķĨ ä¸ļ
B e
le m
Ġvis it
å° Ĭ
Ġ Ó©
M S
Ġen tire
Ġele ment
å§ Ĳ
æĥ ¯
è¾ Ĩ
æĮĩ æłĩ
Ġg roups
ac tions
åŃ ķ
è¯¾ ç¨ĭ
Ð° ÒĽ
å¥ ¥
æķĪ çİĩ
å¦Ĥ æŃ¤
Ġde b
å· Ŀ
s en
Ġint ro
ĠÏĥ ÏĦ
Î ²
id ed
Ġhist ory
Ġap plication
pos ition
Õ ´
áŀ ľ
å¿« éĢŁ
å³ °
è¿Ļ ä¹Ī
åĽŀ çŃĶ
p en
åĪ¶ éĢł
Ġinves tig
áŁĴáŀ ļ
ä¹Ł åı¯ä»¥
é¼ ĵ
ĠáĢ ±
Ġà¤ª à¥įà¤°
Ö °
æķħ äºĭ
é ī
E l
Ġstruct ure
åĨħ éĥ¨
R eg
Õ¥ ÖĢÕ
is o
Ġreg ion
ab ase
ç¼ ĺ
éķ¿ æľŁ
Ġper fect
ĠD o
Ġi a
æĥ ł
ĠThe n
ign ed
Ġcoun try
ĠB o
Ø¯ Ùĩ
Ġspec ies
Ġ __
æ¢ °
å¾ ª
Ġassoci ated
Ġf ul
Ġit em
Ġ` `
à±ģ à°
r an
Ġins ide
at ory
d y
è§Ħ æ¨¡
ä¸į åĪ°
am eter
Ġcomp et
Ġdis play
b or
Ñĸ Ð´
éĽ »
Ġtyp es
à¯Ī à®
èį Ĳ
u je
Ġmin utes
Ð ŀ
éģ į
åĽº å®ļ
æŃ£ åľ¨
Ġm m
áĢ ĳ
Ä± nd
ĠĊ Ċ
àµ Ĩ
éĺħ è¯»
Ġs av
æĥ Ĭ
F orm
ĠĠĠĠĠĠĠĠ ĠĠĠĠ
Ġinfl u
( int
g l
ĠáĢ ķ
Ð½ Ñı
è± Ĩ
Ġcons um
èĩª çĶ±
éĩįè¦ģ çļĦ
à³ ĩ
ĠáĢ ľ
Ġc ard
b ol
il ter
Ġes tim
áĥ ķ
Ġwe ight
Ġd og
Ġin j
Ġv el
ä¾ µ
ĠI I
ur l
ï ½
å· §
Ġg round
Ġev alu
Ġc amp
×ķ× ¨
Ġl an
ĠD av
ä¸Ģ çĤ¹
à¤ Ł
x x
Ġg b
Ð°Ð½ Ñĭ
æł¸ å¿ĥ
/ s
. is
è¿ ·
Ã© n
Ġáĥ Ľ
c ol
Ġadd ed
éĿ¢ ç§¯
Ġà¤ķ à¤°
os h
un ction
èį¯ çī©
è½ ´
Ġm ob
C ol
Ġman agement
iet y
çĽ Ł
æ°ĳ æĹı
l in
åĢ į
ĠG u
Ñĥ ÑĤ
çĪ Ĩ
( $
áĢĶ áĢ¹
yn am
ĠM in
Ġtry ing
Ġim plement
àº ¹
ir t
à¤¿à¤ ¤
Ġse k
ri a
çĶŁ çļĦ
è§ Ī
è°ĥ æŁ¥
Ã§ Ã£o
Ġt in
Ġc as
æĮ ¯
è¯ ļ
Ġest abl
æ¡ ¥
àº² àºĻ
à¤ §
Ġimp act
Ġm echan
M essage
Ġà¨ ¨
áī ²
ĠN a
ĠS up
Õ¶ Õ¥ÖĢ
ĠÚ© Ùĩ
end a
ĠCh rist
Ġbel ieve
C C
Ð ļ
Ïģ Î¹
ro om
. e
r ide
Ġg j
ol der
Ġwebs ite
and o
Ġcl aim
à½ ŀ
è¿ĩ åİ»
çī© è´¨
àº ª
ĠG o
å¹¶ ä¸į
å¡ «
-- -
è¶ ĭ
Ġtr aining
ct x
Ġk Ã¶
Ġc e
Ġvo or
Ġv Ãµ
Ġmat ter
ul y
à¨ ¦
c m
è£ Ĥ
Ġac cept
A tt
ĠI N
ay e
Ðº Ð°
Ġp ack
æĺ¯ ä¸Ģç§į
é ŀ
áŀ ½
å± ı
Ġa ud
id en
Ġacc ording
Ġknow ledge
om et
Ġb ag
áĢĬ áĢ¹
Ð´ Ðµ
ĠAmer ican
I V
at in
Ġex ec
H E
Ġterm s
æĻ® éĢļ
Ã¼ r
å¦Ĥ ä¸ĭ
ĠC al
Ġw all
à§ĩà¦ °
ç£ ¨
çĹĩ çĬ¶
Ġp un
áŀ Ĥ
Ġqu ite
ĠáĬ ł
å°± åı¯ä»¥
ä¿¡ åı·
é« Ķ
Ġcon tr
Ġfil m
Ġreport ed
Ġm icro
Ġfor ward
åıª èĥ½
Ġid a
Ġs end
áģ Ĭ
_ h
Ġdi ag
è®° å½ķ
Ġespec ially
c ome
Ġsi x
Ġser ies
Ùī ÙĦÙī
mat rix
åį« çĶŁ
ist ance
Ġb ul
éĽ Ħ
Ġnat ural
ì ķ
In put
¨ àµįà´
ì ĭ
å² Ĺ
Ð £
é» ĺ
Å¡ e
ĠL ist
Ġtr ack
P E
æĲ ľ
ä¸ĭ æĿ¥
S E
os a
éĤ Ħ
um ents
ĠJ esus
å¹³ åĿĩ
Ð½ Ñĸ
}$ $
× Ł
ent e
ok u
ĠN ot
å¡ ŀ
ib ot
Ġta x
en o
ë ¡
áĮ į
us a
ad y
çĩ ĥ
' ve
Ġgrow th
Ġsh are
Ar ray
M A
å¿ Ļ
Ġmed ia
åıĳ æĮ¥
Ġproble ms
r id
Ġp ick
ê° Ģ
I R
åĪĽ éĢł
Ġdiffic ult
èħ ¹
un s
Ġcir c
Ġwe b
Ġorgan iz
on om
tic s
Ġá ¹£
à² ķ
èĤ ł
ab or
áĪ «
est e
in put
Ġs ort
! âĢĿ
t n
al es
ific ation
Ġreg ard
Ġent er
Ð¾ ÑģÑĤ
ĠP re
æķ° åŃĹ
and i
Äģ s
å¡ ĳ
æ³ ¡
å° ¾
Ġ* *
Ġme g
æµ ª
ind ows
æ¯ı å¤©
Ġcomple te
l ambda
Ġk ay
Ġare as
Ñģ Ñı
Ġset t
æīĢ ç¤º
æĪĲ ç«ĭ
Ġw atch
Ġs ud
red it
à½ ļ
- st
å¿ħ è¦ģ
Ġk al
æľĢ ç»Ī
Ġáł °
l ament
Ġrec ogn
è· ³
ĠIn tern
æļ Ĺ
Ġconsider ed
} }{
Ġp ull
æĿ ¨
Ġmus ic
Ġc am
Ġturn ed
M y
ir it
i res
ĠÕ ¶
Ġwh ite
Ġrel ated
Ġbuild ing
èī² çļĦ
Ġques tions
om o
è¾ ħ
Ġprob ably
Ġproper ty
Ġw rite
éĨ Ĵ
Ġk um
j et
Ġd im
Å¡ t
ĠQ u
ek s
Ġincre ased
Ġu d
åĶ Ĳ
å®Į åĸĦ
à¹ Ģà¸
ĠS et
à«ģ àªĤ
æµĭ è¯ķ
åĪ¶ å®ļ
Ãª n
èµĦ æľ¬
éī ´
åĨ ¬
an ch
éĢĤ åĲĪ
p ace
åĬĽ éĩı
Tr ans
èĢ Ĺ
Ġà¨ µ
e q
áī £
åıĳ å¸ĥ
åĨľ ä¸ļ
Ġc er
ĠG e
Ġar r
Ġcomp an
éĢ ²
èĽĭ çĻ½
å¸ Ń
m es
åĬŀ æ³ķ
Ġde ep
Ä ¼
åĽ¢ éĺŁ
å¸¦ æĿ¥
os i
ound s
å£ ģ
au ti
Ġtemper ature
plic ations
Ġre comm
++ )
åĪ¶ ä½ľ
inc ip
åĬł å·¥
ãģ ¾
æ· »
æľī äºº
Ġev ents
áī ½
èĪ Ĵ
çİ° åľº
Ã© Ì£
Ġk it
tu res
å° º
Ð Ĵ
Ġmod els
âĢ¯ áł¤áł¨
_d ata
ac tive
bo ard
æīĢ è¿°
é¸ ¡
Ġs ense
re w
Ġro w
æķ ¢
ous ly
s l
åĪ ĳ
ê ·
ĠØ± Ø§
Ġf ire
å¹ ķ
c ont
ï¼ī ãĢĤ
p ub
il o
çĽ Ĳ
F rom
Ġm it
Ġde ath
D ef
çķ ¶
C ode
Ġexper i
Ġt ÃŃ
ä¸ī ä¸ª
Ġm ach
à³įà² ¨
è® ¯
Ñĸ ÑĢ
- S
åĬł åħ¥
æĳ ©
åł ´
æİ¨ èįĲ
å½ĵ æĹ¶
i ents
äºº æīį
Ġcon sole
Ġh ost
c z
çī¹ æ®Ĭ
å®£ ä¼ł
b all
ain t
è´Ń ä¹°
æł· çļĦ
Ġà¤¹ à¥Ī
äº ¡
Ġhim self
Ġprovid es
Ġpr ice
è´ ¸
å®ĥ çļĦ
æ· ¡
åĶ Ķ
Ġmethod s
Ġàª Ľ
æļ ´
é¾ Ħ
åĪ Ģ
Ãº n
Ġs ig
k im
Ġcal cul
Ġu b
plo ye
èĵ Ŀ
ens ive
C lient
å² Ľ
Ġw oman
Ð» Ñı
Ġdal am
Ġdem on
ĠL a
å®ī æİĴ
Ġ Õ¡Õ
åĪ ·
Ġop tim
Ġpri or
ut ed
le ge
ĠáĬ ¨
Õ¸Õ ¾
Ġl u
å¯ Ĵ
ãģ ĭ
è¿ Ķ
ion e
à¶ ¯
Ġfri ends
Ïģ Î±
ht ml
åĪĨ ä¸º
Ġpat tern
äºĭ ä¸ļ
è§Ĥ å¯Ł
Ø °
at ur
Ġà¤ ı
ce ed
s em
áĢķ áĢºáĢ
æļ ĸ
ok a
éĩĩ åıĸ
à¤ Ń
à½¼ à½ĳ
Ġn Ã¡
ab b
åıĳå±ķ çļĦ
Out put
Ġd ro
' ).
> ,
ĠØ§ Ø³Øª
æĽ ¿
Ġcommun ic
à¤ ¼
å°¤ åħ¶
Ĥ ¬
Ġst ore
åĬĽ çļĦ
es a
áĢĬ áĢº
áłłáł ¯
Ġp le
åı¦ ä¸Ģ
Õ¸ÖĤÕ© Õµ
But ton
çº ·
d om
å¢ Ļ
Ġo le
Õ §
row n
Ġst yle
im pl
ap an
Ġp s
Ġt um
Ġc ross
Ġw an
Ġna j
æĺ¯ æĮĩ
æĪĺ çķ¥
ott om
Ð ĺ
à¶ ½
å¹¼ åĦ¿
ç¹ ģ
æĢ§ åĴĮ
R ec
Ġwon der
Å ¯
èĥ ĥ
ĠO b
Ġreturn s
Î¯ Î±
Ġar ray
åĪĨ éĴŁ
Ġcomp ared
ne xt
ij i
×Ļ× ª
æĪĲ ç»©
æĺ¯ ä»Ģä¹Ī
.. /
¥ áł
ip e
ra f
Ġso on
æı Ĵ
Ġd ok
Ġhe ld
à§įà¦ °
Ġtechn ology
Å¡ an
æĬĢ èĥ½
ç»ı å¸¸
our n
Ġs un
è§Ĩ é¢ĳ
æĹł è®º
æĿ¥ è¶Ĭ
Ġd raw
Ġe i
T est
- r
Ġh it
çļĦ é«ĺ
Ġat ten
N ot
sh ip
//// ////
Ñĥ Ð¿
ĠM a
Ġpre c
Ġc ause
Ġpal ibot
el le
å¦Ī å¦Ī
çĶŁ æĢģ
' ll
åºĶ çļĦ
Ġinst all
form ation
æīĭ æľ¯
æĦı è§ģ
æķ´ ä½ĵ
( i
éķ ·
j ust
æĶ¯ ä»ĺ
åĪ© çĽĬ
av es
Ġpro p
åı¯ æĺ¯
à¨¾à¨ Ĥ
o ad
ug e
áŁĴáŀ ı
ä»Ĭ å¹´
ar en
az e
ä½ĵ èĤ²
Ġnot e
Ġproduc tion
l am
Ġfr ame
) ãĢģ
Ġg as
è¶Ĭ æĿ¥è¶Ĭ
ĠÐ± Ð¾Ð»
er g
re quest
æİĮ æı¡
ith ub
x a
Ġd it
p at
Ġlong er
Ã¼ l
Ġcons ist
æī ¬
Ġindust ry
Ġorig inal
F F
è¯ģ æĺİ
Ã¥ r
Ġ ...
re et
åŃĲ çļĦ
Ġb and
æ² ¿
Ġr i
çĦ¶ èĢĮ
ĠáĬ Ĳ
áĢĦ áĢº
ww w
ä¸į è¶³
ÑĤ Ñĭ
ĠÅ ©
è¯ º
ä»ĸä»¬ çļĦ
v an
ä¸Ń å¤®
Ġb at
Ġmem ber
Ġcre ated
Ġh air
àº± àºĻàº
al ah
m iss
Ġiss ues
Ġr at
Ġth ird
Ġà® ª
æ¯ «
å§Ķ åĳĺ
à¸ ģ
Ġh on
M L
ak t
b ody
Ġbu y
ur t
ris ti
åĲ Ľ
Ġsec tion
Ġhtt p
Ġá º
p u
is u
an an
å¿ ĺ
ograp h
P os
éŁ³ ä¹Ĳ
Ġd os
Å µ
æĻ ¶
ÙĦ ÛĮ
æ¶ ¨
Ñĸ Ð²
k at
Ġt ab
ĠØ¨ Ø±
w rap
è¡¨ éĿ¢
æĪ ª
ç»Ł ä¸Ģ
Ġv Ã¤
P I
Ġs ou
ä¸į çŁ¥éģĵ
Ġà ½
åİ ħ
àº²àº ¡
æĢ» ç»ĵ
g or
å¢ŀ å¼º
Ġd ark
el d
******** ********
áĪ Ľ
- M
¶áł¢áł ¨
Ġcent er
ĠÐ Ł
éľ ĩ
Ġeff ort
áŁ ħ
Ùĩ Ø§
æĹ¶ æľŁ
Ġmill ion
S S
áĥ ¡
æĿ Ĩ
è¯ ¸
æ½ ľ
ĠÙģ ÙĬ
' d
Ġd ar
Ġw ays
Ġbo x
ill i
Ġà¶ ļ
Ġcomm it
é ¬
éĽ ħ
ph i
er ial
ĠY ork
æģ ©
à¤ ¶
on ic
ĠO ur
Ġus ually
Ġun s
é© ¾
ç»Ł è®¡
cir c
àŃ ģ
èĤ º
un n
Ġse x
e j
Ġkoj i
Ġsk in
äº¿ åħĥ
Ī ëĭ¤
ij u
m ing
Ġsh all
Ġcond ition
å¤ļ çļĦ
is f
åħ¬ åħ±
est a
Ġà· Ģ
Ġconc ern
àºŃ àºĩàº
M odel
Ġb ank
åľ £
Ġappe ar
Ġh ope
çĦ ¦
Ġout side
j em
Ġle arning
èĢĮ æĺ¯
Ġobserv ed
ç£ ģ
å± Ĭ
on o
à¤ ĩ
Ġpre p
{ matrix
æ¼ «
å¹¿ åĳĬ
Ġro z
ub e
( S
Ġnecess ary
Ġm id
Ġp am
Th at
ä¹ ĺ
u y
åĨľ æĿĳ
ĠUn ited
ĠD ec
Ã© g
Ġq Ã«
çĻ Į
Ðº Ð¸
à· Ĳ
ĠR ec
w ise
Ġf mt
éĢ Ĵ
c els
æ½ ®
id ade
Ġs ar
om es
ĠR ep
ce p
ä¸Ģå®ļ çļĦ
à½ Ĩ
Ġvers ion
Ġk ol
Ġn os
E d
éĤ£ ä¸ª
Ġ/ **
con n
ĠA ng
àª ¹
- pro
Ġdise ase
" ]
Ġwind ow
Ġsa f
ç¥ ĸ
Ð ĳ
Ġo yo
ĠS im
Ġc atch
ç¥ Ŀ
In ter
åľŁ åľ°
og a
res pond
um s
% ï¼Į
right arrow
çļ® èĤ¤
Ñĭ Ñģ
à© ģ
äºº ç±»
it et
uk e
ĠØ¦ Ùī
ĠD ep
æĦŁ æŁĵ
Ġgl obal
æĥ³ è¦ģ
é£Ł çī©
Ġpos itive
ri p
.p ush
ê ¸
çļĦ æĸ¹æ³ķ
æ¢ ģ
Ġf ail
Ġa an
ķ à¯įà®ķ
. x
am ple
Ġpur ch
istic s
ang er
Ġàª ľ
Ġexp ression
B ox
åĩ ¡
Ġpr z
Ġde al
åĶ ±
Ġass ess
. print
Ġsim ply
è· ¨
lo at
æŃ¤ å¤ĸ
ab o
Ġres pec
æ¯ķ ä¸ļ
L O
ĠÄ ĩ
Ñĥ Ð¼
al le
T P
ä¸º ä¸»
à´ ¤
Ġdire ction
åıĬ åħ¶
ĠáĢ Ľ
ish ing
Ġf oot
. n
åĵª äºĽ
Ġ Ã¡
Ġà¸ Ń
é£Ł åĵģ
éĥ½ ä¼ļ
Ġreg ul
à¤ ĸ
ov i
à¤¾à¤ ®
l ight
å¡ Ķ
æ¡ Ĩ
O ne
Ø± ÙĪ
Ġà¦ ¤
Ġb an
Ã¤ t
à½ĸ à¾±
éŃ Ķ
æľº åħ³
ĠE m
Ġk r
Ġcom ing
( this
æĪĲ äºĨ
ĠA ust
E G
Ġs ch
Ġobt ained
M P
æĩ Ĥ
Ġp ak
è¿ ħ
ä¸¥ æł¼
ĠS elf
r in
Ġà¤ ļ
ĠD ios
Ð ľ
åĳĬ è¯ī
Ġem ail
å¤į æĿĤ
Ġcl in
à«įàª °
A p
h old
. id
çĶµ èĦĳ
Ġin sp
! "
osp ital
ÈĻ i
o o
Ġle ave
Ġn t
áĥ £áĥ
qu ery
æĦı æĢĿ
Ġrece ived
ç¾¤ ä¼Ĺ
å¼ ĥ
ÛĮ Ø§
Ġdiffer ence
çĺ ¤
j ek
Ġaut om
_ type
Ġà¸ Ĺ
ç§» åĬ¨
c ode
Ġex act
àº ¸
Ö ·
ĠSt ate
á ½
æĮ Ĥ
ers hip
æĸ¹ ä¾¿
Ġl iter
çĭ¬ ç«ĭ
æ¬ ²
è£ ģ
ĠH ar
Ġliv ing
ê³ ł
the ta
à© Ĥ
ĠS ch
à· Ħ
ä¹Ł ä¼ļ
Ġb ol
Ðµ Ð²
h l
n ya
Ġ âĢĻ
ä¹ł æĥ¯
Ġuni que
åĩ½ æķ°
Ġdec re
fr ame
æķ° éĩı
Ġse qu
æĹ ĭ
æģ ¢
az zjoni
Ġàª ħ
Ġnj Ã«
Ġg ave
_s ize
Ġmulti ple
) (
åº Ł
( l
èĥ ¡
x im
Ġgovern ment
ab e
P er
-b ased
è´ «
Ġk os
åĴ ¨
æ® ĭ
Ã³ l
Ġeng ine
ateg ory
Îµ ÏĦ
Ġm other
é© ¶
Ġfe ature
in u
Ã¡ c
Ġrun ning
ãģ £
ä¼ Ļ
Ń áł¤áł
ra z
ut s
áº ¿
åıĤ æķ°
çĪ¶ æ¯į
Ġáī ¥
Ġf em
éħį ç½®
åŁº äºİ
ug ht
Ġor d
Ġdev ice
âĢ į
Ġit ems
ens ity
à³įà² ¤
.app end
il s
ĠIs ra
ot al
àº į
Ġdemon str
en y
àº «
ust er
à²¨ à³įà²¨
å¯ ¸
æ·± åħ¥
éĩĮ çļĦ
as c
Å ĭ
} _{
èĩª æĪĳ
åĶ ¯
Ġanal y
åĪĨ å¸ĥ
Å¾ i
æĿ ¯
æ³ ¥
am m
ç °
çĽĳ çĿ£
Ġaddition al
il on
à® µ
C olor
Ġáį ¢
Ġtech ni
Ġpar ti
ê· ¸
Ġand roid
/ *
Ġan t
Ġlim it
æĬ µ
( new
ind ow
is ti
å° ĩ
Ġp unk
Ġpati ent
à½ĳ à½Ħ
èģĶ ç½ĳ
ÃŃ a
çļĦ æĹ¶éĹ´
çĶµ è§Ĩ
ari o
app ing
ĠÐ ¢
n ost
Ð¸ Ð³
à¤¿ à¤¨
ind ing
S ON
ock et
× ĸ
ap at
è¾ĵ åħ¥
æĸĩ ç«ł
æİ¨ åĬ¨
Ġd ia
åº¦ çļĦ
w ing
æī¾ åĪ°
Ġl ed
ch i
á ¹£
çĽ¸ ä¿¡
Ûĩ Ø±
uk an
Ġà¦ Ĩ
Ġph one
O P
( a
S tr
Ñĥ Ñģ
Man ager
n ik
uk t
çĽ¸ åĲĮ
Ġr adi
ìĿ Ģ
à½ Ĳ
Ġr u
Ġp ul
Ġak o
èī¯ å¥½çļĦ
Ġvo ice
Ġfav or
Ġ×© ×ľ
éĶĻ è¯¯
ä¸Ĭ è¿°
ÑĢ Ð°Ð½
st a
à¸ ¡
Ġem ploy
ä¸ĭ éĻį
ret urn
Ġk in
Ø§ Ùĩ
Ġv ast
àº²àº į
ad em
åĭ ĩ
par ent
. to
èħ Ķ
Ġk m
è¿Ĳ çĶ¨
è¯ķ éªĮ
æĶ¹ åĸĦ
è¯¦ ç»Ĩ
Õ¥ Õ¶
Ġh yd
åĽ° éļ¾
Ġfoc us
à¨ ¼
Û İ
Ġà² ®
Ġus ers
t d
ĠM ore
Ã¨ Ì£
Ġit self
_ F
Ġpress ure
Im age
- C
à® ²
æĢ ª
ãĤ ī
Ġa verage
Ġdescrib ed
.l ength
Ġinst ead
Ġn ames
r d
| |
= {
. ex
M od
Ġk up
ĠC or
Ġm os
ĠÕ «
Ġinclud ed
Ã¡ m
ÙĤ Ùī
Ġs ed
tr ue
per ty
Ġa x
éĽĨ ä¸Ń
" `
íķ ľ
arg s
Ġevery one
Ġan im
- to
ou b
ÃŃ n
H ead
ĠÏĦÎ· ÏĤ
Ġl as
Ġbe g
ä¸Ģ åĪĩ
å·® å¼Ĥ
Ġag o
an ya
èĥ İ
Ġrem ember
Ġse ems
Ġà¤ ¶
à¦ ¸
Ġsl ow
ak h
ag o
Ġr ap
Ġinst ance
ac ity
en z
ĠD on
cels ius
p es
èĸ Ħ
å·¥ èīº
æ° ı
èĤ ¾
text celsius
àª¿ àª
Ġik ke
Ġatten tion
å¥¹ çļĦ
Ġn or
Ġtak es
Ġl in
r as
ë¡ ľ
Ġ ic
èµ ŀ
se e
ä¹ ı
çĤ ¼
áĢķ áĢ«
àº²àº ĩ
Ġexper iment
Ð°Ñ ĺ
Ġà¸ Ļ
. j
Ġk l
if f
å¾Ģ å¾Ģ
a ut
å¥ ĭ
çī© çļĦ
äºĭ ä»¶
. Get
Ġn ap
çĶµ å½±
ch ange
Ġmain t
áĢŃáĢ¯ áĢ·
et urn
å² ©
è®¤ çľŁ
è¨ Ń
Ġ# [
çĶ ¢
è¡Į åĬ¨
ä¼ļ è®¡
s es
åħ §
Ġw al
Ġpro gr
Ġc ry
áĢĲ áĢºáĢ
åįı è®®
æľº æ¢°
al y
Ùħ Ùī
g n
ev ent
Ð°Ð½ Ð´
Ġprac tice
ĠM o
Ġhe ight
Ðµ Ñ
Ġi h
ç¥ŀ ç»ı
áĢ± áĢ¸áĢ
Ġcont rib
w ar
Ġr is
Ġà· ĥ
Ġshow ed
×ķ× ľ
åĪ« äºº
l Ä±
å®ļ çļĦ
ë ĵ
oc ks
im age
åĴ¨ è¯¢
em ents
ĠO k
å¤ļ ç§į
æ£ ®
U L
Ġth er
åĨħ çļĦ
Ã »
ib r
Ã³ s
duc tion
ì§ Ģ
æľ¬ èº«
ç¨ ®
sp ec
de v
Ġbe gan
Î¿ Ïį
Ġcor rect
åĮĸ åŃ¦
p y
Ġm ah
æİ¨ è¿Ľ
ab led
Ġk ub
Óķ Ð½
ĠÐ Ķ
æķ ¬
ov an
ĠàªĽ à«ĩ
èį ·
æł¹ æľ¬
Ġk h
amb o
F l
áģ Ģ
åħĪ çĶŁ
Ġb in
å® ĭ
k un
Ġeff ective
èİ «
à¸ §
ĠM ark
ÐµÐ½ ÑĤ
Ġs we
æ¦Ĥ å¿µ
Ġcompan ies
ĠT e
ĠA N
, âĢľ
æĬ ±
ãģ ĵ
ä¼ ¸
ç»´ æĬ¤
Ġàª Ĩ
ĠY our
Ġfact ors
_ D
ly ing
U LL
Ġj u
w ith
Ġn od
ä»¥ æĿ¥
ed i
æĿ¥ çľĭ
l ish
à¤¿à¤ ²
ç¤¾ åĮº
ĠáĪ Ŀ
èĤ¡ ç¥¨
Ð Ķ
èĦ ı
Ġtrans port
åģļ åĪ°
âĢ¯áł ¶áł¢áł¨
ãĢģ ãĢĬ
åŃ Ļ
ä¸´ åºĬ
à© Ī
æī¿ æĭħ
æ³¨ åĨĮ
Ġiss ue
à¤¾à¤ ¹
ç¢ ³
Ã¶ n
h aps
I F
ab u
Ġar ch
ĠÎ ³
Ġag re
ä¸ĵ å®¶
Õ¡Õ ®
Ð¸Ñ Ī
er ve
æ¨ ª
ä¸į å°ĳ
p ath
åħ¬åı¸ çļĦ
ac ing
æ³ °
( ctx
Ð°ÑĢ Ñĭ
ord in
ä¸ĸ çºª
à¤¾à¤ ¸
Ġnew s
áŀ İ
åıĤ èĢĥ
ç¾ Ĭ
g ithub
ad z
æŁ ±
åıĮ æĸ¹
ĠJ er
æ² Ĵ
Ġloc ation
p ackage
Ġab ility
çģ °
å¹¿ æ³Ľ
ä¼ĺ ç§Ģ
éĿ¢ å¯¹
Ġcomp os
áĥĲáĥ ľ
_p ath
æĬ ĳ
Ġw er
Ġis n
Ġeduc ation
Ġi Å¡
å¦Ĥ åĽ¾
ä¸ ģ
æĿ¥ èĩª
ç½ ļ
è¯Ħ ä¼°
ä¸Ģå®ļ è¦ģ
æģ¢ å¤į
or ing
j oni
Ġens ure
Ġm ir
r ad
Ġf ra
Ġ( )
Ġar ri
à¤¾à¤ µ
#### ####
à«ĭ àª
Ø «
æ¯Ķ ä¾ĭ
ë ¦
Õ¡Õ¯ Õ¡Õ¶
Ġà¦ ®
Ġg ames
èģĶ åĲĪ
Ġpr incip
Ġrec ent
enc ed
ĠØ§ ÙĪ
ĠF in
Ġn ature
Ġpop ular
ĠĠĠĠĠĠĠĠ ĠĠĠĠĠ
it ude
Ð² Ð°
Ġreg ular
è° ·
vers ion
Ġ Ò¯
Ġh ol
ĠY esu
è®Ń ç»ĥ
èĻ «
Ġm ere
çĽ¸ äºĴ
Ġse lect
Ġcould n
èħ Ĳ
ä¸» åĬ¨
ĠK rist
Ġread y
B C
v u
Ġcor respond
Ġproper ties
Ġa j
iv a
Ġcon tract
é© ±
Ġt el
}) $
Ġ{ }
æĸ¹éĿ¢ çļĦ
Ġro ad
àª¾àª ¨
\ n
åĦ¿ ç«¥
ich a
ĠB a
ap y
ç į
ĠB ar
áĢ¯ áĢ¶
Ġt itle
Ġn h
Ġl ay
å¿ ½
eh ic
ip o
åŃ¦çĶŁ çļĦ
C ount
áĥ ł
or ks
ä¼ĺ åĮĸ
ĠB ib
un wrap
Ġim medi
Ġà¶ ´
à¤¨ à¥ĩ
Ġwrit ing
} .$
à¨ ķ
ac hes
ativ ely
åĬŀ åħ¬
Ġev idence
Ġs an
og en
ç» ª
è®¾ æĸ½
Ġdevelop ed
ect s
Ġw idth
Ġf ather
ĠM al
å¤§ å¤ļ
( v
é¡ ¿
Ġre ach
à¥įà¤ µ
Ġst ar
ä¸Ģ å¹´
ed d
Ġres id
ec tions
Ġv Ã½
´ áł¢áł
Ġsam ple
Ġmy self
éĩį æĸ°
Ġav oid
å·¥ä½ľ çļĦ
# [
Ġs qu
ë Ĥ
âĢ ¢
k k
ä» ¿
è§£ éĩĬ
åªĴ ä½ĵ
par tial
èħ º
p ublic
\ _
Ġk uk
Ġ ili
è·Ŀ ç¦»
Ġphys ical
çħ ¤
Ġl anguage
Con n
em plate
Ġit u
Ġb ound
é Į
ĠS a
Éĸ e
Ġcol lection
éĹ ľ
ĠK omis
ç§° ä¸º
æ¶ Ĥ
C P
Ġn in
ist e
Ġà® ķ
åĭ ¤
Ö ´
is ha
ik k
çĬ¶ åĨµ
çİ© å®¶
. util
¬ áł¤
el en
å®ļ ä¹ī
ĠØª ÙĪ
à¯įà® Ł
æľĢ å¥½
Ġb ah
åĩĨ ç¡®
Ġinvol ved
Ġback ground
æľī äºĨ
em o
al ed
áł¡áł ¨
æĪĲ éķ¿
Îµ Î¯
Ġoff ice
áŀ ģ
åį³ åı¯
n en
Ġmed ical
å¹¸ ç¦ı
b it
çĭ Ĺ
ĠSt ud
def ault
ï½ ŀ
åĪ¤ æĸŃ
Ġg ene
u id
è¦ Ĩ
Ġt at
Ġthem selves
Ġn r
ĠÃ ²
å¹² éĥ¨
Ġb le
N ew
Ġpl atform
èĴ Ļ
Ġyour self
ç»ĵ æĿŁ
Ġsoft ware
Ġc ook
um an
Ø³ ÛĮ
Ġsub st
ed s
áĢ Ŀ
ĠC ity
D o
Ġtr a
åħ ¼
Ġflo at
Ġse b
Ġà¤¹ à¥ĭ
ĠáĢ ħ
Ġh us
ak es
Ġh usi
ë ı
ë ¥
ĠS m
à¦ ¯à¦¼
åĮ» çĶŁ
cri be
Ġàª ¹
æĹ¥ å¸¸
Ġweek s
ail y
ãĥ ³
s igma
Ġs or
Ġc i
à³įà² ²
à¤¾à¤ ¯
ĠW orld
av y
Ġtid ak
ķ àµįà´
Ġoff ers
Ġdet ails
m d
è´¢ åĬ¡
uf act
Ġhe ard
éĻ ·
çİ° å®ŀ
çŃĸ çķ¥
Ġ× ł
Øº Ø§ÙĨ
ä¸» ä»»
çģ ¾
us ion
Ã© k
ind i
Ã© t
Ġp ok
el u
æ´ ŀ
å½ »
Ġquick ly
epend ent
éģ µ
çļĦ æĸ°
ĠM c
åı ¬
ole an
éĢĲ æ¸Ĳ
æķ Į
á ĵ
áĪ ī
Ġp lease
Ġp in
Äĩ i
æħ §
Ġj ud
n om
Ġl ate
Qu ery
Ġal tern
ãĤ Ĭ
A m
- up
_ pro
og u
ing er
äºĭ æĥħ
ĠÑ ī
áŀ¶áŀ Ģ
å¿ Ĩ
Ġk es
Ġex tra
ãĤ Ĥ
Ġtr avel
j on
v et
S ub
Ġ( !
Õ ¤
Ä± ÅŁ
æ³ķ éĻ¢
éĻĲ åĪ¶
L ayout
ĠáĬ¥ áĬķ
Ġactiv ities
Ġcustom ers
Ġà² ¸
è¿Ľè¡Į äºĨ
ãĢĤ âĢľ
Ġ ^{
æµģ ç¨ĭ
Ġst ress
æ¨ £
l at
C E
åĢ ¾
Ġche m
éĶ ģ
_ M
int o
çı ł
áĤ Ķ
Î ¾
å§ ĵ
Ġk ang
ä¸¤ ç§į
Ġqu al
èģ ĺ
Ġim m
ĠM r
ÙĪ ÛĮ
åĪĨ äº«
ec ause
æĹ ģ
Õ¡Õ ½
Ġar m
re st
Ġdirect ly
Ġad minist
z t
çŃī çŃī
. out
ak er
Ã¤ m
Ġcomp ar
ä¸ĭ éĿ¢
D elta
em pt
Ġà¤¸ à¥ĩ
u ti
Ġdep end
rou ght
Õ¸ ÖĢ
áł ³
ç» ķ
ĠN ow
Ð½Ð¾ ÑģÑĤ
æĩ ī
~ ~
C D
d f
Ġconst ant
Ð¸ Ð¸
Ġáĥ ĵ
Ġr andom
à¸Ń à¸ĩ
te x
Ġpret ty
Ġcontin u
Ġ ]
ĠÅ¡ to
Ġto m
å¦ »
Ġj i
Ġà¤ª à¤°
- K
Ġaut o
iz es
is play
èĥ½ æºĲ
Ġz u
Ġt Ã³
è¾ Ľ
ì ľ
gor ith
_ v
ul le
çļĦ ä¸»è¦ģ
Óķ Ð¼
{ }
ä»¥ åīį
Ġprofession al
m and
ĠR ob
çģ Ń
ĠD i
Ġdec ision
auti ful
ch ar
Ġocc ur
Ġà» ģàº
Ġac tive
Ġpl ant
ÑĢ Ð°
æģ Ĳ
æľĢ é«ĺ
D ate
çī¹ èī²
áĪ °
Ġs en
é² ģ
Ġsp r
ib er
Ġdesign ed
Ùħ Ø§
ĠF rom
Ġk ep
A pp
- L
Ġ ÈĻi
ĠS tr
Ġà¦ ¹
Ġt or
Ġser ver
Ġm pe
I l
Ġt ask
ab i
äºĨ ä¸Ģä¸ª
à² ¯
ĠP e
åĲ ´
å¯¹ æĸ¹
Ġsm o
Ġen h
Ġinclud es
áĥ Ľ
è ¹
Ġis t
T able
d own
æ¸ħ æ¥ļ
ĠÕ ¿
m ore
à° ¨
ur ance
Ġàª µ
Ġcho ice
ä¾Ľ åºĶ
æīĵ å¼Ģ
çĸ ¼
×Ļ× Ķ
oc ol
ri v
Øª Ø±
Ġcomm and
Ġst aff
.... ....
form at
_l ist
æĺ¯ ä¸į
it ation
éŁ ©
v Ã¤
o i
n og
_ to
U s
ir ing
ial og
b and
Ġpar ameters
Cont ent
c ast
æ°§ åĮĸ
Ġs ist
x i
àª £
it iv
è®¨ è®º
ĠÎ ½
Ġl ost
ent ity
æĹ Ĺ
ĠTr ans
ç ¸
ic ht
ãģ Ĩ
åıį æĺł
äºİ æĺ¯
in f
èĳ £
Ġm Ã¡
Ġáĭ Ŀ
åĬ¨ åĬĽ
. '
å¹´ æĿ¥
å¼Ģ æĶ¾
Ġet c
æĤ ī
Ġn om
enc ies
ä¾Ŀ æį®
Ġperform ed
Äģ r
Ġ Ð°ÑĢ
k g
åº Ħ
Ġl ines
Ġtrans fer
Ġs leep
æ± ¤
å®¶ éķ¿
Ġk ut
Ġes c
l ad
æıı è¿°
az a
ĠÐ ĵ
ar ray
èĭ± è¯Ń
ìĦ ľ
c el
ä¿ Ĺ
. E
ÃŃ s
Ġto wn
op en
ä½¿ å¾Ĺ
ĠC ons
Ġt ro
R A
Ð°Ð» Ð°
çļĦ æĸ¹å¼ı
Ġd ir
è¡¨ æĺİ
Ġmen tion
ç¢ İ
Ġele ments
ong o
ĠSt ates
áĢħ áĢ¹
S elect
ĠA cc
çº ¤
Ġv ed
ar l
Ġread ing
B A
ç³»ç»Ł çļĦ
èĲ¥ åħ»
æ´ Ľ
Ġform at
Ġmor ning
Ġbl og
èµ µ
å®Į æķ´
.s ize
Ġplay er
il ing
è§Ħ åĪĻ
ÅĽ ci
è© ±
Ġà² ¨
Ġgre ater
Ġ Ú¾
æī £
con text
Ð°Ñ ı
Ð°Ð½ Ð°
A cc
. pro
Ø§ÙĨ ÛĮ
id ay
Ġl abel
à¯ģà® ®à¯į
> (
éħį åĲĪ
Ð» Ð¸
Ġcomp let
Ġbec ame
åı¯èĥ½ ä¼ļ
ist ry
Ġ Ã¤r
Ġ×Ĳ ×ª
d r
é¢ Ĺ
Ġres ources
ij n
Ġany one
à¦¾à¦ ¨
Ġt ing
ir an
Ġatt ack
Ġfinanc ial
Óķ ÑĢ
ä¸į å¥½
o ti
æĳ Ĩ
ĠÑĢ Ð°Ð·
èĥ ¸
è¿ ¹
ĠA fr
ro ot
and id
Ġre ve
åľ¨ äºİ
Ġth us
çĶ ĺ
_ B
Ġk ul
Ġsat isf
tic es
áĢ® áĢ¸áĢ
äº ķ
Ġal t
Å Ħ
åħį è´¹
æ¢ ħ
ÑĭÐ½ Ð´Ð°
çº ¹
è» Ĭ
éĢĤ åºĶ
éĩĳ å±ŀ
Ġà¦ ı
/ m
p ite
iz er
ç´ «
un c
ç¾İ åħĥ
å¤Ħ äºİ
Ġp et
Ġincre asing
åĩº çīĪ
emp ty
und a
áĥ ļ
èĻ İ
ĠáĬ ķ
es h
ent y
çĶ ľ
Ġhe ar
te e
ĠS T
ĠN ational
Ġb all
áº ¡
Ġstr ateg
è§Ĵ åº¦
ÙĬ Ø±
Ġacc ur
Ġwr ong
áŀ¶ áŁĨ
Ġro ot
Ġw ide
Ġáŀ ĵ
Äģ m
ä¸ª æľĪ
æ» ¤
el ine
Ä«b as
ì ļ
æĬķ åħ¥
ĠÐ² Ð¾
à§įà¦ ¯
ul ti
åĪĨ ç±»
Ġo h
Ġcho ose
es ter
Ġbo ard
Ġst age
o ch
O V
< <
ok i
Ïİ Î½
c hen
id ing
end o
ê¸ °
Ġh u
Ġdef ined
èİ· åıĸ
ä» Ļ
il ities
o a
è¨ Ī
it ter
æŁ Ķ
Ã© r
* /
èĲ¥ éĶĢ
Ġo il
Ġpart s
Ðµ ÑĪ
enti fic
Ġem ploye
ÐµÑĤ Ð¾
Ġn ar
à½º à½ĳ
æ¯ı ä¸Ģ
app ed
Óķ Ð¹
Ġop tion
ĠM on
å®Ŀ å®Ŀ
ĠS oc
nd er
k h
Ġp ad
d oc
Ġinter face
Ġro ll
} /
Ġk Ã¤
Ġtri ed
iv ing
bl ock
åħ´ è¶£
b on
èµ ı
Ġ ãĢģ
Ġeas ily
± ä¹Ĳ
Ġl ang
- B
æľī æīĢ
à¥ĭ à¤Ĥ
æĭ ĵ
Ġt s
æµ ®
ĠI D
æī «
åķ ¦
å½ĵ åīį
Ġpres ence
i q
åĩ Ń
ÙĦ Ø§Ø±
á» Ļ
áŁĴáŀ Ľ
ĠÏĦ Î¿
Ġfe ed
( err
Ġv ÉĻ
Ġm ol
ĠU s
Ðµ ÑģÑĤ
Ġsur pr
åĺ ´
ĠÑģ Ð¿
áĬ £
æ¶Īè´¹ èĢħ
çļĦ åľ°æĸ¹
æĿĥ åĪ©
t x
v or
Ġt ut
å¿« ä¹Ĳ
Ġun it
Ġpre fer
èĤ¯ å®ļ
Ġsec urity
at ud
ä½į äºİ
ast a
æ¶Ī æģ¯
å½¢ è±¡
Ġmod ern
Îµ Î½
S P
- D
em e
åĮħ åĲ«
Ġfor ce
ç§ ¦
Ġele ct
ä¸» é¢ĺ
ob a
à¸ Ķ
çļĦ åŁºç¡Ģ
Ø´ Ùī
Ġequ ip
åľ° åĿĢ
ÑĤ ÑĮ
b al
Ġdef in
ĠÐ¸ Ð¼
im g
( st
ä¼ Ĭ
ĠÅ µ
è®° èĢħ
ap it
Ġáĭ Ń
ä¼ģä¸ļ çļĦ
æī ¶
åħĥ ç´ł
æ±¡ æŁĵ
Ġall ows
Ã« t
ativ es
ç©º æ°Ķ
ĠÕ £
ĠÃł wá»įn
çľĭ çľĭ
ĠÅ Ħ
èº« ä»½
ä½ľ ä¸ļ
ĠIn ter
Ġfollow ed
O ption
le ar
à»ī àº
Ġcan cer
ate gy
à· ĵ
ell ow
P oint
ĠRes ult
è¶ĭ åĬ¿
èĲ½ å®ŀ
N e
Ġbehavi or
èĥ Ĩ
âĢ ı
éł Ń
ie k
Îµ ÏĤ
- A
Ġthere fore
Ġà¨ ª
c y
ĠWh ile
è´ ¯
è· Į
Ì Ģ
Ã ¯
. r
d ir
æīĭ æ®µ
et o
i ya
Ġn p
è³ ĩ
ĠB u
( r
Ġà¤ ĸ
à®¿à® ²
Ġm ur
ri e
Ġar ticle
ĠÚ© ÛĮ
à³įà² °
ĠÑģ Ð»
ĠH ere
æľ¬ ç«Ļ
Ġsitu ation
Ġp ov
éĩį è§Ĩ
æ¤į çī©
è° ±
Ġthrough out
Ñĭ Ð¿
Ø ¸
ĠØ§ ÙĨ
éĤ ®
ne j
duc ed
ĠÃ ³
Ġre lev
éĥ½ ä¸į
å¤ļ ä¸ª
air s
Ġo ku
h ow
è ¬
Ġr ound
Ġp ou
ë §
Ġáº ¹
Ġpred ic
æĸĩ æĺİ
}( \
Ŀ i
æŃ£ å¼ı
Ġfam il
rit er
à¸ ¥
Ġfun c
ä¼ ¯
åĸ ·
åĲ¸ å¼ķ
ar ak
Ð³ Ð°Ð½
Ġcom fort
S e
Ġmem ory
áĢĻ áĢ»
eh ov
sp an
Ġtr ust
ĠV er
_ r
à¸ ¹
ab og
ç¶ ²
E X
o e
ä¼ ¦
ĠP res
çļĦ ä½ľçĶ¨
à¤² à¥ĩ
i or
å¤§ éĩı
æ¼ ı
ĠS outh
P re
å¦ ¹
èĢĮ è¨Ģ
å½ ¼
¦ áł
áŀĢ áŀ¶áŀļáŀ
Ġà² ķ
Ġstud ent
Ġit a
çĵ ¶
k w
áĪ ħ
li er
áĢ± áĢĲ
ĠÐ ŀ
Ġf ill
çĽ¸ å½ĵ
è¾ĵ åĩº
ĠÕ º
æĽ´ æĸ°
ome ga
Ġcon ven
Ġpop ulation
Ġim ag
( R
ĠG l
Ġon es
éĢļ çŁ¥
\% ,
V ar
éĶ ħ
ĠD ata
Ġwrit ten
ä¸Ĭ å¸Ĥ
Ġpar ents
ĠI nt
à½ ħ
k ov
Ð¸Ð½ Ð°
Ġtoward s
Ġhand le
Ġp ow
æĪ ´
Õ¡ Öģ
ç»ı åİĨ
Ġm ess
æĹ¶ çļĦ
Ġl ayer
Ġ ÆĴe
æĽ´ å¥½
Ġspe ed
ĠĠĠĠĠĠĠĠĠĠĠĠĠĠĠĠ ĠĠĠĠĠĠĠĠĠĠĠĠĠĠĠĠĠĠĠ
Ġp el
ä» ģ
äºĮ åįģ
ĠG ener
" ),
Ã¦ r
Ġte le
æ¶ī åıĬ
å¨ ĺ
áĤ Ī
ti e
ÑĤ ÐµÑĢ
ĠÐ´ Ð¾
ĠÐ ¹
op tion
P P
os ph
æ´ ¥
æĲ ŀ
à«Ģ àª
è®¡ç®Ĺ æľº
Ùģ Øª
s in
æ²Ł éĢļ
Ġde ad
Ġpol icy
Ġwor th
æĶ¾ åľ¨
Ð¾ÑĤ Ð¾
è¿ĺ è¦ģ
Ġáł ¡
à² ¡
çı į
Ġhe at
Ġu ku
éª ¤
. H
Ûķ Ùħ
åĪĨ åŃĲ
èĭ Ĺ
og y
à½² à½ĵ
æĽ °
å¥³ æĢ§
Ġph ase
æĹ ¦
Ġà® ®
èĥĮ æĻ¯
ĠÐ¸ Ð½
A ction
ĠS chool
äºĴ èģĶç½ĳ
à§įà¦ ¤
Ġf ine
ĠÉĸ e
ÏĢ ÏĮ
od a
ĠØ¨ Ø§
List ener
im u
æķ° åŃ¦
Ġres pect
il ed
E m
anc y
à¥įà¤¯ à¤¾
ä½ľ èĢħ
od ing
Ġre v
åģ ¶
c os
m ary
à®¿à® ¯
à¦ ¦
ĠM at
_ g
Ġmed ic
ve y
áį į
è Ŀ
Ġdistrib ution
éĩį å¤§
Ġpa ir
æįŁ å¤±
è¿ŀ ç»Ń
j er
ä¸ ¹
æİ¥ è§¦
D A
è¿Ĳ è¾ĵ
ij iet
ãģ Ĥ
Ġh op
åĭ Ļ
è´ Ŀ
.d ata
è£ħ ç½®
Ġrece ive
çĮ ª
ung u
ob ject
ti ll
f ield
âĢĿ .
æļ Ĥ
Ġconn ection
æį ·
ch o
Ġbe autiful
Ð´ Ñĸ
Ġb w
Ġup date
( C
Ġa u
Ġsh ip
U M
éĿ© åĳ½
ad os
æ¹ ¾
Ġdel iver
Ġfe et
Ġal one
æĪĳ åĢĳ
Ġcou ple
è¿ «
ĠØ§ ÛĮ
Ġp Ã©
Ġs ve
Ġbas is
ĠĠĠĠĠĠĠĠ ĠĠ
Ġdist ance
æľĢ è¿ĳ
Ġm ode
Ġsh op
ĠB rit
l ia
v as
ou te
åľ° ä½į
ĠF l
ne k
ar ily
æ³ ½
! ("
ĠT able
Ġtrans form
. Error
å¸¸ è§ģ
ĠL et
Ġrespec tively
ä½ĵ çİ°
çľŁ å®ŀ
åĬŀ çĲĨ
è® ĵ
Ġfact or
Ġv ehic
à¸£ à¸°
çĿ Ľ
ç¿» è¯ĳ
éģĩ åĪ°
id den
å® ĩ
Ġst ates
é¼ ł
pl i
Ġthink ing
Î± Ïģ
Ġinst it
k r
Ġprim ary
im it
èµ ¶
Ġcustom er
çĥ ¦
é¼ »
Ġv ai
Ġindividual s
m ark
Ġk tor
à¨ ²
æĪĲ æŀľ
áĥĲáĥ Ľ
Ġdiag nos
Ġmaterial s
. org
Ġje w
Ġh ak
ÑĬ ÑĢ
ç´ł è´¨
Ġvi ol
_ N
å½ĵ åľ°
ĠT est
Ġà² ħ
Ġá ±
Ġres pond
Ġbe z
ÑĮ Ñĭ
. G
ost a
èµ Ķ
aw n
ĠW eb
Ġà» Ģàº
Ġappro pri
Ġáł ¨
ç¬¬ åĽĽ
Ġpre vent
ĠO ff
ĠCom p
` `
æĸ° éĹ»
Ġet a
Ġf ol
æĸĩ åŃ¦
Ġl ov
è¡Į çļĦ
ì ĸ
åĢ¼ å¾Ĺ
Ġsw itch
wa it
Ġl ack
en ia
åĻ¨ çļĦ
ä¼ į
uth or
çĤ¹ åĩ»
Ã¡ g
Ġc out
Ġà¦ ¨
it ar
çĳ ŀ
U r
Ã² Ì£
et te
d elta
it an
Ġact ual
çªģ çĦ¶
åĲİ æĿ¥
Ġf at
Ġcl ick
ĠD an
S C
ol ar
ht Ã«
g ov
ä¸Ń åįİ
M e
. /
Ġbr and
Ġ" "
æ° £
Over ride
àª ª
Î¿ ÏĤ
Ġhigh ly
Ã© ho
id get
i ro
Ġsa fe
Òĵ Ð°Ð½
áĢļ áĢ¹
Ġv it
Ä ¯
st at
ict ure
Ġro t
ãĢĭ ï¼Į
æĪĲ åĳĺ
Ġim ages
d ed
ĠN orth
Ġnum er
Ġb ill
ä¼ Ł
áł¤áł ·
éģĵ è·¯
Ġlim ited
Ġsub s
Ó ¡
h and
áł ¥áł
Ġhapp y
ad ata
è¿ ģ
Ġt on
Ġp ÅĻ
è¢ ĭ
æ® ĸ
Ġprote in
as ons
Ġà¹ ģà¸
b ur
ãĢĭ ãĢģãĢĬ
ward s
Ġse lected
Ġà¨ ħ
è´ ¡
re q
ç¢ į
à½¼ à½ĵ
åĲĮ æł·
Äĩ e
Com ponent
Ġunderstand ing
av o
Ġi y
Ġac id
- P
Ġbu ilt
Ġáĥ ¡
Ġpro gress
èª ī
Ġal though
ograp hy
Ã¡ v
Òĵ Ñĭ
By Id
æĪĳ æĥ³
éĺ² æŃ¢
ĠDav id
ij as
Ġgiv es
ç» ĺ
åľ¨ è¿Ļ
å ļ
Ġopportun ity
åį³ ä½¿
åķ ı
% ãĢĤ
è ķ
çļĦ ä¸Ģä¸ª
æ» ´
æľ¬ æĸĩ
.d oc
å¯ ¿
áŁ Ķ
å¹´ è½»
çĪ ·
Ġin str
Ġv on
ĠEng lish
çİ »
áł °
ie ved
ĠáĬ¥ áĭ
ì Ĭ
Ġo w
Ġc ele
Ġdri ve
Ġqu ant
en ame
è´· æ¬¾
Ġu st
. J
Ġáī °
æŀĦ æĪĲ
Ġ ::
Ġgir l
Ġ×Ķ ×ŀ
j n
âĢĿ ,
Ġman ufact
åĪ© æ¶¦
Ð°Ð» ÑĮ
Ġal le
ill a
ul ated
Ùī Ø±
f g
O K
Ġexp ress
rap h
am as
à¯ ĩ
Ġb rought
Ġtou ch
eb Ã©
orm al
U til
èĪ į
? ;
¨àµįà´ ¨
å¹³ è¡¡
____ ____
à¨ ®
Ġ í
åĩº åı£
ek o
à¶ ľ
Ġser ious
åĪ© äºİ
. y
Ġd ed
ig i
åĪº æ¿Ģ
ri al
Ġse i
éĵ º
Ġd un
å£° éŁ³
Ġg al
å¦Ĥæŀľ ä½ł
Ġcon duc
å® ¿
æľ ±
Õ¸Õ ²
Ġliv es
Ġhtt ps
ĠP ark
Ġs ong
çĲĨ å¿µ
ÙĦ Ø§
htt ps
Ġà¤ ĩ
Ġj son
ar ies
äºĭ æķħ
-y ear
å¤§ å°ı
Ùħ ÛĮ
à¤¿à¤ ¸
ï¼ģ ï¼ģ
æĦŁ åĪ°
Ġco ol
Ġem o
af e
åħ· å¤ĩ
åħĪ è¿Ľ
ÓĻ ÑĢ
çļĦ å¿ĥ
Ġchall eng
res ponse
Ġt ree
es i
Ġhal o
áĥ ĵ
æĦ Ī
è¿½ æ±Ĥ
Ġb en
Ġáł ¤
Ġsignificant ly
com p
ĠÑģ Ñĥ
éĩĮ éĿ¢
Ġpart y
ac a
Ġgo al
em i
Ġac qu
Ð° Ñĥ
Ġb Å«
Ġfin ally
ass word
Ġk us
Re ad
Ġfunction s
æĺ¾ èĳĹ
Num ber
à½¼ à½Ħ
Ã¢ n
is en
Ġre pl
E nd
Ġcomplet ely
Ġhe n
åĨ³ çŃĸ
Ġpar ent
Ä±nd a
ä¸Ģä¸ª äºº
Ġl ic
Ġà¦ ¦
à¸ ·
áĪ ļ
Ã¤ Ã¤r
ĠÐ Ĵ
uk o
à²¾à² Ĺ
ä¸Ģ èĩ´
ĠÐ Ŀ
Ġv ector
ĠÕ ¢
Ġ= ==
æľ Ĺ
è¦ ĭ
Ġpresent ed
è½¦ è¾Ĩ
Ġg ut
çĶŁ éķ¿
Ġk uri
Ġ ß
Ġlead ing
ĠÐ ł
çĲĨ æĥ³
Ġcomput er
Ġseem ed
å¢ ¨
å§Ķåĳĺ ä¼ļ
å°ı è¯´
áº½ n
art s
Ġko h
] );
é¦Ļ æ¸¯
A fter
è¿Ĳ èĲ¥
à³ Ĥ
Ġwork ed
Ġs ites
ä» Ķ
éŀ ĭ
as an
ĠÄĩ e
act ory
v in
) -
áģ ģ
Ò µ
ĠS er
R ep
Ġsc hed
à¶Ń à·Ĭ
ÉĻ l
à²² à³įà²²
æĢģ åº¦
C A
}, $
Ġd as
k ing
Ò Ł
Ġgr ad
Ò¯ Ð½
å¾ª çİ¯
åĪĽ ä¸ļ
å° ĺ
T H
Õ¡Õ ¾
U E
ĠÐ¾ Ñģ
å¿ĥ çļĦ
æ¡ Į
áŀ ī
Ġl ok
èħ ¿
Ø¯ Ûĩ
å®¶ çļĦ
× ļ
å° Ŀ
Ġleg al
Ġm iddle
å±ķ ç¤º
Ġfil ter
Ġas pect
Ġc opy
ĠS an
Ġb on
èŀ º
Ġáł µ
åĨ Ĵ
Ġorig in
ro d
Ġadv ant
Par ams
ä¼ļ æľī
è°ĥ èĬĤ
Ġm ad
è¿ ª
Ġd h
ª à¯įà®ª
æĢ» æĺ¯
ĠÐ¾ ÑĢ
Ġtem p
Ġch ance
cl ient
æĦŁ åıĹ
Ðµ Ð¿
éģ Ń
ech n
- F
Ġre le
æµĭ éĩı
Ġgr aph
z z
å¹´ ä»£
åĽ Ĭ
æī °
èĴ ¸
çĽ ¾
Ġnum bers
ĠA pp
Ġwa it
ĠB er
ES T
æĮĩ åĩº
ĠC ount
id ge
ĠHe alth
çĽ¸ æ¯Ķ
le vel
Ġsk ills
è£ ¡
ÑĮ Ðº
åĿ ¡
Ġqu ery
ap er
è¿ħ éĢŁ
ä¸»è¦ģ æĺ¯
ol u
àº Ħ
åħ ģ
å¾ Ĳ
k et
ĠD is
åī ĳ
Ġp ada
ĠÐº Ó©
æıĲä¾Ľ äºĨ
çķ ħ
æĢĿ èĢĥ
Äį en
àº Ľ
Ĵ à¾±
m ber
à½ĳ à½´
ĠÑı Ðº
us al
ond on
à¥ģ à¤
ers ion
åĲĦ é¡¹
Ġhist or
Ġka o
Øª ÛĮ
à° Ĥà°
Ġg in
ç»Ļ äºĪ
ÃŃ m
Ġin tr
ç»ı çĲĨ
il it
Ġsc reen
æĶ¶ çĽĬ
å¼ķ å¯¼
Ġsam ples
Tr ue
æ Ĩ
ç² Ĺ
Ġoper ation
Ġre lease
ter m
æĭ ¼
l ation
¥ àº°
Ġcost s
å° ĸ
ĠØ§ ÛĮÙĨ
bu ild
Ù ĳ
E B
Ġfeel ing
Ġm g
om as
æ¡ ĥ
l ike
è± ª
ç½ ²
æ³ ī
ĠÏĦÎ· Î½
Ġet t
it able
ÉĶ n
f ord
áĬ Ń
L abel
Ġà¦ ħ
ri ef
Ġh ers
( P
/ c
Ġrec ently
Ġflo or
ri j
( _
C all
Ġto ol
an ks
éº ¦
Ġn ational
Ġà¨ ľ
Ġa im
b re
ij os
(d ata
Ġlarg er
ĠÐ ĺ
Ġex cept
Ġdeterm ine
.N ew
Ġbook s
ĠL og
g g
äºº çĶŁ
en ess
Ġsur v
Ñĸ Ð¼
Ġvari ety
ĠFig ure
æ·» åĬł
/ p
çŁ ©
Ġàª ¨
Ġf er
Ġà® ħ
is ions
Cont roller
ĠE v
Ġap plied
åĵ ¡
K E
Ġw arm
b b
çĴ ĥ
Ġfil es
ang ing
Bu ilder
Ġur l
áł¡áł ·
Ġm arg
Ġà® µ
Ġsl ight
æĲľ ç´¢
Õ¸ ÖĢÕ
i u
çłĶ åıĳ
åħ ©
åĨį æ¬¡
ol y
åĪĨ éħį
tt p
fl ow
he st
èħ ¾
ĠáĢ Ķ
åĪĽ å»º
Õ ¹
æī İ
. re
à¤¾à¤ ľ
Ġr ates
Ñĭ Ò£
ing a
áŀ¶áŀ Ķ
. create
ind a
ĠÕ ½
áŀ Ĳ
Ú¯ Ûķ
Ġd ynam
æ¸ ł
ĠS ub
ĠÐ¿ÑĢÐµ Ð´
V er
àª ¸
ä» ĵ
ĠĠ Ċ
éº ¼
æģ Ĵ
áĢ® áĢ¸
Hand ler
Ġdeterm ined
à¤ķ à¥ĭ
äºĭ å®ŀ
St ream
Ġre q
id o
ing i
Ġak an
à½ ķ
à¤¨ à¤¾
åĳ Ģ
à» Ĥ
áł¢áł ¶
Ġl if
att le
åİ» äºĨ
ç¤¾ä¼ļ ä¸»ä¹ī
The y
a ur
Ġs ÃŃ
R I
æģ ĭ
ament e
ç² ĺ
ĠD ef
æĥħ ç»ª
S A
à²¿à² ¦
åĲĦ ä¸ª
aj e
æīĢ è°ĵ
ķàµįà´ ķ
Ġsol id
ug ust
Ġarg s
çļĦäºĭ æĥħ
Ġcurrent ly
Õ ¬
Ġgre en
ä¸» ä½ĵ
æīĵ éĢł
é«ĺ åº¦
ess a
æĢİ æł·
Ġn ian
Äį e
Ġs ob
áĢĬ áĢºáĢ
æŃ¥ éª¤
åĩł ä¹İ
åĬ¨ çī©
Ġw ood
è®© æĪĳ
Ø± Ø§
g amma
Î½ ÏĦ
å± ¥
Ñĥ Ñĩ
Ġdec ided
_ str
ĠS al
it ory
ta u
Ġd il
ä¹Ł å°±æĺ¯
h r
èµ ĸ
_ string
ë¦ ¬
çļĦ ä¸į
Ġs old
v are
ĠG erm
Ð³ Ð°
æĮĳ æĪĺ
ç± į
ä¼ł æĴŃ
ol ic
. (
in Äģ
uk s
Ġwh ose
ĠS w
å¾ ŀ
æķ ¸
Ð¸ Ð¿
Ġgl ass
Ġne igh
åĺ ī
çľ¼ çĿĽ
_ re
Cl ick
éĹ ²
Ġd ip
ele te
St art
èĤ¡ ä»½
n ow
h te
ab s
è¡Ģ ç®¡
Ġstr ength
Ġdisc over
che ck
ti d
Ġh i
Ġp u
à²¨à³įà²¨ à³ģ
áĪ ³
Ġdeg ree
éļ Ĩ
ĠS ec
æĵ ¦
Ġsome times
à·Ĵ à¶º
Ġt ik
}{ \
ang g
×ķ× ł
Ġsaf ety
oj a
Ġmov ed
à¥įà¤ Ł
ä¿® æĶ¹
çĻ» è®°
k or
áł ¬
áĢŃáĢ¯ áĢĦáĢºáĢ
çļ Ĩ
Ġ Ð°Ð´
Ġsc ale
el er
ord s
Ġcult ure
Ð¾Ð² Ð°
aw s
E nt
åľ¨ ä¸Ģèµ·
×Ļ× ł
åĬ¨ ä½ľ
ĠÕ¸ ÖĢ
è´¸ æĺĵ
Ġach ieve
ĠÙĪ Ø§ÙĦ
Ġc at
éģĵ å¾·
Ġt end
ç»Ħ åĲĪ
Ġplay ers
Ġim pl
Ġp om
Ġer a
æľº åĻ¨
he ight
Ð» Ð°ÑĢ
åĲ¸ æĶ¶
Ġto ols
åĩ ī
åĵģ è´¨
( D
Ġpur pose
Ġlook s
Ġu int
ĠÚ© ÛĴ
Ġallow ed
Ø¯ ÛĮ
ĠF irst
Ġv id
áĭ ĭ
Ġre duce
ĠN et
å² ¸
ĠÎ¼ Îµ
Ġ ign
Ġu it
à³ Ĭ
.print ln
s ize
Ġrem ove
è¿Ľ æŃ¥
æĽ´å¤ļ çļĦ
ĠÒ ³
ä» ²
Ġk ita
l ib
ĠM ag
ĠÐ ¥
Ġ\ \
Ġchang ed
Ġ\ %
Ġd ari
Ġs Ãº
èħ °
Ġd ur
Ġprogr ams
è§£ æŀĲ
Ġparticular ly
Ġvol ume
Ġg ro
amb i
å±ħ æ°ĳ
Ġappro xim
P age
Ġl Ãł
Ġbenef its
o in
ag en
Ġst ream
Ġsp ot
çº ł
al m
Ġstep s
ĠR ev
n an
×Ļ× ¨
æĦŁ æĥħ
n ers
èģ Ĭ
å¹´ é¾Ħ
ĠØ ¥
àª ²
ug ar
Ġ/ >
Ġc op
Ġm ount
àº²àº Ķ
ä¸Ń æĸĩ
à½Ģ à¾±à½²
T oken
ĠÕ ¤
æĪĳ æĺ¯
åıĺ å¾Ĺ
Ġu a
Ġch a
ĠK ing
eb ru
Ġsol utions
çľĭ çĿĢ
erv ices
Ġf ight
áĢĲ áĢ¹
par ams
ny ch
Ġdig ital
ä»¥ ä¸º
àª® àª¾àªĤ
I Z
ä¸į éĶĻ
Ġbe le
Ġmax imum
Ġneg ative
æľī ä»Ģä¹Ī
çĽ Ī
æĢĿ ç»´
a is
ä¿¡ çĶ¨
Ġs Ã¥
ib ly
Ġf air
ä½ ¢
us u
çļĦ çłĶç©¶
åŁº åĽł
C R
a e
æİ¢ ç´¢
ä¹ ĥ
ãģ ķ
éĸ Ģ
Ġbe y
çŃ ¹
Ġn á»į
ĠÐ³ Ð¾Ð´
Ġz o
åĨľ æ°ĳ
äºº åı£
æĴ ĳ
æľī çĿĢ
ĠW est
Ã³ r
Ġà¸ ²
Ø§Ø± ÛĮ
Ġm ÃŃ
Ġartik el
áł ĭ
Ġpo or
ag ue
åįı è°ĥ
æĭ Ķ
Ġex erc
as tr
ĠS ci
P O
y b
Ġk ids
æĭ ľ
ho od
In stance
Ġv Ãł
éħĴ åºĹ
Ġs ession
oun ter
es an
Ġad ult
Ġc ore
Ġf irm
èģĮ å·¥
str act
è§Ĥ çĤ¹
oun c
ĠR ead
os ti
ĠA ir
åŃ¦ ä¼ļ
Ġe in
- T
à½ ı
S erver
Ã¬ n
ang ed
å°± ä¸ļ
Ð°Ñ ļ
çĹħ æ¯Ĵ
Ġps ych
Ġà¨ ¤
Ġà¸ ŀ
ĠÅĭ u
Ġdem and
ourn al
ç¼º ä¹ı
Ġá¹£ e
ï »
Up date
Ġabs ol
Ġgiv ing
àŃĩ à¬
Ġcar ry
ar ter
z d
Ġpro posed
ÓĻ Ð½
ä¹ĭ å¤ĸ
clus ion
ÉĻ t
Ġà¤ķ à¥ĭ
_f ile
Ġstart ing
è®© äºº
est s
çĬ¯ ç½ª
C reate
Ġf resh
ĠU p
Ġover all
Ġb or
à¤ ¥
ĠCent er
å¥³ äºº
Ġcount ries
ac ion
à´ ¯
Ġatt empt
ä¼ ı
ĠO ut
ĠK om
- re
ĠÑĤ Ð°Ðº
ig ger
Ð¾ Ñĩ
áĭ ³
Ġl ub
å¿ į
é½ ¿
.f ind
j es
E F
å¥ ı
Ð¸Ñĺ Ð°
ä»£ çĲĨ
ÏĦ Î·
à½´ à½Ħ
à® ±
ĠO f
ĠJ ust
ç½ĳ åıĭ
( M
Ġass um
Ġà¤ķ à¥Ģ
Ġh in
ä»İ äºĭ
b um
Ġh und
ç« ¹
á ¹
z ed
ĠK e
ĠÐ¿ ÐµÑĢ
Ġs ust
ĠÏĥ Ïħ
é¬ ¼
Ġgo es
ĠE st
çº µ
àª¨ àª¾
ij o
æĳ ĩ
Ùħ Ø§ÙĨ
çī© æµģ
å®ļ ä½į
Ġsign al
Ġre str
Ġhyd ro
en za
èµ ¢
à½ĳ à½º
è½ ¨
Att ribute
pr il
iv il
ĠÅ¡ t
Re f
áº £
Ġ\ &
è§Ħ å¾ĭ
d b
è§Ĵ èī²
Ð¸ Ðµ
à´ °
ì ĺ
áŀ ļ
Ġp ic
Ġful ly
ç¨ į
Ġm Ã«
ĠB ro
ty pes
or ge
a q
up date
ĠF ile
h ul
æĸĩ åŃĹ
Ġ ï¼Ī
ï¼ī ãĢģ
å°± è¦ģ
Ã½ m
Ġn ing
Îµ Ïģ
å¼º è°ĥ
Ġbut ton
q rt
åŀ Ĥ
ther n
z u
Ð½ Ð¸Ðº
Ġmeet ing
Ġbre ath
mit ted
od er
Ġf lex
ĠIsra el
Ġs ell
Ġapp ly
ĠT om
è² Į
å°± èĥ½
ms g
Ġre pe
Ġh odi
Ġdown load
Ġj us
à²¤ à³įà²¤
p c
ãĢĤ (
ĠO ption
ÑĢÐµ Ð´
Ġstra ight
it ute
Ġn Ä©
ä»į çĦ¶
áŀĶ áŁĴáŀļáŀ
Ñĥ ÑĪ
par se
é¢ľ èī²
ĠR ed
å¾Ī å¤§
Ġw el
ash ing
åľ¨ çº¿
Ġpre v
ĠÕ¸ ÖĤ
ĠÐ¼ ÐµÐ½
åĬ¨ æľº
Ġed ge
éħ ¶
Ġcont ains
Ġplay ing
Ġmean ing
áĪ İ
Ġrecomm end
å²Ĺ ä½į
ÙĪ Ø§
çī¹åĪ« æĺ¯
c ia
æĿ¥ äºĨ
Ġbas ic
Ġreg ister
ĠÐ¿ Ð¾Ð´
éģ ¸
çİ» çĴĥ
à½¢à¾ Ĵà¾±
ĠTh us
Äħ c
áĪ ķ
Ġclin ical
Ġn ad
Ø ¤
çĵ ľ
Ġ Öī
ib a
Ġi ki
æĬ ¢
ĠA ct
Ġs yn
à¯ Ĩ
ç¦» å¼Ģ
ĠØ§ÙĦ Øª
zj on
åį Ģ
Ġs ab
Ġs ad
Ġt am
t hen
à² ¸
Ġerr ors
ĠÑģ Ð¾
à¸ «
a it
ĠP ort
ĠH igh
åĲ¯ åĬ¨
Ġfield s
áĢĢ áĢ¼
åī ²
Ġá ¼
Ġfor mer
å© Ĩ
éĢ Ĩ
æĢ§ è´¨
G B
çĵ ¦
å¼º åº¦
æľŁ çļĦ
Ġuse ful
Ġb ik
Ġref lect
éĿĴ å¹´
åĸ ®
é£İ æł¼
áŀ ¹
Ġk ept
Ġpol y
Ġloc ated
Ġmov ing
æİ¨ å¹¿
r Ä©
Ġd ry
ĠĊ ĠĠĠ
ĠØ ·
Ġb iz
Ġm outh
Ġt y
C L
áĢļ áĢºáĢ
ä¸Ĭ ä¼ł
Ġbey ond
ag y
B ack
Ġal gorith
Ġl Ã¡
Ð ł
åĪ° çļĦ
Ġàª ¬
or gan
Ġt ip
n im
Ñĥ Ðº
S D
ĠÄį l
à½Ķ à½łà½²
Ġus es
ç§ Ĵ
æĥħåĨµ ä¸ĭ
Ġt our
éĹ®é¢ĺ çļĦ
ÑĤ Ð°ÑĢ
ĠAust ral
u w
Ġcent ral
çİ¯ èĬĤ
Ġexact ly
Ġap plications
c an
áł¢áł ¨
åħ¬ å¼Ģ
Ġsp irit
ag on
ÙĪ Ø¨
n em
Ġt ah
we b
eb ug
Î½ Î±
Ã Ĺ
L ine
( e
Ġcompon ents
à± ĩ
Ð» Ðµ
tim a
çĭ Ĥ
Ġd aily
$ {
äº« åıĹ
Ġà¹ ĥ
åħ Ħ
áł¢áł Ń
ot hes
à¦ ª
è¿ĺ åı¯ä»¥
Ġà¶ ¯
çī© çĲĨ
à® ®
å¹´ åº¦
åħħ æ»¡
S O
Ġh our
Ġbro ad
" ))
v y
à¯įà® ±
ĠE ven
ob j
å·¥ èµĦ
åī ©
Ġà¸ ģ
Ġs ik
áĬ ¨
å®ŀ è¡Į
Ġc redit
ĠT V
F e
æ¯į äº²
Ġàªķ àª°
Ġpre par
h al
ig en
Ġenc our
Ä±n Ä±
æ¢ ¯
Ġide as
Ġh un
Ġrel ig
Ġst orage
å¤ ¹
AT E
è¯ģ åĪ¸
ãĢģ âĢľ
ä¸į äºĨ
ĠAmer ica
ĠS l
Ġcap t
æı ´
ĠT w
Ġbo y
åı¯èĥ½ æĺ¯
P L
ÙĦ ÙĬ
èĭ± åĽ½
ä¸į çĶ¨
åį µ
Ġcol umn
Ġn ed
è¡ °
áĢĲ áĢ½
Ġcr ate
Ġad just
Ġh arm
Ġset ting
A ss
Ġb ottom
Ġprovid ing
åĲį åŃĹ
Ġ< =
Ġear lier
Ġch arg
Ġal a
à²¿à² ¸
à¤¨ à¥įà¤
çĤ ī
Ġp eng
Ġp on
Ġbr ain
ĠáĬ£ áī¥
d et
Ġum a
µ áł¤
çµ Ĳ
Ġre ached
Ġg one
an el
Ġo c
ä¹¦ è®°
æ¾ ³
s z
ugh ter
Ġp il
Ġy uta
ĠÅ¾ e
Ġtest s
O W
Ġh ospital
as ion
éļ¾ ä»¥
Ġgr up
Ġre li
r ho
è´¢ æĶ¿
Ġinterest ing
Ġsal es
p ÉĶ
Ġdiffer ences
Ġt it
æĺ¯ ä¸įæĺ¯
æī© å¤§
æīĢ åľ¨
à¥ģ à¤°
ĠE U
ÙĪ ÙĬ
ĠØ§ Ø³
Ġt Ã¤
ĠÐ ķ
áį ¡
Ġprocess es
ar p
Ġlab or
Q L
Ġl id
at as
é¢Ħ éĺ²
Ġappropri ate
æĦı åĳ³
áŀ¶áŀ ĺ
ud z
å¹ »
ĠN ULL
à½² à½Ĥ
Ġspe ak
am is
Ġexist ing
æĻº æħ§
Ġt sh
èĩ³ å°ĳ
Ġe ks
å°½ ç®¡
ÑĢ Ð¸
Ġcoun ter
æ¬ £
by te
áłłáł ¶áł¢áł
Ġsy nt
éĢ ĥ
ð Ł
P D
ãĤ ¹
âĢ¯ áł¤
Ġmon itor
ĠÅ¾ iv
è¯¾ åłĤ
b in
r int
b ul
çĶŁ æĪĲ
as ti
ÑĢ Ð°Ð²
Ġintern al
Ġm und
te ger
ĠÎµ ÏĢ
eg o
Ġbl ue
å°ı åŃ¦
è¯Ĭ æĸŃ
Ġsuccess ful
ep s
è¿Ļ æ¬¡
å¿ ł
Ġk ok
Ġpro s
ä¸į çŁ¥
å¦ Ļ
åĪ Ĭ
Ġsh ape
å¼Ĥ å¸¸
Ġd ik
Ġreturn ed
Res ource
èµĦ æł¼
Õ¡Õ ¬
ĠP art
- se
æĬ¤ çĲĨ
ëĵ ¤
Ġn je
æ° Ľ
Ġà¨ ®
Ġá Ł
gr ad
Ġorgan ization
h n
å¾ Ĵ
Ġáł ³
Ġà¹ Ħà¸
O ur
çļĦ åŁºæľ¬
å® ı
Ġ× Ĺ
Ġinn ov
Ġhapp ened
ä¹ Į
ÐµÐ½ Ð¸Ñı
( w
æĸ ĳ
ig an
Ġpi ece
ç¼ Ŀ
åĳ¼ åĲ¸
çļĦ å¥½
tiv es
Ġcompon ent
re me
Ġc á»
ä¸į åĨį
àµįà´ ¤
ate ver
é¥® é£Ł
Ġpubl ished
' .
åľ¨ æŃ¤
ĠÎ Ń
Ġt iss
æľī ä¸Ģä¸ª
Ġpar ams
er ia
Ġcom ment
Å¡ i
v at
out put
Ġon to
Ġup d
iv es
æ¶ µ
ê µ
×ķ× ĵ
å°¤åħ¶ æĺ¯
Ñĥ Ð±
Head er
Ġ ï¼Į
Ð°ÑĤ Ð¸
ÙĨ ÛĮ
Ġà® ļ
Ġfig ure
ĠÎ½ Î±
ä¹ĭ ä¸Ń
Ġget s
áĥĲáĥ ĵ
Ġimmedi ately
ap o
ç² ®
Ġth ick
Ġproduc ed
Ġcl ients
Ġthe ory
Ġc it
ĠPa ul
Ġb az
ĠAl though
ĠP et
so ft
æ ª
Ġh yp
áł¢áł ¯
X X
åįģ äºĮ
åĮ Ģ
ĠG over
est o
Ġsc ore
S a
A A
Ġw y
Ġ> =
å¨ ±ä¹Ĳ
ä¸Ģ å¤©
äº§åĵģ çļĦ
ust r
à° °
æĭ Ĩ
Ġbegin ning
Ġg ar
Ġc old
Ġm ac
M at
Ġr ules
Ġv il
à³ ĭ
A g
Ġpass ed
áĮ ¥
æĺİ çĻ½
Ġf ont
Õ¥Õ ¿
åįĩ çº§
Ġk ill
ĠÏĢ ÏģÎ¿
Ġproject s
ÐµÐº ÑĤ
ĠW ar
åŀĭ çļĦ
T om
ĠM us
Ġmem b
P a
è³ ª
rem ove
ĠC reate
è½¬ æį¢
Ġsv oj
} .
d el
Ġro b
ri f
Ġwould n
è° Ĳ
Ġtrad itional
en tion
å¾Ī å¥½
num ber
ãĢĭ ,
Ġsum mer
Ġmarket ing
Ġcrit ical
ro y
h om
Ġm ig
ç®Ĺ æ³ķ
áĥĶáĥ ļ
Ġà² ¹
Ġin fo
æ£Ģ éªĮ
Ġent re
Å¡an as
Ġà¸ ª
Ã© l
} );
Ġreduc ed
but ton
Ġgener ally
Ø± ÙĬ
çĸ« æĥħ
Ġres ource
Õ¥ÖĢÕ ¨
E O
åĽ¾ åĥı
im ents
éĹ ª
ps ilon
Ġpro duce
Ĺàºµ à»Ī
un it
áŁĤ áŀĽ
åĲį ç§°
ç±» ä¼¼
Ġf ear
Ġg old
ul ate
áŁĦ áŁĩ
Ġcare er
Ġclos ed
u ar
ut t
to ber
à³ģ à²µ
åŃĺ åĤ¨
Ġexc ell
ain e
éĢĤ å½ĵ
Ġsay ing
à® ķ
re a
Õ £
åĬł ä¸Ĭ
ici ency
å°± åĥı
Ġdat abase
áĢķ áĢ¹
Ġà® ¤
ç»¿ èī²
à¥įà¤ ·
áŀĺ áŁĴáŀ
ven tion
D en
ëı Ħ
Ġ Ûĭ
Ã¤ Ã¤n
æĭ ĸ
ì Ĥ¬
çĸ ı
äºº å·¥
Ġchar ge
æĪĲ åĪĨ
yt es
Ġsu ff
Ò¯ ÑĢ
çĮ «
æ·· åĲĪ
Ð Ĺ
èĲ ¨
ign ment
tific ation
ad or
àº Ĥ
p ress
) ï¼Į
Ġàª °
Ñĭ Ðº
èµ ĭ
çİ¯ ä¿Ŀ
à½¼ à½¦
ĠL ondon
ëĭ Īëĭ¤
à¤¤ à¤¾
å¤ª éĺ³
Ġà¶ ¸
T A
æĿ¥ æºĲ
tif y
Õ¥ Öģ
Ġd oub
à² ®
ä¼¼ ä¹İ
Ġà¦ķ à¦°
p ir
è´¡ çĮ®
Ġk il
h as
Ġpl us
Ġam az
Ġd ib
à¶ļ à·Ĭ
Ġd b
¨ à¯įà®¤
ah o
æľĢ å¤§çļĦ
ri er
×Ļ× ľ
Ã¥ n
Õ¸ÖĤÕ©Õµ Õ¸ÖĤÕ¶
Ġemp ty
á ĳ
åĲ« éĩı
å£ ®
ĠS k
ĠF e
Ġeconom ic
æ¯ı æ¬¡
áĢ± áĢĽ
æĥħ æĦŁ
áł¤áł ¯áł
Ġ Ð°Ðº
çĪ¶ äº²
S te
Ġmach ine
ĠG roup
ç½ĳ ä¸Ĭ
åĵ ²
wo od
èĩª è¡Į
é¡ Į
il er
row s
å°ı çļĦ
åĪ ¥
Ġfor ms
Ġprod uk
j ed
Ġn en
Ġz n
ind er
ĠU ser
( String
ĠS ince
ld e
ãĢĤ ï¼Ī
Ö ¶
Ġre action
Ġpart ner
áĭ ķ
æŁ¥ çľĭ
çĶµ è·¯
Ġy ield
P A
æĬ¥ éģĵ
ĠB el
Ð°Ð´ Ñĭ
ans a
Äģ c
ä¸ĭ åĪĹ
çĽĳ ç®¡
é¢ ¨
ç¼ ´
æŃ¤ æĹ¶
æµģ éĩı
Ġmak a
o very
åį± éĻ©
ag an
Ñĸ Ð·
:: {
Op tions
ĠR em
Ðµ Ð¸ÑĤ
æł ı
Ġass ist
æĤ ²
ĠP at
Ġ( "
Äģ k
áĢ Ĵ
å® ¾
ģ àº²àºĻàº
N ow
èĬ ¯
ro te
Ġr an
( T
Ġl j
Ġt un
Ġcon cept
æŁ¥ è¯¢
åįķ åħĥ
ä¸į ç®¡
Ġv r
ĠD ay
Ġse lection
Ġhapp en
ĠBl ack
å¯ Ħ
áŀ Ĺ
æľĢ ä½³
á» ĳ
p as
Ġfoll ows
Ġinflu ence
Ġáł¡ áł
Ġem b
Ġrel ative
æĻ ĵ
ĠÕ ¾
p ost
Ġent ry
Ġne arly
æ»¡ æĦı
V is
Ġan a
àºŃ àºĩ
ch ild
Ġz b
çĽ¸ åºĶçļĦ
Ġpo ol
os is
c s
ĠÅ ¼
< T
è´¢ äº§
Ġintern ational
à³įà² ¯
en v
Ġcor rel
æĿĥ çĽĬ
Ġrem ain
Ñĭ Ñħ
æ¬¢ è¿İ
P ost
æ²» çĲĨ
áģ Ĥ
à´ µ
áĢķ áĢ¼
çľ ł
æŀ Ŀ
åİŁ çĲĨ
ĠÐ¿ Ð¾Ð»
à¤¹ à¥ĩ
çĤ ¸
å¤§ éĥ¨åĪĨ
C heck
f u
à½¦à¾ Ĳ
et ch
æĽ´ æĺ¯
Ġn ice
Ġse ek
Ġdam age
enti ally
ĠgÄ§ and
éĥ½ åľ¨
ac ht
cl ick
æĿ ľ
à¤ ī
oll ow
çĭ¬ çī¹
Ġk ot
ol ve
çŁ Ľ
I A
Î¿ Î¹
ÑģÐº Ð¸
è¯´ çļĦ
Ġb Ã¡
çĶµ æ±ł
if orm
Äĵ j
à¸² à¸£
æĳ ĺ
æľĢ æĸ°
ä¸Ģ åĢĭ
Ġr en
ĠÂ »
ro t
åł Ĩ
Ġáĭ ĺ
Ġrequ ires
çķ ª
æĭ Ĵ
Ġgr and
Ġáŀ Ķ
j el
Ö ¹
ä¸ ²
áŁ ī
ard en
à§ĩà¦ ¨
op a
Ġrequire ments
æĪĲ çĨŁ
( j
r im
w al
Ġmat rix
ik t
èĩ £
ĠØ µ
à¯įà®ķ à®³
åŃ¦ ç§ĳ
åħ¬ éĩĮ
. value
- H
Ġì Ĺ
iy o
Ġcon vers
áĭ İ
äºº åľ¨
ES S
Ġt ai
åĪ° åºķ
â ĸ
Ġstr ategy
ä¹ī åĬ¡
Ġch annel
è¡¥ åħħ
Ġp ush
Y es
Ġto ken
æĿ °
le k
Ġm ort
ä¸Ĭ äºĨ
éĵ ľ
--- |
ê² Į
Ø§Ø ®
çļĦ åİŁåĽł
Ġem a
ĠP ost
Ûķ ÙĦ
Ġc ast
éŃ Ĥ
Ġg ih
Ûķ Ùĥ
äºº çī©
ĠÑģ Ð°
å¼º çļĦ
Ð¸ Ð¾Ð½
Ġjava x
è¶³ çĲĥ
( [
è° ĭ
Ġl ock
Ġo u
ace book
t Ã³
Ïĥ Î¼
Ġsus p
Ġk ons
Ġà² ª
as ure
åī ª
áĭ Ī
ãĢĤ ï¼Į
Ġc up
Ġn ation
æĮ º
ĠB i
è¾ ŀ
è®º æĸĩ
ak se
ĠN z
å®ļ æľŁ
ĠGo ogle
ë °
B S
åı¯ä»¥ åľ¨
v est
f s
Ġáĥ Ĵ
Ġis ang
Û ±
Ġp ang
im ate
Ġpl aced
å±ķ å¼Ģ
us iness
ent er
áĥĲáĥ ¡
à± ĭ
Val id
ac ement
al aki
æŃ£ æĺ¯
Ġess ential
Ġj an
æ· ĺ
å¼ Ħ
Ġkep ada
hen tic
æĪĳ ä¹Ł
Ĳ ĺ
ĠM ost
Ġp ra
ĠThere fore
Ġr out
ĠO p
ass a
Ġpo z
ÐµÐ» ÑĮ
åĭ Ĵ
Ġprot ect
éĥ½ èĥ½
T S
int u
\ \
O C
ov al
l ast
ĠC our
ay an
åĲ ¨
æ¡Ī ä»¶
aj i
Ġà¨¦ à©ĩ
àº» à»ī
Ġmob ile
åĿ ¦
ìĿ ¸
Ġ ich
æ° ¨
Ġcom o
àº± àºļ
ë¥ ¼
Ġs and
àº ¼
éĥ½ è¦ģ
æŁĲ äºĽ
Ġdr ink
Ġ rom
Ġdel i
åĬ¨ æĢģ
st atic
ç»Ŀ å¯¹
Ġcreat ing
åıĳ è¡Į
oth ing
áĢ¾ áĢ¯
f i
Ðµ Ð¶
æľī çĤ¹
Ġconn ect
Ġvari able
Ġi p
Ġp ie
çº¤ ç»´
Ġla ik
Ġmay be
Ġre ference
. html
×ķ× Ĳ
å°º å¯¸
á» ĩ
Ñģ Ð¿
éĨ ĩ
ãĢĭ ãĢĤ
áŀĶ áŀ¶áŀĵ
é¢Ħ æµĭ
ĠâĢ ¦
çļĦ åĨħå®¹
æ³¨ éĩį
áĢŃáĢ¯ áĢ¸áĢ
å¿ĥ éĩĮ
N one
é¸ Ł
å¦Ĥ ä»Ĭ
ç¬¬ä¸Ģ æ¬¡
() {
éĥ ĳ
plo ad
D ec
ĠCh ina
è½¬ ç§»
æĽ¾ ç»ı
ç¨ ¿
æµ Ĩ
åĳ¨ æľŁ
é¢ Ī
om in
à¨ £
æĮ ĸ
Ġ( *
ĠCh risti
Ġcour t
Ġsi ÄĻ
Ġà¤¸ à¤®
ç¢ °
Äģ d
Ġin hib
Ġcon ver
Ð½ Ð¾Ð³Ð¾
à¤² à¤¾
áĢ ĺ
æ³ķ è§Ħ
eder al
Ġw ife
åĲ ¹
ind e
ty le
Ġà¶ ħ
Ġvari ables
Ġca used
Ġper haps
um in
.c ont
Ġs rc
Ġconcent ration
Ġm uk
ĠÚ© Ø±Ø¯
çļĦ çĶŁæ´»
aj o
Ġro ck
çĦ Ĭ
? ?
Ġb ij
Ġol sem
Ġr ule
æĥ³ åĪ°
ĠÎ ·
å¹ ¾
àªĤ àª
åı¯ è§ģ
Bu ffer
Ġn ut
ÉĻ s
is ke
ä¸Ģ æĿ¡
é©¾ é©¶
Ġaff ect
Ġr ing
Å ±
Def ault
æĸĩ æľ¬
è® ¼
çĶ· äºº
éĩĩ è´Ń
ä¿ Ħ
àº· à»Ī
æĽ ¼
çļĦ è¦ģæ±Ĥ
Ġà¨ ī
Ñĥ Ñĭ
å¥ ī
Ġsp read
è¿ Ł
à½ ¤
Ú© ÛĮ
Ġk aj
Õ º
Ø´ Øª
Ġsym pt
Ġs ak
Ġà¤ı à¤ķ
ar ia
Ġd rop
Ġz e
åŃ ¤
Ġtest ing
ä¸Ń éĹ´
èº« ä¸Ĭ
çĶµ åİĭ
æĻ ¨
åĲ Ĳ
om ing
n ia
åĽ¾ çīĩ
ell o
. v
Ġpl ans
Ġmet al
at en
Ġl ah
ens ions
ĠØ¢ ÙĨ
es c
ĠÐ¿ÑĢ Ð¾
áº ¥
ĠS ur
Ġsup ply
çł Ĥ
Ġá ģ
Ġe gy
Ġcontin ued
æĻļ ä¸Ĭ
Ġl l
ĠÕ ©
éĻ ¶
Ġhund red
S p
Ġinter view
à½£ à¾
ç¨ Ģ
, âĢĻ
à²Ĥ à²¦
èĩª ä¸»
Ġbu a
åĲį çļĦ
ĠÎ± ÏĢÏĮ
åĲĦ ç±»
æıĲ ç¤º
è¦ º
Ġg am
_ ex
Ġb od
ri end
alle l
æīĢæľī çļĦ
vare psilon
tic k
æµģ åĬ¨
Ġy u
Ġl it
áĮ ½
Ġrelev ant
Ñĭ ÑĪ
çļĦæĥħåĨµ ä¸ĭ
å¤± è´¥
v r
ĠS ervice
áĢºáĢ ¬
bu f
Ġ( (
çĶŁ ç´ł
. name
Ġpl aces
ĠC D
ä¼¤ å®³
() :
Bl ock
æ§ ½
ĠS pec
ĠG re
Ñı ÑĤ
è· ĥ
Ġfrequ ency
Ġf arm
ec es
Ġcele br
à¯ ĭ
Ġset s
Ġy ak
æĥ ľ
Ġc urr
ari an
Ġk ir
ĠS am
Ġgrow ing
å¼º åĮĸ
Î® ÏĤ
Ġk ung
æķĻ æİĪ
Ġsu ffer
ig u
op t
in in
Ġcap ital
åħį çĸ«
Ġopen ed
ä»¤ äºº
Å £
ãģ ı
Ġbir th
ric s
è¾ ¨
Äĵ t
æ¸ł éģĵ
ĠS ept
ed ia
Ġet e
ĠÖ ĩ
éĴ »
ĠAss oci
S ome
áŀ¶áŀ Ł
Ġko je
w orks
æ¨¡ åĿĹ
ing u
×ķ× Ł
åģļ åĩº
Ġplan ning
áŀ ł
åĲĪ éĢĤ
S i
Ġob vious
Ġà¤¸ à¤Ĥ
k il
è¾ £
Õ¸ Õ¶
ĠÑĤ Ð°
ÙĦÙī ÙĤ
Ġáł Ń
Ðµ Ñĩ
D B
æľī æĹ¶
Ä± l
Ġo x
Ġf an
éģ ĭ
Ġplay ed
ul ations
Ġbu ffer
Ġj er
åĳ½ ä»¤
çļĦ åīį
Ġprevious ly
M et
à¤¾à¤ ¦
áĪ ª
ĠE very
h ost
ro v
æĳ ¸
Ġmeas ured
Ã¼ k
éĢ »
a ign
Ġrat io
se lect
Ġmere ka
Ġoffic ial
áĢ¬ áĢĦáĢ¹
ĠÏĢ Î¿Ïħ
Ġw ish
á ¿
Ġr ender
ric t
b il
Ġlib r
Ġtr ain
o on
ob e
æĤ¨ çļĦ
Ġ ìĿ´
Ġhel ps
Ġestabl ished
Ġs uc
áĤ ı
ç· ļ
", "
at tr
Ġidentif ied
ĠáĬ Ń
Ġà® ĩ
l abel
Ġhers elf
æµ ħ
èĢĥ æł¸
ĠáĪ °
Ġtr uth
ìĸ ´
AT ION
Ġb urn
Ġ Ïħ
Ġdev ices
pp ed
Ġcon struction
Ġs tim
Õ¥Õ ½
Ġk od
Ñį ÑĢ
å¤§ ä¼ļ
iv o
Ġst ock
Ġz ijn
áī ¶
æĸ ľ
Ġex hib
aci Ã³n
â Ĺ
åĮ ¹
Ġà¤µ à¤¿à¤
Ġà¸ §
Ġà¬ ķ
Ġe uro
åħļ åĳĺ
ĠCount y
æŀ ª
Ġb order
å±Ĥ æ¬¡
k ur
Ġmot or
æ± Ĺ
iss a
T O
Ġth in
à®¿à® ©
âĢ¯áł ¶
Ġv s
àª¨ à«Ģ
è ¤
Ġpolit ical
UR L
×ĳ ×¨
_ time
è® Ĭ
ä¸Ĭ åįĩ
å¤§å¤ļ æķ°
Ĺàºµ à»Īàº
åŁ ĭ
à²Ĺ à²³
Ġtalk ing
C S
Ġcap acity
Ġsp ent
Õ¡Õ £
æĺ Į
it ud
èĤ¿ çĺ¤
Õ ¢
Ġwe ak
k ed
éĢļ ä¿¡
st ream
Ì ĥ
D S
f it
Ġre z
um ber
áĬ «
åı¯ éĿł
éĻ ª
Ã¡ ll
Ġs ka
åĤ ¬
Ġz ak
áĬ ½
Ġcomm erc
el ig
à¥ĩà¤ ¶
×ł ×Ļ
Ġp hen
èĳ£ äºĭ
k ol
z Äħ
ä¸į èī¯
ĠØ± ÙĪ
å¹´ çº§
all ow
èĻ ķ
la x
çī¹ æĢ§
I B
ĠC heck
áŀ» áŀĦ
Ġequ al
à¤° à¥Ģ
P R
èĥ½ éĩı
Ġw ok
Ã¤ l
ĠM arch
ug in
×ķ× ĳ
eri or
- time
áŀ ķ
Ġa ri
à½ĵ à½¦
èĤ¡ ä¸ľ
bo ol
Ġs Äĥ
Ġsc he
T ER
æ¨¡ æĭŁ
ç¡® è®¤
Ġv en
Ġinter p
Ġg Ã¶
æĪĳ å°±
åľ° çļĦ
è¯ī è®¼
os o
Ġ× ¨
Ð°Ñ İ
Ġad alah
Ġsc en
Ġf ab
áĥ ľ
à²¾à² °
çªģ åĩº
Ġp icture
Ġ ÉĽ
Ġáŀ Ĭ
Ġp y
æŃ» äº¡
ãģĹ ãģ¦
.A dd
ĠA pril
el ij
is p
ĠI II
çŁĽ çĽ¾
ĠU K
. Context
ä¸ ¦
Ġde lete
Ġk ug
Ġa wait
ĠR eturn
ĠgÄ§ all
çĤ¹ çļĦ
àº²àº §
us hed
Ġv ill
æ· ĭ
æĺ¯ çĶ±
à¸ Ĺ
Ġà¤ Ķ
Ġin iti
éĽĨ ä½ĵ
re ci
S ource
ÄŁ Ä±
çĩ ¥
å¸ «
áĢģ áĢ»
hen s
Ġà¸ Ĥ
j at
Ġbab y
( B
Ġt ub
ä¸Ģ æĹ¦
áĢĶ áĢºáĢ¸
re b
æµ Ļ
es tern
Ġlat est
Ã¡ k
F unction
he nd
Ġv end
Ã«s htÃ«
Ġser ve
Ġlet ter
â Ħ
}^{ \
ti cles
Ġhealth y
åĥ ¹
_ eq
æĦ¿ æĦı
é¼ĵ åĬ±
Ġ_ ,
Ġdom in
æŀĦ å»º
áĭ ¨
çĽ Ĵ
é Ĭ
Ġh uge
Ġn uk
à½º à½¦
Ġcommunic ation
æ´ ª
çĤ Ĵ
áģ ¼
áŁĴáŀ Ļ
E qu
am at
as is
à®¤ à¯ģ
æĺ¯ ä¸ª
Ġdo b
N g
à¤¾à¤ ļ
å¼ ¯
Ġv ic
- R
ch a
Ø§ ÙĪ
Ð°Ð» Ð¸
è§Ĥ å¿µ
Ġh ous
áį Ī
Ġcont ain
åħļ çļĦ
á» ģ
Ġmove ment
ĠÏĦ ÏīÎ½
æľº çļĦ
aw e
inf ty
em u
v ider
Ñĥ Ñ
yp es
ĠJ ehov
çģ Į
Ġs áº½n
à¦ Ĺ
ĠJ une
con s
Î¿ Ïģ
re qu
s qrt
O h
æĹ ¨
à¸ ķ
C o
åĪĽ ä½ľ
Ġr end
Ġprep ared
eh owa
à« Ĥ
Ġsur round
Ġm ix
Ġequip ment
Ġ Ã«shtÃ«
Ġdire k
Ġs ul
Or der
Ġreg ist
à¨¾à¨ °
Ġà¸ ¡
Ġkat ak
àº ķ
.s wing
Ġ× ¤
ä»ĸ äºº
> </
Ġà¬ ¸
Ġre asons
Ñĸ ÑĤ
ĠDep artment
à³ Ģ
is ation
id l
' a
Ġcertain ly
ĠÐº Ð¾
Ġcar ried
åĮħ è£ħ
éĥ ģ
ell s
il ip
ĠA ny
ç»Ļ æĪĳ
è´§ å¸ģ
Ġext rem
è®¿ éĹ®
Äį n
åĮº åĪ«
Ġsmall er
s m
ç¾İ çļĦ
Äĵ m
A I
k ar
à¨ µ
Ġk ana
as y
er d
æľ¬ æ¬¡
B ar
< String
ç«ĭ åį³
Ġw Ã²
os en
Ġf ailed
çĪ± çļĦ
g al
Ġcle arly
ÏĥÎ· ÏĤ
ĠáĢ ģ
sp ring
è Ł
Ġm ist
ç¯ ®
è¾ĥ å¤§
cre en
æĪĳ åľ¨
ĠN or
Ġàª¤ à«ĩ
Ġr áº¹
Ġst uff
Ġop in
wide hat
àº Ĭ
ĠJ apan
Ġal s
Ġrap id
å®ŀ åĬĽ
Ġ Õ¡Õ¶
æĬĢ å·§
Ġn uc
åĬł å¿«
áĭ ļ
ĠEr ror
Ġright s
Ġind ependent
N et
åħģ è®¸
ë ł
Ġdes cription
_ L
áĪ Ĩ
w en
Ġother wise
am ed
èī¯ å¥½
_ R
H z
w in
é«ĺ éĢŁ
¬ áł¦
& #
çĪ± æĥħ
K e
å¹¶ ä¸įæĺ¯
çļĦ ä¸Ģç§į
åĳ¨ åĽ´
è°¢ è°¢
ĠÑ ĺ
ĠM ac
Ġv ec
æĻ® éģį
è®© æĪĳä»¬
Ġbenef it
Ġstat ement
un tu
M in
æ¼ Ĥ
olog ies
à¬ ®
Ġexper t
. as
ĠJ ack
Ġinc or
çªģ çł´
æĶ¶ éĽĨ
áłłáł ®
M ethod
Ġcl ub
Ġbec omes
Ð´ Ð°Ð½
ri ver
å¾Ī éļ¾
å§ĭ ç»Ī
ro b
ä¸Ĭ éĿ¢
at abase
Ġvis ual
å±ŀ æĢ§
all a
ĠÙ¾ Ø±
ÑĤ Ðµ
urs or
Ġd ag
Ġar ms
æ¯ı å¹´
Ġa ra
åľ ³
lar Ä±
iv ely
is an
Ġà¸ Ī
à¸ ¸
åı¥ è¯Ŀ
Ġam e
Ġáĭ Ī
æĮĩ æķ°
an j
ĠÛģ ÛĴ
å¤ º
M ode
l ari
æ°¸ è¿ľ
Ġb ond
áĥĲáĥ ķ
Ġcon v
Ġs as
( -
_ index
ĠA ugust
ĠTr ue
ëĤ ĺ
è¸ ı
ens or
iz z
ph one
Ġd y
Ġins urance
ä¼ĺ è´¨
it ect
çł´ åĿı
Ùī Ø²
Ġag ent
( G
/ d
ou ter
ot ed
gr aph
ĠÙĩ Ùħ
åĵ Ń
éĢĲ æŃ¥
å¹¶ æ²¡æľī
·áł Ń
I O
Ġcom pl
add ing
à® £
Ñĭ Ð¹
up port
ment e
Ġac com
Ġobt ain
atic ally
Ġv u
éĺŁ ä¼į
Ġpol ice
à½ ī
å¿ §
Ð°Ñ Ħ
Er r
å§ Ĩ
å¥½ åĥı
á± Ł
ĠØ¨ ÙĪÙĦ
ĠO c
/ **
Ġcontr ast
ci ous
Ġsh ared
ro z
Ð½Ñĭ Ñħ
Ġl ap
éª Ĺ
Ùī ÙĬ
h od
im p
Â °
Ġex tract
ĠFr anc
æķħ éļľ
Ġc el
éĤ Ģ
et u
æ·± åľ³
st all
Ġth reat
Ġcon str
æĪ¿ å±ĭ
Ø¨ Ø±
àµ ĭ
åĵ ¦
ist ory
çīĪ æľ¬
ä¸°å¯Į çļĦ
ÛĮ Úº
-c ont
Cont rol
Ġproced ure
. class
å¹³ æĸ¹
ä¸Ģ æ®µ
ä¹Ł è¦ģ
äºĭ é¡¹
çĹħ äºº
ĠH ouse
? âĢĻ
Ġp ent
ĠáĪ µ
å°ĳ å¹´
æĦ Ľ
çĶŁæ´» ä¸Ń
é¡º åĪ©
çĶµ æµģ
à»Ħ àºĶ
åħ¶ æ¬¡
ä¸Ģ å®¶
ll a
D on
áŀ¶áŀ ı
å¾ĭ å¸Ī
ĠL i
ĠB en
ç³ Ĭ
Ġth ous
Ġf ixed
Øª Ø§
Ð¾Ð¼ Ñĥ
àª¾àª ®
æĢ Ĵ
s v
ê² ĥ
áŀ· áŀĦ
S pec
O per
th at
ç¾İ ä¸½
ä¸ĭ åİ»
åĽł çĤº
kn own
ÑĭÐ½ Ð°
æĬķèµĦ èĢħ
æĬĳ åĪ¶
S l
ä¸Ģ ä½į
èŀį åĲĪ
ä¸Ģ æĺ¯
Ī ĺ
æĬ¥ åĲį
is ms
æĦıåĳ³ çĿĢ
Ļ áĢ»
ŀ Į
ĠRes earch
ĠM or
é«ĺ æł¡
Ġ× ª
çī ¢
Ġh ogy
ĠÚ© Ø±
Add ress
è¦Ĩ çĽĸ
åĵª éĩĮ
Ġ×¢ ×ľ
Ġdis s
Ġe arn
un der
Ġn z
à¤ķ à¤¾
æ³ µ
ond o
ä¸Ĭ ä¸ĭ
Ġman a
Ġm ud
j ar
æ² Ī
ens k
Ġpr av
å¥ Ķ
æĿ ±
éĺ Ģ
id an
Ġtechni ques
é«ĺ çº§
åŁº åľ°
åĲ« æľī
_ add
à¨¤ à©ĩ
Ð´ ÐµÑĢ
áĢ¯ áĢķáĢºáĢ
ec k
à¶ ´
ad en
è¨ ĺ
ĠØ§ÙĦ Ø£
å¤© ä¸ĭ
oun ced
un an
w as
P ol
ot ype
act or
Ġz ero
an ie
ag ment
å® ħ
ond a
Ġcons ult
st ate
Ġat tr
ãĥ¼ ãĥ
if ik
Ġr aw
æ¸ Ĺ
Ġinterest ed
ĠÐº ÑĢ
à¤¾à¤ ķ
er al
èĥ Ģ
it is
ä¿Ŀ åŃĺ
è£ Ŀ
E E
à¨¿à¨ Ĩ
ãģ Ŀ
å£ ¤
rib utes
Ġsc ience
Ġg es
ä¾Ŀ æ³ķ
ç¼ĸ è¾ĳ
ĠW illi
ac ters
ger y
éĥ¨ ä½į
D P
à¦ Ł
anu ary
ĠÃ ½
æĺ¯ æľī
éĶ »
éĶ ĭ
A z
æĶ¹ éĢł
ĠØ¨ ÙĪØ¯
Ġt ul
and er
qu id
èī ¾
Ġcorrespond ing
åħ¶ å®ĥ
ãĢĢ ãĢĢ
Ġn ije
ĠCal if
ĠIn c
sh i
éķ¿ çļĦ
§ a
ãĤ Ī
å£ ³
æĶ¯ æĴĳ
_ key
it z
ĠD irect
å¹¿ ä¸ľ
ĠAl so
æĻĤ éĸĵ
Ġale bo
Î ¶
àº± àºĻ
è¯ ±
t in
Ġhig hest
Ùħ ÙĦ
çĽĳ æµĭ
Ġun c
ĠIntern ational
id el
ä¹Ł è®¸
Ġà® ¨
Ġpa id
å¼ ·
Ġd re
Ġat au
ÙĪ Úº
áĥĲáĥ ł
Ġw ild
.... ..
çŃ ĭ
Ġwa iting
def ine
Ġk ako
èĳ ¡
Ġà¤ķ à¤¾
un u
Ð¾Ñ İ
ÚĨ Ùī
Ġfamil ies
Ġbo olean
jo in
èľ ľ
ë ¶
Ġp it
åĩº åİ»
p g
Ġeff ec
Ġprot ected
t al
åĳĪ çİ°
t ar
åľ° äº§
Ġrest aur
Ġpol ic
è¯Ĩ åĪ«
Ò± ÑĢ
åĽ¾ ä¹¦
Ð» Ð°Ð´
ÐµÐ½Ð¸ Ðµ
Ð» ÐµÐ½
æħ¢ æħ¢
à¦ ¹
z et
åĶ¯ ä¸Ģ
um ns
éĥ½ åı¯ä»¥
a an
Ġpar ameter
Ġà¨¹ à©Ī
éĿ¢ ä¸´
Ġanim als
- sh
Ġà¤ Ľ
ant o
áł¦áł ¯áł
à² ¬
Ġoffer ed
Ġcam era
Ñ Ĺ
æłĩ å¿Ĺ
ĠB et
Ġs ac
roll ed
é©± åĬ¨
Ġmin imum
æĪĺ äºī
Ġrespons ible
à½ Ł
çĹħ æĥħ
ĠÐ¶ ÑĭÐ»
æĤ ¬
cri p
² áłł
ib e
Ġidentif y
àº ŀ
èĢĮ ä¸į
G o
Ġappe ars
éĢ» è¾ĳ
Ð´ Ð°ÑĢ
Øº Ø§
Ġsk al
Ġinter net
g roup
ĠÎ³ Î¹Î±
Ġd Ã©
Ġm sg
è¯· æ±Ĥ
á ¸
Ġexcell ent
U I
Ġther apy
ĠT HE
ning en
init ely
Ġy n
Ð¸ Ð±
à¤¾à¤ Ī
le h
Ġfind ing
ÓĻ Ñĭ
ç¡® å®ŀ
Ġà¤Ķ à¤°
è¾ ī
å®ĺ æĸ¹
ĠÑģ ÑĬ
Ġb ai
aw an
Ġz ap
å¥½ äºĨ
æł¼ å¼ı
Ġit o
ĠT ime
Ġr ich
off set
_ value
å¸ ¶
Ġrele ased
èĤ ©
áł ¯
ä¹Ł å°±
æľī æľº
ar th
Ġr y
ÙĪ ÙĤ
ot es
Ġh av
f in
Ê» i
Ġr as
Ġs ources
çĽ´ æĴŃ
Ġb ay
Ġd op
å§ »
à¨ Ĩ
und ay
erv ed
áŀ¶áŀ Ľ
ĠB ecause
l ong
ç»Ī äºİ
Ð°ÑĢ ÑĤ
g un
åĲĦ ä½į
Ġsh ot
ĠTim or
n j
Ð°Ñħ ÑĮ
_ by
Ġá» Į
ä»£ çłģ
ĠÕ¥ Õ¶
æĺ¯ å¯¹
å¹¿ å·ŀ
Ġyang o
a res
å½¢ æĢģ
Ġfavor ite
æŁ ľ
Ú ĵ
ãģ į
ren ch
Ġbal ance
çħ ®
ĠAN D
ãĢģ "
éª ĳ
Ġemploye es
_ back
Ġn el
å¹¿ å¤§
æķ´ çĲĨ
< '
ere k
ĠM ary
Ġm ale
ç§ĳ çłĶ
à¸ ļ
Ġr ak
ĠH a
che ma
A Y
Ġ Ïĩ
Ġv Ã¦
å°½ éĩı
it el
à¤ ı
å¾® ä¿¡
çĪ¸ çĪ¸
æµ ¸
Ġch u
ĠM et
èİ ±
ic on
Ġf el
Ġdis pela
Ġst ood
Ġeff icient
ĠF urther
ĠØ§ ÙĪØ±
áł¡áł ³
çļĦ åħ³ç³»
te en
ĠáĢ ĳ
O ff
Ġm Ã¼
å» ī
m g
åĮ» åŃ¦
çļĦ ä¸»
Ġáĥ ĺ
C M
l ag
l ock
ĠL ord
áŀŁ áŁĭ
áŁ ĥ
orn ia
åįı ä¼ļ
Ġáł ¦áł
Ġno tice
Ġsa i
u tive
Ġsc i
æ°ĳ ä¸»
Ġsec ret
æıĲ åīį
ä¾Ŀ çĦ¶
per ties
ie g
Ġn es
áĪ ©
Ġl ain
Ġsequ ence
ĠC r
áł¤áł ¯
Ġest e
Ġc andid
Ġon der
æ» ļ
å°ı ç»Ħ
Ġn one
à¤¡ à¤¼
Ġreport s
it at
Ġt et
Î» Î»
Ġconn ected
ä¸ĵ éĹ¨
Ġrem ains
é«ĺ æķĪ
Þ ¦
æĢİä¹Ī åĬŀ
um er
ol f
à° ²
Ġt ick
Ġra ise
w u
Ġst re
Ġmas ter
Ġf ir
æľīæķĪ çļĦ
çļĦ åĲĮæĹ¶
Ġor ang
éĤ »
Ġtre ated
wh ich
ĠJ uly
Ġz Ã¡
Ch ild
Ġcomb ination
ķ áĢ¼
è¡£ æľį
Ġn k
Ġy i
ĠO F
å¤© çļĦ
Ò Ļ
w ana
Ïħ ÏĦ
ug u
Ġpurch ase
áģ ı
Ġas ync
àº± àºĶ
æµ ı
Ġà¦ ¯
æĶ¹ è¿Ľ
P T
Ġmed ium
ust e
Ġc m
Ã© se
Ġtri p
Ġ ÏĮ
ĠCl ass
çŃī çº§
Ġup per
uc tures
over line
ĠØ¦ Ûķ
åĲĮ æĦı
Ġjo in
å° Ī
Ùĩ Ø§ÛĮ
ĠD et
h ere
ubl ik
Òĵ Ð°
Ġsm ile
Ġst ation
Ġc in
iz i
- G
Ġmen y
æĴ ŀ
æĻ ĭ
Ġst ories
áĭ Ŀ
à© į
Ġà² ¬
å¾ ¡
æĽ ¸
ĠØ º
/ or
à¤ «
ut or
Ġmention ed
åĲĪ æł¼
è² »
( function
} O
å¹³ æĹ¶
Ġgo als
c al
ag ai
B ase
è¡ ĵ
Ġcommerc ial
æº¶ æ¶²
ĠO l
æģ °
em on
Ã± a
Ġadvant age
Ġcon sequ
Ġáŀ Ģ
Ġpr in
raw ing
we ight
ove mber
èĲ¥ ä¸ļ
Ġ$ ('
Ġold er
ia i
ĠS ee
è½» æĿ¾
å±± ä¸ľ
ĠO ver
á ĸ
ë ©
art a
å¾Ī å¿«
Ġl is
åŀ ĥ
fr ont
Ġf ix
è½¬ åĮĸ
Fr ame
f n
ĠF acebook
ip a
ìŀ Ĳ
åĲĮ ä¸Ģ
à¤¾à¤ Ĺ
Ñĸ Ñģ
ĠÐº Ð¾Ð½
id z
u o
áŁģ áŁĩ
H ere
Pro perty
Ġwant s
ÎŃ ÏĤ
æµĵ åº¦
Ð» Ð°
Ġdom ain
Ġg y
ain ts
Æ ¡
Ðº Ñĥ
èµ ļ
åľ ¾
àº Ĺ
abil ities
Ä« j
Ñį Ð½
æ³ Į
å© ´
Ġimport ance
Ġl ig
ÑĢ Ð¾
é¡¾ å®¢
Ġb io
æĺ¯ æľĢ
he tic
åĪ ł
æ» ĭ
b et
m ÉĻ
æĻ °
Ġàª ¦
th on
Ġk ra
ber g
S ystem
ĠN r
Ġch ain
åŃ¦ æľ¯
Ġl oved
Ġa ti
å±Ģ éĥ¨
åıĳ è¡¨
T L
æ¬§ æ´²
Ġconcent r
Ġba ÅŁ
æ³ ª
Ø¯ Ø±
æ¸ ¡
Ġobject s
à§įà¦ ¬
ett ings
pe k
áĢ± áĢĶ
Ġear th
Ġexp and
è®° å¿Ĩ
ä¸į å¤Ł
Ġit er
à¸ ª
åŀĥ åľ¾
T E
áĢ Ł
rom e
è ĺ
Ġdr Å¾
ĠCh ar
Ġhe avy
Ġn al
W hy
è¾ Ī
c ks
w idth
à¯Īà® ¯
oy o
áĭį áĬķ
it ors
Ġ× §
à´ Ĥ
æĢ» ä½ĵ
L et
åĩº æĿ¥çļĦ
çħ§ çīĩ
à®¤ à¯įà®¤
ing en
à¤¿ à¤°
Ġsp end
à¥įà¤ ¥
Ġ×ľ ×Ķ
ĠE ach
Ġsc ene
Ġn ye
ÙĨ Ø§
æ¡Ī ä¾ĭ
Ġm p
Ġg el
é¢ĳ çİĩ
é ³
ĠĠĠĠĠĠĠĠ ĠĠĠĠĠĠ
Ġl ak
Ġmen j
åĽ½ çļĦ
Ġslight ly
Ġoper ations
ãĢĤ ãĢĬ
ĠInd ia
D ev
ĠF orm
à¤¹ à¥Ģ
Ġcent ury
Ġd od
áŀ¶áŀ Ļ
çĨŁ æĤī
ĠV ec
çĽ Ĩ
ĠÙħÛĮ Úº
Ġcá» §a
M a
in ner
Ġgu ess
A V
à¬ ¨
Ġm ab
D r
áĢĢ áĢº
. a
ĠÚ© ÙĪ
Ġì ŀ
es tiv
E s
D R
ĠÐ± ÑĥÐ»
Ã© m
g est
áĮ ł
å· ¡
åĿ Ľ
f ol
Ġd zi
éĤ ¦
Ã¡ ny
Ġe at
åĲ¦ åĪĻ
äº§çĶŁ çļĦ
( |
à¦¿à¦ ²
å¤§ åŀĭ
Ġpull ed
åħ¬ å¼ı
ĠĊ ĠĠĠĠĠĠĠĠĠĠĠ
áĢŀ áĢĬáĢº
çĽ¸åħ³ çļĦ
ann ed
Ġd oll
Õ¡Õ ¼
æ± ģ
l ÉĻr
à¥ Į
- term
Ġc os
Ûĩ ÙĦ
Ġarg ument
æĹ¶ åĪ»
Ġhan esan
åıĺ æĪĲ
in ct
à¶ ¶
áŁĴáŀ ľ
ÑĭÐ½ ÑĭÒ£
Ġo st
æķ°æį® åºĵ
t ual
ĠØ¯ ÛĮ
à½Ĥ à¾±à½²
Ġv ac
Ø¯ Ø§Ø±
ĠOb ject
Ġvehic le
à¦¿à¦ ¨
ĠO ther
æ¯ı ä¸Ģä¸ª
Ðµ ÑĨ
Ġà¤ «
is er
éļľ ç¢į
áł¡áł ¯
ĠEurope an
Ġk id
éĴ ®
ĠJ e
éĻĦ è¿ĳ
à¤ķ à¤°
æµı è§Ī
áŁĴáŀ Ł
çļĦ ä¸ľè¥¿
Ġse ven
æĤ Ł
ish i
ìľ ¼
Ġfail ure
h im
åģ ·
åľ¨ è¿ĻéĩĮ
Ð°Ñ ŀ
æŁ ³
) +
æĦŁ è°¢
Ġdri ver
.P rint
ĠI r
áĢ¾ áĢŃ
æķĪ çĽĬ
Ñĸ Ò£
åĤ Ļ
Ġuni vers
Ġmov ie
çļĦ æ°´
ĠSept ember
g ar
Ð¾Ñ Ĺ
Ġis ol
à©Ĥ à©°
v ector
N i
èĢĥ çĶŁ
Ġt É©
Ġ ÃŃ
áĢĦáĢ· áĢº
ä¹Ł æ²¡æľī
v oj
Ġex tr
land s
as o
à¤¿à¤¯ à¤¾
å¯» æī¾
cl os
ins ert
Ġb are
Ġà¶ ±
Ġdif f
Ġclass es
ĠC O
m is
Ġwor den
Õ« Öģ
Ġà¬ ª
ad s
Õ«Õ ½
áłłáł ¯áł
ĠR o
ack s
Ġl ip
Ġex pos
Ġch urch
Ġn it
Ġgener ate
Ġt ent
Ġg ain
Ġac tions
å¤ĸ çļĦ
à²¿à² Ĺ
Ġopportun ities
çµ ¦
èº« è¾¹
ĠU se
z v
, '
Ġa st
he ader
æ²Ĵ æľī
Ġth erm
Ġm ok
Ġtr ade
áĪ ĵ
b el
åĬ ²
Ġb ow
.s h
Ġcol lege
u ce
ĠUS A
àŃ Ł
åĴ ĸ
å§ ¿
Ġs Ã¬
éĤ£ æł·
Ġ Õ¡Õµ
Î· Î¼
ÅĤ a
è£ħ å¤ĩ
Ġl am
ang es
Ġw ake
ãĤ ¤
anc ing
is ka
Ġà¨ ²
ack et
Ġu ch
ĠM od
ä¸ª æĢ§
¥ à«Ģ
æľī åĪ©äºİ
b es
èŀį èµĦ
Ġm ik
ash ion
Ġincre ases
Ġm ental
Ġw it
åĽ½ æ°ĳ
m ath
à½ĺ à½¦
åľº æĻ¯
Ġnam ed
en ga
Ø¹ Ø¯
Ph one
ĠB al
Ġd ensity
Ġay eke
ï ¸
W eb
Ġu Å¾
Ġabs or
è¾ħ åĬ©
æĲ º
áĢ½ áĢ¬
Ġrel atively
à½ĸ à½¦
t an
è¾ ©
me ga
ic ity
Ġd ot
Ġsoc iety
} }\
å®ŀéĻħ ä¸Ĭ
è¿ĺ èĥ½
à¦¿à¦ ¤
V ER
Ġdep th
à¤¤ à¥Ģ
AM E
Ġr are
Ġkit chen
åķĨ åĬ¡
Ġt es
Ġth read
Ġcont aining
j an
sc ope
èĦ ¾
Ġdi et
Ġsud den
Ġs is
Å ł
ti lde
ĠW hy
ä¼ĳ æģ¯
am ily
çĶµ æºĲ
ĠÐº Ð¾Ð¼
icro soft
åį ĵ
Ø ¥
Ġregard ing
' n
E ng
Ġm l
Ġàª ı
Ġprocess ing
Ġprot ection
ar on
Ġáĥ ł
ĠC he
å®¶ éĩĮ
Ġst ret
à½Ĥ à¾²
et es
Þ¦ Þ
Ġli u
âĢ¯áł¶ áł¢
Ġp our
Ur l
áłłáł ³
Ð°Ð² Ð°
Ġcharacter istics
áģ ¾
âĢĿ ãĢģâĢľ
Ġparticip ants
Ġme kim
à²¿à² ¯
åĽł èĢĮ
ĠÎº Î±ÏĦ
Ø§Ø ¡
éĹ´ çļĦ
áĬ ł
æł¡ åĽŃ
oj n
æ·± åĪ»
Ġi Ã§
é¥ ±
ĠPres ident
R T
à½¼ à½Ĥ
åĦ¿ åŃĲ
p tr
áŀĺ áŀ¶áŀĵ
Ġcol lect
Ø§Ø Ń
Ġh all
P o
us an
Ġj our
Ġstr ugg
u int
à· ľ
æĽ² çº¿
Ġchem ical
ĠCom mun
Ø³Øª Ø§ÙĨ
áŀ¶áŀĢ áŁĭ
R L
æ´» æĢ§
ĠÑĤ Ðµ
çī µ
ĠvÃµ i
Ġfin ans
Ġm Å©
are a
Ġe ight
Ġschool s
ë ¬
å¯¹ æ¯Ķ
ĠJ o
æį ķ
æľ¬ äºº
ass ert
Ġpower ful
Ġb ath
æĪĳ ä¸į
ĠPro f
æ¦ ľ
D a
Ġ×ľ ×Ĳ
ell ed
Ġmarg in
por ary
Ġn ang
ÑģÑĤ Ð°Ð½
éĢī é¡¹
Î¹ ÏĤ
à¤ Ī
çĬ ¹
ĠZ e
j av
Ġm Ã¤Ã¤r
Ġcover ed
Ġform ation
Į Ģ
/ L
åı¯ä»¥ éĢļè¿ĩ
éĤ£ éĩĮ
Ġco ff
àµ ĩ
Ġrem oved
ĠC H
] (
èª į
ĠH ol
ĠáĢ Ĩ
æĺ ¨
Ö µ
âĢ¯ áł¢
Ġ× ĸ
ĠW ork
ook s
Ġbud get
Ġprof ile
Ġole h
ĠĊ ĠĠĠĠĠĠĠ
Ó© ÑĢ
ĠL aw
tic ip
================ ================
åł ±
st art
ç»Ļ ä½ł
à® ¯
ĠM ul
à®¿à®² à¯į
Ġw id
Ġan imal
ning er
Ġm ang
ÐµÐ½ Ð°
æ¸ħ æ´ģ
ĠEr r
E U
Ġfl u
Ġrad io
åģļ çļĦ
O k
Ġà¨ ¬
å¿ Į
or on
ov en
áº Ń
pl ing
az on
å¸¦ çĿĢ
Ġfam ili
Ġw ave
. de
t able
à½Ĥ à½²
_ x
æĬĬ æı¡
erial ize
à²° à³ģ
ĠR uss
Ùģ Ø±
og o
ig ation
ĠE nd
à¦ ĩ
à¦¾à¦ ²
Ġk el
áĥĶáĥ ľ
ell ig
Ġw is
icha el
Ġfin ished
à³Ĩ à²¯
íķ ´
Ġb isa
àª ¦
ĠT echn
com ing
Ó© Ð½
çĸ¼ çĹĽ
Ð¼ Ð°
Ñĸ Ð¹
Ġk ini
G ener
æĽ´ å¥½çļĦ
èį ¡
ti a
Ã« m
ann els
ĠJ anuary
b ase
Ġp es
ÑĢ Ð°Ð´
åĽŀ åĪ°
v end
ur an
ç»ĥ ä¹ł
ĠD NA
æĲ ¬
Ġsympt oms
Ġinvest ment
éĹ ¹
Ġmil it
ĠCalif ornia
h ar
Ġapp reci
æĬ ¼
è¿ĩ çļĦ
Ġvol t
à»Ģàº Ľ
Ù ¹
åīį çļĦ
fr astr
å±¥ è¡Į
- N
ä¸Ń æľī
Ġ Þ
ç© ·
ov o
M i
if i
Ġchall enge
Ġf Ã¶
çµ ±
Ġamaz ing
Ġlo op
Ŀ ¼
Ġt ong
å°± ä¸į
çĶŁ åŃĺ
L o
j t
ĠS ol
Ġcar bon
Ġr ace
å¯ º
C an
ess or
R em
Ġsm art
ĠĠĠĠĠĠĠĠĠĠĠĠĠĠĠĠ ĠĠĠĠĠĠĠĠĠĠĠĠĠĠĠĠĠĠĠĠĠĠĠ
Ġc tx
Ġr ub
å®¢ è§Ĥ
Ġeas ier
çĶ¨ æĿ¥
ç³» æķ°
àª° à«įàª
Ġtak o
ĠT ype
am os
ä¸Ģ åĲį
Ġv ak
åİŁ æĿ¥
æĲŃ éħį
Ġpr ÃŃ
Ġgu ide
Ġs ie
èı ²
à´ ®
ÙĬ Ø¯
å¤© çĦ¶
Ġdeli very
he id
Ġd ress
n ak
Ġ× Ĵ
Ġchar acters
èĲ Ħ
um ba
åģļ æ³ķ
ĠM ad
Ġide al
ant ly
å§ ĳ
àµģà´ Ĥ
è¿ĩ æĿ¥
çļĦ å¤ĸ
Ãµ es
W idth
å¸¸ å¸¸
à®¿à® °
èĸ ª
Ġcalcul ated
ud u
er ed
åĪĨ ç¦»
Ġelect ro
é» İ
Ġt ight
è¾ĥ ä¸º
IZ E
ç®Ģ ä»ĭ
oc ument
Ġhus band
Ä± m
æĪĺ æĸĹ
Ġst ro
éĨ ī
ĠÐ² ÑĸÐ´
Ġstop ped
åĲ Ĭ
Ġp Äģr
Ð°ÑĤ Ð¾
áł ĥ
Ġra ised
è¼ ĥ
Ġlearn ed
æı Ń
Ġinter action
æ·± åº¦
Ġt ap
p ers
Ġalgorith m
ob o
struct or
Ñ ĺ
al is
s up
ĠE S
ç¥ ¥
çŀ ¬
ãģĹ ãģŁ
r ant
ĠM any
äºº ä½ĵ
( *
æħ İ
. io
åľ¨ è¿Ļä¸ª
Ġwalk ed
Ġsett ings
Pos ition
àŃį à¬°
è© ²
ĠD ev
Ò ©
ĠIntern et
Ġreduc tion
èļ Ģ
Ġà´ ª
Ġest as
Ġpl ants
il os
Ġnov el
Äĩ a
- e
Ø± Ø¨
Ġk em
Ġf ell
ĠJ ames
Ġan ak
pr ime
åĩ ¤
op ic
Ġà¨ ĩ
ent a
pos es
æĮ ¡
Ġp ed
åĤ ³
à¸ ¶
à¤¾à¤ ª
Ġpro jek
Ġk v
è« ĭ
od ay
Ġm ask
Ġà¸ ķ
I ST
ud io
èĳ¡ èĲĦ
Ġcamp aign
Å¾ en
Ġsh oot
Ġàªħ àª¨à«ĩ
Ġm ater
à¨ ª
erv ation
à¸²à¸ ¡
Ġcomple ted
Ġd anger
æĸĩ çĮ®
ä½ĵ åĪ¶
Ġàª ²
è®© ä½ł
ĠM art
Ġre lax
N O
åĨ »
ĠÑī Ð¾
Ġmeas ures
em ail
áł¤áł Ń
re z
à½¼ à½Ĥà½¦
äºĮ æĺ¯
åħ¬ è·¯
M ax
çľ ī
Ġf ost
Ġáł ®
Ġdi ed
ĠCol lege
Ġw rote
Ġ ÓĻ
áĢĬ áĢ·
à¦¿à¦ ķ
Ġs ia
ist en
w ell
Ġm Ã¥
od ed
Ġà»ģàº ¥àº°
æľĪ ä»½
à¯ Ĭ
Ġme ant
Ġpl a
ri ve
å¤§ äºİ
å©ļ å§»
Ġm uri
++ ;
Ġ Ð°Ð½
¹ æŀľ
Ġdec l
(" /
Ġà¤ ¥
Ġappe ared
ä¸ī å¹´
åĽĽ ä¸ª
åĲĪ æ³ķ
Ġmo tiv
ol es
Ġopen ing
Ġdet ail
Ġna z
Ġtr aff
Ġgu y
Ġcon struc
Ġcall s
ç»ĵ è®º
Ú¯ Ø±
A K
th a
Ġsepar ate
Ġcoll abor
ãģĻ ãĤĭ
Ġex ternal
Ġgener ation
Ġq il
Ġexperi enced
Ġhy per
Ch ar
in en
ç»ı åħ¸
Ġf if
Ġo o
! --
Ġe b
") );
è¯´ è¯Ŀ
re es
h ang
ç¾ ½
å¤§ æ¦Ĥ
é© »
Ġz d
Ġtrans ition
çµ Ħ
t ag
Ġrelationship s
ç¡ «
Ġ_{ \
eth yl
ateg or
T e
Ġal c
à¥ ĥ
O H
ç»´ ä¿®
áŀ¶áŀĶ áŁĭ
è¶³ å¤Ł
à² ¹
ÓĻ Ð½Ðµ
à¨ Ĺ
" I
à¦ Ĥ
ong a
à»ĥ àº«
Ġn ok
åĬŀåħ¬ å®¤
à»ĥ àºĻàº
æľ µ
Ġp em
ĠÙĦ Ûķ
æĸ¹ çļĦ
á» ĥ
Ġend l
Ġpass word
Ö ĩ
Ġm and
åħ³ èĬĤ
ĠP lease
à° ķ
Ġwh atever
áĢ» áĢķ
ĠD ist
Ġi yo
ç¬¬ äºĶ
åŃ¦ èĢħ
å¤ļ å¹´
çī §
He ight
Ġex ception
ì ĥ
tif ied
à¤ķ à¥ĩ
Äĭ i
W ell
Ġinstr ument
åħ± äº«
ul ui
àº Ī
èĢģ å¹´
ĠM el
æĶ» åĩ»
Ġded ic
Ġin a
as m
ä½ ©
Ġle aving
val ues
åĩ Į
åĩº åıĳ
Ð³ Ðµ
pe ed
Ġu ye
at ti
ÙĬ Ø§
g reg
æĽ ¹
ç»´ æĮģ
á» ©
áĭ Ĭ
é¦ Ī
å®¡ è®¡
Ġj uga
ĠSt reet
ĠP al
Ġf illed
æįŁ ä¼¤
Ġh ari
E P
Ġse a
æ¸ħ æĻ°
è¸ ª
×Ļ× ©
èĩ³ äºİ
h in
åľŁ å£¤
ur b
Ô ±
ä» °
çĮ Ľ
em y
åĩ ¯
ĠÃ »
Com mand
l ah
B ody
g t
é¢Ħ ç®Ĺ
Ġn Ã¤
ad ow
ĠJ os
ic ks
aw u
ĠPro gram
ë ³
Ġjo int
ath i
Ġbusiness es
åĬŁ çİĩ
çĲ ´
åıĺ éĩı
æµĻ æ±Ł
Ġà¦ ľ
Ġsuggest ed
áŀ· áŀĵ
ER R
ĠN ovember
æº ª
à¤¨ à¥Ģ
Æ°á» £
Ġk ing
Ġl ag
Ð¾Ð² Ð°Ð½
im er
F irst
ĠOc tober
AR T
Ġbel ong
Ġenvironment al
ĠØ¯ ÙĪ
Ġbro ther
ÛĪ Ø±
L i
ĠOn ce
æĪ Ĵ
Ġgr adu
áĪ ®
åĬ© äºİ
æĸ¹ ç¨ĭ
Ġresult ing
å¿ħ çĦ¶
æ¤ ħ
ĠÔ ±
Õ¡Õ °
èµĶ åģ¿
ĠÙħ Ø¹
æ¶Ī éĺ²
àº± àºĶàº
un ga
èĬĤ çĤ¹
Ġsam o
å¤ļ æ¬¡
åĬł å¤§
Ġmen u
.cl one
l ay
ex port
ä¸Ń åĮ»
ĠØ¦ ÛĲ
Ġpl ot
resh old
_ ST
Ġpl ate
â Ī
à¤ ģ
áī Ģ
Ġqu i
æķĪ åºĶ
Ø§ Ù¾
æĪĸ æĺ¯
c urrent
n Ãº
Ġex ists
àºģ àº²àºĻàº
Ġ$ ("
Ġb ib
ĠAr ray
Ġal bum
Ñĥ Ñİ
å¸Ĥåľº çļĦ
åıĳ æĺİ
Ġà¸Ĺ à¸µ
Ġmo tion
S tyle
Ġà¤ ĵ
à´ Ł
ĠB ank
ĠS pr
Ġn ou
äºĴ åĬ¨
am en
åı¬ å¼Ģ
ç¦» åŃĲ
}) \
å¼ķèµ· çļĦ
ä¸¾ åĬŀ
è¯ģ ä¹¦
åĴĮ è°Ĳ
àº ³
èĭ± éĽĦ
ĠIn s
èĢģ äºº
çĽ´ åĪ°
å¥¹ ä»¬
t itle
åı Ķ
Ġin it
èĭ ¹æŀľ
Ġp ages
éĩĳ é¢Ŀ
Ġr um
frame work
Ġa head
Ġswe et
Ġ×Ķ ×Ĳ
Ġl Ã¤
ĠU N
Ġn ÉĽ
orm s
. In
ĠB ay
æľī å¾Īå¤ļ
à½º à½ĵ
and le
oc ity
áĢ¯ áĢŃ
àº ½
Ġpro por
id ad
Ġapp end
éĤ Ĭ
ķ áĢ«
Äį no
ak en
ĠF re
Ġel s
å¥³ åŃ©
Ġhelp ed
Ġqu iet
å¤ļ äºĨ
y u
ik h
ar c
Ġb rief
å´ ĩ
Ġsupport ed
æ£ ī
av ed
ĠØ¦ Ûĩ
ĠgÄ§ al
v od
Ã¡ z
å¸ĥ å±Ģ
ä½İ äºİ
ir u
Ġdoc tor
Ġinc ome
æĢ§ æł¼
åģļ äºĨ
Ġcirc um
Ġ" /
.w rite
é¡ ŀ
Ġocc up
ĠÎ ¸
Ñĥ Ð¶
_ IN
áĥĲáĥ łáĥ
Ġ× ĵ
Ġar en
Ġdevelop ing
áº §
åĵģ ç§į
à®¾à® °
Ġsc an
ĠÐ¼ Ð¾Ð¶
ä½¿çĶ¨ çļĦ
ç¬¬ åįģ
Ġsee ing
æ¨ Ĥ
//////// ////////
W ork
_st ate
Ġtrans l
Ðº ÑĤ
åĲĮ å¿Ĺ
æĶ¾ å¼ĥ
Ġm po
et ing
Ġk tÃ³
èª ¿
ä¸ Ļ
æ¯ķ ç«Ł
ĠS il
ĠAr t
} ]
Ġman ner
Ġc atal
Ġeffort s
Ġline ar
è§Ĥ ä¼Ĺ
« àº¼
è½¬ åıĺ
åħ Ĵ
Ġstr uctures
ĠV ol
Î¿ Î»
Ø¯ Ûķ
Ġv ide
Ġ É£
im en
Ġwh om
áł¦áł ·
éĽ ķ
Ġman ager
ĠÛĭ Ûķ
æĪĲ çļĦ
= True
Ġexperi ences
ri age
Ġlead s
éĢĶ å¾Ħ
ap pro
Ġc red
Ġ ÛĶ
ä¼ĺ æĥł
T R
b ih
ĠW indows
Ġd av
à¬ ķ
Ã¡ d
å°± åľ¨
åºĶ å¯¹
è£ħ ä¿®
æĸ ¤
çľĭ åĩº
Ġr ain
æ£ Ĵ
ä¹Ł èĥ½
æĮī éĴ®
å§ ľ
ĠV iew
om i
éĺ³ åħī
Ġun its
Ġstud ied
ĠM ax
åı ī
por ate
it en
nd e
a un
Ã´ ng
pos s
Ġem er
Ġc z
op tions
_ of
Ġdiscuss ion
å¯Ĩ åº¦
áŀ¶áŀ Ħ
Ġfl at
Ġform ed
Ġr ank
ist on
Ġst an
N d
edd ing
Ġal ter
t te
ĠM iss
ÏĦ Î±
èī² å½©
áĢĦáĢ· áĢºáĢ
oc r
f mt
ĠS i
Ġeff iciency
Ġpers pec
éĤ£ ç§į
á Ĵ
at y
Ġsi ya
Ġmet ro
id u
çĨ ±
áĢģ áĢ¼
q q
Ġnot ed
U G
ĠR ich
Ġg ather
tic ally
åĲĮåŃ¦ ä»¬
à½ĳ à½Ĥ
Ò³ ÓĻ
ĠF rench
w ers
Ġ( $
à½¼ à½¢
D i
Ġus a
åįĬ å¹´
" ãĢģ"
Ġfa ith
ou l
Ġd ream
ãĥ »
ä½ĵ ä¼ļ
f loat
Ġcon fl
Ġexerc ise
å¾Ī æľī
Ġmaint ain
çĶ± æŃ¤
å¾· åĽ½
Ġexpl ain
Ġ ice
éĽ ¾
es is
éĢ £
Ġor a
æī¹ åĩĨ
æĺ¯ æĪĳ
áĢŀ áĢ¬
ĠA nt
al ia
ĠT an
ak at
R un
ĠA lex
V ersion
åıĳ èĤ²
ĠÐ Ľ
Ġmiss ing
Ġng o
D is
Ġt x
Ent ity
- v
ain a
f Ã¶r
áŀ· áŀı
åĪ© çİĩ
à¤¹ à¤°
è¡Ģ åİĭ
t Å³
Ġteach ing
åİĭ ç¼©
à¤¤ à¥ĩ
Õ¥Õ ²
æĽ´ ä¸º
éĴ Ļ
ip ped
w hat
å½ĵ äºĭ
å± Ī
Wh ile
al ik
- on
Ġe f
ac ije
Äį in
ç¢ ±
èĢ Ģ
u Å¾
Ġener g
< int
Ġc il
Ġpar se
). $
Ġáŀ Ł
Ġlarg est
æŃ¤ æ¬¡
Ġaltern ative
âĢ¯áł ª
Ġtr uly
çī© åĵģ
Ú µ
Ġwork ers
_in fo
} |
ĠT H
Ġc row
ĠÑ ŀ
ä¸ĭ åįĪ
ig er
åŁº å±Ĥ
- I
Ġhot el
Ġm ine
ĠP C
âĢ¯áł ³
Ġet h
áī ¸
æĿ¥ åĪ°
â Ĩ
Ġpr ices
å½ ¹
áĢ±áĢ¬ áĢĢáĢºáĢ
- th
éĺ Ķ
if ier
ot u
( A
Ġdiscuss ed
Ġcomb ined
Ġknow s
å±ķ çİ°
à¶ «
áģ¾ áĢĢ
O G
Ġ" ,
å¾Ī å¤§çļĦ
Ġul tim
b ug
ri an
ìĭ ľ
Ġk op
çļĦ åıĺåĮĸ
ĠI d
éĶ» çĤ¼
Ġextrem ely
rel ated
ĠP en
Ġl ie
æİ ĺ
Ġkin ah
ard a
ä¸ĭ äºĨ
ĠÎº Î±
åħ ½
è¿Ľ åı£
åģľ æŃ¢
äºº å£«
ä½ľ åĩº
on al
ĠÙħ ÙĪ
P e
áŀ¹ áŀĦ
Ġf ish
áĮ ĭ
Ġadv ice
Ġt v
Ġk ah
éģ Ķ
Ġhe m
Ã Ł
v ille
wide tilde
åı ł
xt ure
è¯´ éģĵ
ob i
çİ° éĩĳ
Ġs ale
.S et
Ñĥ Ñĥ
w s
çļĦ èĥ½åĬĽ
ĠAll ah
Ġj ump
.p ath
áĢŃáĢ¯ áĢĦáĢ¹
èģĮ è´£
in fo
Ġsay a
å° İ
ol ved
Ġp ackage
Ð°Ò ³
Ġco ordin
æİ¥ è¿ĳ
ĠÙ¾ Ùĩ
Ġl y
ĠGener al
Ġm um
Ġ ~
à¨ ľ
w y
èĤ ª
ä¸ĵ åĪ©
Ġclass Name
éĵ Ŀ
_d ir
ĠÐ¿ Ð¾Ð²
å®ŀ çĶ¨
Ðº Ð¾
åİ» å¹´
æł ª
m al
ìķ Ħ
æİ¨ åĩº
Ġg Ã¶r
c ore
P M
el ess
æĹ¥ åŃĲ
ë Ŀ¼
Ġmod ule
Ġg un
ãĥ «
. read
çĩ ķ
w ed
el es
é«ĺ ä¸Ń
- old
Ä« bu
ic ted
Ġand a
àº§ àº²àº¡
ä½ł åı¯ä»¥
Ġpattern s
×ķ× ŀ
Ġper t
×Ļ× Ł
ç´§ å¼ł
æıĲåĩº äºĨ
res ents
in er
k ih
Ġ Æ
ĠY ehowa
åħ¬ å®ī
d is
åķ ¡
t as
æ° ¢
èĦĤ èĤª
çĲĨ çĶ±
æıĲä¾Ľ çļĦ
f Ã¸
Ġde pos
Ġhe ll
å®ŀ åľ¨
ĠÐ± Ð°ÑĢ
áĢĻ áĢ¹
åĽ¾ çº¸
plic it
ook ing
Ac tivity
èĶ ¬
Ġor ient
è© ¦
bu ffer
Ġval st
Ġl ÉĽ
Ġwe ather
áĥ ®
Ġf ib
Ġad a
AN D
æįŁ å®³
Ä ·
Ġcor ner
æ¸ħ æ´Ĺ
å°Ĩ ä¼ļ
N S
æ³ Ħ
æľĢ ä½İ
im ene
æĹ º
Ġph oto
è¦ģ ç´ł
' eb
D ie
Ġd ivid
ob ile
ĠmÃ¡ a
Ġcoff ee
Ġdef initely
L ink
æĥ³ æ³ķ
Û °
æ¡ Ĥ
pl ies
m ak
ot ing
ç»´ çĶŁç´ł
Ġfin ish
Ġliter ature
ĠÐ¿ÑĢ Ð°Ð²
. on
ĠM er
Ġtiss ue
æĪĲ å°±
Ġr in
à²²à³įà²² à²¿
åħ¨ ä½ĵ
Ġexperiment al
áĢļ áĢº
çĥŃ æĥħ
ÙĦ Ùĩ
Ġk Å©
áŀĸ áŀ¸
ÄĹ l
é Ħ
ĠN ame
zjon ijiet
è¯Ħ è®º
ĠO h
ĠDec ember
å¤į åĲĪ
è´Łè´£ äºº
ç§¯ ç´¯
Ġn s
å¥ ĳ
éĥ¨ çļĦ
å°Ŀ è¯ķ
Ġsmo oth
å®ŀ ä¹ł
ur er
Ġpar te
Ġp ure
åŃ¦ çļĦ
èĲ ¬
Ġ' '
o or
ĠÐ¾ Ð¿
åı° æ¹¾
Ġin ner
Ð³ Ð¾
om y
æľŁ å¾ħ
èĢĮ ä¸įæĺ¯
áĢ ³
ĠáĢ ĸ
D F
Ġw et
Ġexper iments
çĽ¸ åºĶ
×Ļ ×ķ
en k
( h
Ġinter val
l ov
Ġs Ã¤
æľįåĬ¡ åĻ¨
åĵª ä¸ª
Ġtechni que
æĭħ å¿ĥ
Ġte ams
æ·· åĩĿ
Ġd apit
ĠA k
æľī åĵªäºĽ
cre te
Ġab antu
ashing ton
åħ³ å¿ĥ
Ġrecord s
_ ch
çĸ ²
è¿Ļ æĹ¶
çĵ ·
ac le
d k
åĩº çĶŁ
St ack
éĩį å¤į
Op en
M enu
St ore
Ð ĵ
on so
Ġun e
Ġl ung
Ġgir ls
åĬł éĢŁ
Ġgr an
ĠComp any
àª ľ
M M
ens es
ing ly
åŃ©åŃĲ çļĦ
as yon
Ġreal ity
Ġk ada
qu are
ĠE ast
Ġda ughter
è¿Ļ å°±æĺ¯
am ine
áĢĽ áĢ¬
F ilter
sh ow
ĠO pen
ĠT er
Ð ķ
áŁĴáŀĵ áŀ»áŀĦ
pon ents
çŃī æĸ¹éĿ¢
ne tic
à¤¤ à¥įà¤°
Ġagre ement
å¾Ĺ åĪ°äºĨ
Ùħ ÙĨ
Acc ount
_c ount
ĠÕ ¨
èĬĤ çĽ®
×¨ ×Ĳ
h ouse
µáł¢áł ¯
à¬¾ à¬°
ÑĤ Ð¸
Ġfem ale
Ġtel ah
Ġlaw s
è£ħ é¥°
ĠØ¨ ÙĪ
em pl
Ġfl ag
Ġintro duced
Ġtri al
pro cess
ë ª
Ġmo lec
Ġcompar ison
åħ± äº§
æ¨ Ļ
áĢĻ áĢºáĢ¸
ĠAustral ia
l ink
ĠDe velop
ti le
ag way
ĠØ¦ ÛĨ
ic he
çĥĪ çļĦ
AN G
èĬ ³
ç§į æ¤į
int a
ĠChristi an
ĠT wo
Ġbr ight
Ġst reet
è®¾ ç«ĭ
Ġhad n
Ġà¸ Ħà¸
r ik
ĠT ur
it ution
Ġp og
Ġhead er
ĠáĬ ¢
Ġàº ª
Ġ$ ^{
Ġlocal Var
æ±Ł èĭı
ĠCan ada
ÙĦÙī Ùĥ
eni or
ĠG reen
Ġte lev
ç«Ļ åľ¨
p age
Ġd ating
Î¯ Î½
ob s
æĤ ¦
èĢ ķ
if er
Ġb id
om it
g ot
Ġk en
H ash
äºº éĥ½
Ġman age
à´ ¨
Ùī ÙĨ
Ġà® İ
Ex p
Ġmo Å¾
åħ¬ ä¼Ĺ
Ġad vert
Ïĥ ÎµÎ¹
Ġc Ã³
ĠÎ »
ç±» çļĦ
â µ
ti b
å·¥ä½ľ ä¸Ń
æĺ¯ åĽłä¸º
Ġauth ors
ar in
ser ver
Ġstrateg ies
Ġpi eces
×Ļ× Ĳ
çŃī å¾ħ
Ġhold ing
éŃ ı
Ò¯ Ò¯
à¯ģà® ¤
al am
à¥ĭ à¤Ĺ
Pro cess
Ġprac tices
ĠBrit ish
Ġpre m
ļ áĥĺ
ãĥ Ī
Ġres istance
Ġc ab
( name
å¤§ éĩıçļĦ
Ġshow ing
ä¸ ¢
Ġd ah
Ġy umi
ÃŃ v
ĠÐ± Ð¸Ð»
æĭ Į
éĢĤ çĶ¨äºİ
áī ħ
y er
ç»ĵ å©ļ
atur day
èĭ± æĸĩ
å¯¹ å¤ĸ
Ġpay ment
ĠÐ ¤
ar u
p un
end l
oy al
ĠCon n
Ġu v
Ġh indi
oper ation
éĥ Ń
ĠE le
Ġ Ð°ÑĤ
ĠÒ ļ
R S
à±įà° °
ti ec
Ġdel ay
Ġfind ings
åħ± åĴĮ
åİŁ æĸĻ
éªĮ è¯ģ
Ġne go
áĢĬ áĢºáĢ¸
ines e
ĠC all
Ġestabl ish
Ġc ash
ß Ĭ
def ined
Ġch air
ia u
×Ļ× ĵ
áĥĿáĥ Ľ
ĠF ound
è½ ī
áĢ¼ áĢħáĢºáĢ
Ġz g
à´¤ àµįà´¤
The se
Ġwe ar
/ v
çĥ Ĥ
çİ Ħ
im et
) /
ames pace
ici ans
åĽŀ å®¶
èĩ Ĥ
éĶ ¦
à¥ ¦
Ð» ÐµÐ´
ĠØ³ ÛĴ
Ġsuff icient
éĢĤ çĶ¨
ĠØ§ÙĦ Ø¹
Ġsk y
Ġm ent
Ð² Ð°Ð½
é¸ £
ĠÐ¿ Ð¾Ñģ
- of
å¤§ å¤§
åĽĽ å·Ŀ
Ġapproxim ately
ĠÐ £
à¨¿ à©±à¨
áĢ±áĢ¬ áĢĦáĢºáĢ
st av
Ġd ella
Ġà° ª
der ive
éĢļ éģĵ
ik at
Ġsub sequ
Ġc ategory
ä¹Ł åı¯
com es
Ġk ple
Ġinterp ret
Ġphot os
ç¯ Ģ
Ġsur gery
ä¸Ģ ä½ĵ
m ain
æİ¥ åı£
__ (
-------------------------------- --------------------------------
T hen
Ġnd á»ĭ
im ens
Ġsc re
f ast
iv i
ä»ĸ åľ¨
Ġf ly
re p
Ġfoc used
r v
äº ı
Ġcomp re
n je
Ġf ant
åħ¬ å¸ĥ
å°± æľī
v il
çľĭ è§ģ
. next
n ap
åľ° çĤ¹
ut u
ä¸» ç®¡
ÑģÑĤ Ð°Ð²
Ġmin ute
éļ Ļ
Ġa ware
ĠD em
áĭ ²
ch er
W indow
åī µ
Ġexp ressed
ĠEng land
Ġ ÖĦ
åĻ ª
Ob j
y y
Ġconfig uration
Pl ayer
áłłáł °
è¯» ä¹¦
å®¤ åĨħ
æµ ´
çĶŁæ´» çļĦ
éĿ¢ åīį
. -
Ġs ang
os c
or ation
è¡Ģ æ¶²
go ing
ĠĠĠĠĠĠĠĠĠĠĠĠĠĠĠĠ Ġ
ateg ories
Õ ©
Ñĥ Ð·
ãģĵ ãģ¨
en ye
ĠÏĦ Î±
Ġem ph
Ð¸Ñ ĺÐµ
ì Īĺ
è¯ģ æį®
ĠÑģ Ðº
ann ot
Ġd ru
åĿĩ åĮĢ
Ġcy cle
Ġconsist ent
×ķ× Ŀ
å¹ ½
è¿Ķ åĽŀ
ĠØ¹ ÙĦÙī
æīĢ éľĢ
n ode
æıĲ äº¤
ĠÙĤ ÙīÙĦÙī
Å Ń
Ġ> >
Ġà¸ «
Ġk andi
à®¾à® ķ
ç£ ·
Ġimpro ved
k al
åįģ å¹´
ä¸ĵä¸ļ çļĦ
" (
Ø¯Ùī ÙĨ
æĥ ĳ
Ðµ Ð¸
em ory
ebru ary
. query
Ġow ner
ĠK ey
Ġap point
ĠJ ew
Ġreg ions
éĺ¶ çº§
Ġconduc ted
Ġdoub t
å¿Ĺ æĦ¿
Ġh aven
q an
Ġàª¹ àª¤
m ek
ĠL ong
æ¶Ī åĮĸ
æ··åĩĿ åľŁ
åľ° çĲĨ
áł ²
[ j
ĠÎ ²
æ¯ ģ
Ġy ar
ĠS ar
Ûķ ÛĮ
ĠáĮ į
à»Ī àºĩàº
æıĲ éĨĴ
åĲĮ æ¯Ķ
è®¤ è¯ģ
uk sen
Ġk ak
if est
à¸±à¸ ļ
Ġm og
Ġaff ected
èĢĥ å¯Ł
ĠD a
áŁ Ĳ
Ġstand ards
ĠI T
Î¿ Î¼
å¦ Ĩ
Ġchalleng es
Ġs Ã¶
ä¼° è®¡
S M
Ġs plit
Conn ection
ĠCour t
B r
è§Ħå®ļ çļĦ
d t
Ġgener ated
ĠáĪ Ī
ĠS ervices
æĽ´å¥½ åľ°
ĠA v
[ :
\ "
åħ³ éĹŃ
Ġvis ion
ĠI V
æİĴ åĲį
ap ed
Ġac adem
_ H
Ġsecond s
Ġtre es
st o
( id
Ġàª ¶
Ġstand ing
Ġtyp ically
Ñĭ ÑĤ
ĠG ood
èµ ¤
Ã¡ ci
áĢ±áĢ¬ áĢĦáĢºáĢ¸
ĠH T
Ġdri ving
ç¿ ¼
áŀ¶áŁĨ áŀĦ
æĹ¥ æľŁ
Ġch i
Ġb orn
Ġadd ing
.get Element
Ac cess
å¤ļ æł·
Ġp oll
èį Ĵ
Ò »
Ġs ports
Ġserv ed
Ġkeep ing
Ġáŀĵ áŀ·áŀĦ
n ic
çļĦåŁºç¡Ģ ä¸Ĭ
éĥ İ
Ġmin im
ire ction
Ġth r
ple te
åı¸ æ³ķ
áŁ Ģ
èī °
th i
st en
ud d
ä¸¾ è¡Į
àª ¶
ç¬¬ ä¸Ģä¸ª
Ġtraff ic
ÎŃ Î½
å·ŀ å¸Ĥ
ĠP lan
Ġo Ê»
un ately
ÑĢ Ð°ÑĤ
éĿ¢ ä¸Ĭ
Ġthought s
äºĭ åĬ¡
Ġex change
.D rawing
Ġn un
Ø± Ùĩ
awa it
Ġext ends
ron ic
el ing
F in
è¿ĺ ä¼ļ
ap pe
// !
à¹Ī à¸²
b ra
æĮĩ å®ļ
al f
æĭĽ èģĺ
ro ph
ĠP ublic
à¹ Į
Ġma o
ĠB usiness
print f
å°Ĭ éĩį
B o
Ġim a
Ġat m
ist an
æĻ Ĵ
æŃ£ç¡® çļĦ
çĪ ½
Ġso il
Ġà² µ
å¤§ åŃ¦çĶŁ
åĮº çļĦ
ĠW ill
Ġbre ast
Ġgu aran
sh al
æĪĳ è¦ģ
Ġà´ ħ
u er
çĥ ¤
ãĤ ĵ
åĴĸ åķ¡
Ġoffer ing
LE D
Ġs ector
éķ¿ åº¦
ÑĢÐµ Ð¼
è° ¨
Ġman aged
ĠA PI
OR T
ĠW ell
Ġca uses
ä¸Ģ ä»½
F A
nd Å©
Ö ¾
Ã¡ ra
æĥ³ è±¡
æķĻ æĿĲ
F actory
Ġc Äĥ
Ġneigh bor
ĠAssoci ation
omet ry
al ysis
Ġst ack
its a
enc ing
T ask
à¦ ¶
av or
Ð¾ÑĢ Ð¼
y al
. put
Ñĥ Ñħ
à½² à½Ħ
Le vel
Ġm ission
Ġkang go
ĠÕ« ÖĢ
Ġg an
éĻ µ
ok s
Ġt ij
ĠF alse
ĠInst itute
Ġp ip
Ġv ary
ĠØ¨ Ø§Ø´
å¹¶ åľ¨
ut y
ä¸į å¦Ĥ
à¸ Ħ
ac ional
p ol
ß ¬
Ġkoj a
ten ance
Ġfor t
åĳ µ
çĶµ æľº
å°Ĩ åħ¶
l ash
Ġp urs
end ar
áĥ Ĺ
ë Ł
ro g
Ġle aves
Ġmechan ism
æ´»åĬ¨ çļĦ
è² ·
ä¼ł éĢĴ
point s
uct ure
è¬ Ľ
ay i
Ġche st
Ġpres ident
æĸ° åŀĭ
Ġà¤ ĺ
çľĭ æĿ¥
ni o
Ġc ivil
ounc il
æĬĢæľ¯ çļĦ
amp ion
Ġà¸ £
é¤ Ĭ
Ġv as
( g
Ġsh ift
áĢĲ áĢ¬
å§Ķ æīĺ
æİ¢ è®¨
çĽĳ æİ§
Ó© Ð»
ä¼ļ åĳĺ
n ov
æķ´ åĲĪ
Ä« g
à¸ ³
é«ĺ äºİ
_ W
Ġáĥ ¨
è¡¨ æ¼Ķ
Ġs ir
æĺ Ĩ
å¸¦ æĿ¥çļĦ
à¦¾à¦ ķ
Ġà² ¤
áłłáł ¬áł¤
Ġsex ual
ach ing
ä¸» æĮģ
Ġinj ury
ĠGover n
ê ¯
(' /
Äĵ r
áŀļáŀ Ķ
æĴ ¤
Ġimplement ation
äº§ æĿĥ
ì Ļ
Ġexpl ained
åŁ ĥ
åī Ĭ
à¤¸ à¥ĩ
re k
åĴ ±
ie x
zen ia
é©¬ åħĭ
ãģ£ ãģŁ
ç´ Ħ
uk i
à»į à»Ī
Ġk iss
', '
Ġrem aining
ĠÐ¶ ÓĻÐ½Ðµ
Ġà¨¦ à©Ģ
Ä Ŀ
Ġca ught
ä¸Ģ è¾¹
Î· Î½
æ¬ ł
Ġr id
Ġv agy
Ġsec ure
å¥³ åĦ¿
Ġreve aled
---| ---|
Ġw i
à¸ Ī
Ð´ Ð·
Ġus ize
Ġexam ples
D L
Ð¸Ð½ Ð¸
Ġv ent
ç®¡ éģĵ
ĠM il
S im
er ies
ed a
Com p
.getElement ById
play er
is her
ä¿¡ å¿ĥ
ung an
l ja
àº° à»Ģàº
ed y
åĽŀ æĿ¥
iv en
ing le
Ġjour ney
L ast
áŁĦ áŀĻ
çĹ ķ
Ġwatch ing
Ġm end
Ġspec tr
àŃģ à¬
st ances
Ġn odes
Ġeven ing
ä»Ĭ æĹ¥
ä½ľ æĸĩ
Ġrep resents
Ġann ual
ç¾¤ ä½ĵ
èµ· äºĨ
Ġl ips
it as
f aces
ir med
Ġáĥĵ áĥĲ
Ġaff ord
m odel
. I
Ġaud ience
ant ed
çº¢ èī²
ing ers
á» ±
ograph ic
Ġb atter
åĽ´ ç»ķ
åĪĨ æ³Į
æ¼ Ĩ
K om
çĤ ®
ĠW he
æĪĸ è®¸
ĠG old
k as
Ġview s
å¥½ å¥½
mp ty
( value
ci pl
æİ¥ æĶ¶
Ġsp ring
Ġap art
çº¿ çļĦ
åĪ° è¾¾
Ġw á»įn
k m
Ġcult ural
åİ ī
àª ¯
Ġpe ace
ĠÕ Ń
tic a
åĩºçİ° äºĨ
ĠG i
Ġno ise
åĲĪ æĪĲ
k tr
Ġequ ation
Ġele v
áł Ń
ÙĤ Ø§
Ġorganiz ations
ĠH ome
åĦ ª
Ġchang ing
ÏĦ Î±Î¹
ÙĪ Ø§ÙĨ
ĠÙĦ ÙĦ
row ser
Ġanal ys
áŁĴáŀĵ áŀĢ
_ .
S ign
æ¢¦ æĥ³
V ec
Ġmil es
à®¿à® ±
tic ed
à® ªà¯įà®ª
ç¡ ķ
Ġres p
w ak
Ġr ise
mi ÅŁ
Ġaspect s
éĩį åºĨ
Ġmajor ity
ĠB as
ĠÑĤ ÑĢ
ig in
Ġmem br
çļĦ ä¿¡æģ¯
Ġz ah
v id
ut an
stand ing
áŀ½ áŀĻ
à²¨ à³ģ
¥ à¸°
áĢ¾ áĢ¬
- i
Ġem erg
ĠThe ir
çĴ °
Ġd ra
è¾ĥ é«ĺ
Ġv et
ç²¾ å½©
åĢº åĬ¡
å¾Ī å¥½çļĦ
æī¿ è¯º
Ġh ref
H el
å¸¸ è§Ħ
ĠWh ite
áĭ ĵ
om ain
y les
çĻ¾ åº¦
çļĦ è¿ĩç¨ĭ
Ġgr id
Ġ Ð°Ð±
á» Ľ
II I
Ä« dz
ä¸ Ī
àµįà´ Ł
Ġang le
Ð¸Ñĩ Ðµ
ä¼Ļ ä¼´
ÑĨ Ñĸ
ĠE duc
à¦¿à¦ ¯à¦¼
Ġv in
æľ¬ ç§ĳ
ĠÐº Ð¾Ñĺ
éħ ·
ç»Ĩ èĬĤ
èĵ Ħ
åĿ ĳ
Ġak u
Ġm Ã¡s
c in
Ġspec ified
Ġpro st
æĺ¯ ä»¥
à± Ģ
å¼ķ åıĳ
è¿Ŀ æ³ķ
Ġarch itect
á±Ł á±
V ector
Ġk is
çº¿ ä¸Ĭ
Ġag ree
ĠÑģ Ð°Ð¼
.st atus
Ġb ang
æķ° çļĦ
Ġdun ay
gr ade
Ġsur vey
Ð´ Ð¸
ti ka
Ġli quid
Ġoper ating
èĨ ı
Ġl Ã¨
AP I
aj Ãº
ill ing
æľī æ²¡æľī
Ġ$ :
im s
! [
Ġdec isions
ĠáĢ »
ac ija
ĠA S
åĴ ģ
Å¡ ÃŃ
Ġmess ages
è§ Ģ
à¥įà¤ ®
ĠM as
L oad
åĲĮ äºĭ
Ġdirect or
Ġcol lected
- de
c are
ult ure
à¤² à¥Ģ
åİ ¨
wh ile
aut y
ĠB ible
à¨¾à¨ ²
T op
J e
ec ute
Ñģ ÑĮÐº
Ġwor ry
åħ» èĢģ
l ÉĻ
äºº åĬĽ
Ġbil o
Ġcom ments
Ġtechn ical
Ġsist em
Ġadv anced
á» ¯
osp od
or row
nd ig
å¤© æ°Ķ
ĠB ig
Ġp ep
æĮ ¤
Ġid entity
ĠM A
å®¶ åħ·
ĠÐ± ÐµÑĢ
or ter
çĽ¸ ä¼¼
_ tr
ĠM ake
à¯ģà® ķà¯įà®ķ
ĠA D
Ä±n Ä±n
éĿĴ æĺ¥
×Ļ× ĳ
äº ©
Ġlibr ary
Ã¼ ÅŁ
ĠD ate
Ġcommun ities
)) )
O mega
ç½ ©
åĩº è¡Ģ
éĽ £
Ġch osen
Ġfunction al
éŃ ħ
Øª Ùĩ
Ġon t
í ĺ
Ġl ose
è®° å¾Ĺ
Ġb ub
å¯Ĩ åĪĩ
Ġn ast
ph p
Ð°Ñ Ķ
ĠD el
og raf
ä¸ §
Ġs Äħ
ä¸į å¤ļ
èĤ ĸ
æĹ© æľŁ
ĠØ¨ Ø§ÙĦ
çļĦ æĬĢæľ¯
åİ ĺ
Ġ+ +
ĠF lor
ä¸Ĭ ä¸Ģ
Ġ Ð°Ñħ
ko z
å¥ Ī
å¯¹ è¯Ŀ
äº¤ æį¢
ĠM i
Ïī ÏĤ
Ġg ift
Ġy er
èį¯ åĵģ
Ġhelp ing
ond ay
Ġprim er
Ġco eff
ĠL o
Ġgu ard
Ûĩ Ø´
am ing
èĪĴ éĢĤ
ibr ary
ä¸į åľ¨
R ow
_c ont
ç¢ º
Ġlist en
éľ ¸
Ġpunk t
èĮĥåĽ´ åĨħ
k it
Form at
om ba
å®¡ æł¸
ÙĦ Ûķ
B D
. spring
ĠÑĥ Ñĩ
ĠA re
è¦ ĸ
æĪ¿ åŃĲ
ĠT ex
Ġdefin ition
Ġsam ting
Ã© ny
. U
Ïĥ Î¹
ĠL ou
Ġ Ð°Ð¹
Ar tik
h d
Ġcl oud
ä¸ª ä½ĵ
æĪ¿ åľ°äº§
isa un
ĠáĪ ĵ
ac ij
çļĦ ç»ĵæŀľ
çĤ Ń
im as
è¢ Ń
çľŁ æĺ¯
æī Ń
\ x
èĤ ĥ
Ġap r
RO M
Ġdok ument
ĠNew s
St at
ri z
çļĦ æķ°æį®
æ¡£ æ¡Ī
ä¸ī è§Ĵ
Ġindic ate
ä¸į ä½ı
Î¼ Î±ÏĦ
Ġb iti
éļı æĹ¶
P lease
ĠP eter
+ }$
áĢ¸áĢ Ļ
ht a
Ġdynam ic
Ġp Ã¤
Ġap par
Ġis h
Ġag us
pl ik
Ġrun s
ç¸ ½
Ġb is
Ľ àº°àº
am be
R NA
àµįà´ °
.Error f
z Åĳ
N E
Ġàªķ à«ĩ
st Ã¤
Ġstat istic
Ġpag al
è¯´ æĺ¯
çļĦ äº§åĵģ
àº ¶
Ġmin n
M on
ustom er
ĠR un
çĲĥ éĺŁ
åĸ Ĭ
Ġslow ly
Ġocc urs
ry pt
åį §
çĶµ åĬ¨
ay on
Ġni ya
b ir
ĠFr iday
ĠK on
H ttp
ĠS en
å¿ĥ ä¸Ń
ĠAcc ording
L ocation
ä¾ ¯
åĽŀ æĶ¶
ĠE s
Ġb ott
N on
Ñĸ ÑģÑĤ
ĠChrist mas
Ġz em
Ġj av
ĠA M
Ġd ans
Æ°á» Ŀi
Ġhapp ens
æĿ Ń
ĠÄ ¡
Ð» Ð°Ð½
\% ãĢĤ
æĿ¡ä»¶ ä¸ĭ
à¸²à¸ ¢
oj i
è¾ ĸ
Ġsust ain
Ġthan k
æĢ ¨
uc tion
Ġh ur
Ġbil a
æ® ¿
áĥĶáĥ ¡
çµ Ĥ
åľ° ä¸ĭ
Ã ī
Ġà° µ
- the
es ti
Ġpan el
Ġt Ãµ
ib i
Cont ainer
æīį æĺ¯
Ġ$( \
f ind
Ġuk uba
Ġ$ -
çĽ Ĺ
j as
> )
Ġs ag
Ġmag n
. text
Äħ ce
æ¿Ģ åĬ±
ne ga
use um
Ġ ÉĻ
pos ite
Ġa ward
Ġpro ceed
èĢĮ åľ¨
is Ã«
åĬĽ åº¦
ä¹Ł åľ¨
ess ions
èİ ²
f il
ĠP ress
æĬ «
Ġsit ting
Ġb h
ĠF ree
ÏĦ Î¹
ç¢ ĳ
à»Ī àº§
Ġrel ation
ĠáĢ Ħ
Ġoff set
Ġy an
it ems
Ġne k
ä»¥ ä¸ĬçļĦ
ord ning
. js
çĨ Ĭ
# define
ä¼Ĺ å¤ļ
els er
ĠÙĥ ÛĲ
Ġy es
ĠW ashington
C ase
èĤ ¢
k Ã¶
ä¼ł è¾ĵ
ĠÙħ Ûķ
ĠH el
ä»ĸ è¯´
åĩł å¹´
ĠD en
Ġmin or
Ġdef ine
Ġáł £áł
_ y
èµ ł
ä¸Ń å°ı
un y
F C
ĠC ouncil
æ» ¿
ĠBo ard
Ð³ ÐµÐ½
ĠÎ ķ
çŃ Ľ
../ ../
g ers
Ä± z
abog ang
Ġdes pite
le an
ä½Ĩ åľ¨
æ· Ģ
Ġoper ator
I E
ro ps
Ġ ell
re v
( res
çł ĸ
æ¢ Ŀ
ç¼ĵ è§£
Ġla i
Ġjob s
ak ar
te gr
æīĢ å¾Ĺ
} }$
à®¾à® ©
é£Ł çĶ¨
T ree
Ã© ben
Ø§ Ú©
Ġt Ã¶
clus ive
c out
å¾ ½
ĠN i
Ġtas ks
abog on
ac er
Ġst ap
ãĤ ģ
åį± å®³
Ġval u
å¤§ åĪ©
áĥĺáĥ Ĺ
S ec
clud ed
Ġgih abogon
at ie
ĠÑĤ Ð¾
n ÄĽ
ĠEx per
à® Ļ
Ġn ÉĶ
å µ
è¿ĩ äºĨ
nÃ© ho
P anel
åıĳ åĩº
åľº æīĢ
n ings
ĠCh urch
à¦¾ à§°
ç´ ļ
å¤ĸ éĥ¨
Ġclos er
Ġwrit er
Ġkinah abogang
Ġr oute
ĠS unday
æĭ ¨
×ķ× ¢
å¥³ çĶŁ
Ģ à¸£
åı¤ ä»£
Ú ĺ
F ig
ìĿ ¼
Ġve get
Ġme a
ud o
Ġg er
å¯¹ çħ§
çļĦ è§Ħå®ļ
çļĦ å®īåħ¨
Ġin struc
var phi
åĴ Ĺ
Ð°Ñ ī
ĠL ike
Ġr ai
ÙĪ Øª
Y our
ä¿® å¤į
Ġáł¬ áł¤áł
ian o
äºĴ çĽ¸
Ġpe ak
à² Ł
os es
ĠØª Ø±
æ» ŀ
ect ors
Ġsqu are
æķı æĦŁ
à° ®
Ġlin ks
u Äį
ĠÒ »
Ġteach ers
Ġwalk ing
Ġk ell
ĠÐ± Ð°Ð¹
Ġ× ¡
F T
åħĦ å¼Ł
ion i
æ¶Ī å¤±
Ġ ).
Ġne uro
åī ĩ
æĢĿ è·¯
åĪ« çļĦ
om ic
ĠP R
h ad
ĠÐ² Ñģ
ĠC am
En try
Ġw ww
Ã ľ
aj j
áŀĵ áŁħ
æľ¬ è´¨
ĠQ ue
Ġin frastr
æŁĲ ç§į
H A
çĲĥ åĳĺ
pl an
Ð°Ð¼ Ð¸
Ġc ul
èľ Ĥ
çļĦ è®¾è®¡
Ġcomfort able
ÑĤ ÓĻ
Ġo z
Ġvir tual
åįĹ äº¬
ãģ ĳ
à®Ł à¯įà®Ł
Ġk ne
ÙĨ Ú¯
Ġadminist r
áł¦áł ¨
æ²³ åįĹ
ĠP M
Ġg at
Î ķ
áĢ±áĢ¬ áĢºáĢ
à¦ £
J SON
åĬł çĽŁ
, $
Ĥ àºŃàºĩàº
ä»¶ äºĭ
Ġar ba
Ġwas te
ä¸ŃåĽ½ çļĦ
å¼ µ
è¦ ı
ãģ£ ãģ¦
æĹłè®º æĺ¯
Ð°Ð³ Ð°
Õ Ŀ
è¯Ń æĸĩ
word s
Ġne ut
o es
Ġat tiec
Âł Âł
éģ ¥
×Ļ× §
åı Ļ
Config uration
t op
ER T
Ġo li
un te
( true
ĠØ¨ ÛĮ
Ch ange
Ø ¢
× ģ
æĬ ¬
æ³ķ åĽ½
Ð³ Ð¾Ð²
Ä £
Ġun less
Ġt ail
ä¹ ¾
å·¥ä½ľ äººåĳĺ
è¿ĺ åľ¨
è·¯ ä¸Ĭ
D own
è¾ °
åı¦ä¸Ģ æĸ¹éĿ¢
Ġb acter
ä¾Ŀ èµĸ
Ġdemonstr ated
æĬ Ľ
Ġconvers ation
çĻ¾ åĪĨ
åľ° çĲĥ
( input
ä¸Ń åŃ¦
Ġk Ãµ
ãĥ ª
Ġfor get
ele ment
ne go
å¹² åĩĢ
Ġfamili ar
Ġw ala
Ð´Ñĭ Ò£
G e
Ġnames pace
Ġins ert
Ġnec k
Ð°Ð´ Ð°
ent ed
Ġs es
é»Ħ éĩĳ
ĠW il
ĠFr ank
à¤ķ à¥įà¤·
Ġhom es
çŃ Ĵ
á»Ļ t
ash i
åı ¹
UL T
Ġconf irm
åĽ½ å¤ĸ
M sg
èĩª æ²»
Ð¸ÑĤ ÑĮ
b ig
æ°´ çļĦ
áłİ áł¡
ĠÙĥ ÛĨ
ĠB ur
T ag
AG E
æĭĴ ç»Ŀ
Ġs port
ow e
åĬĽ åĴĮ
ut ing
rist u
Ġpr ze
exp ected
Ġsuggest s
y or
l ab
Â «
Ġáł ¶
Ġgu ys
ur ies
ici ous
ĠB re
Ġpl astic
as ad
Ġde le
Ġm am
ad ing
æ¢ Ĺ
Ġf urn
all s
æİ¥ çĿĢ
à½´ à½£
Ġ ion
áĢŀ áĢĬáĢ¹
åĬ¨ èĦī
Ô¥ ÑĪ
Ġent r
Ġtest ed
Õ¶ Õ¥ÖĢÕ¨
à² ª
Ġep is
se g
Mod ule
Ġim mun
ĠÎµ Î½
æĢİä¹Ī æł·
Ġdes cribe
Ġni et
ed ing
Ġstra ips
= (
Ġassess ment
à»ī àºŃ
ĠØª Ûķ
ĠT ext
Ð°Ð» Ð°ÑĢ
ãģ ł
éł ħ
æīĭ ç»Ń
à²¿à² ķ
×Ļ ×ķ×ª
olo Äį
ĠÙĦ Ùĩ
ä¿¡ ä»»
éĢ ¼
Ð ¥
è¥¿ æĸ¹
Ġek onom
ĠOn ly
æģ ¨
Ġdrug s
ĠR E
ĠE N
ĠI P
Ġequ ival
áī ±
c u
ĠC olor
Â Ń
M en
F L
àŃįà¬ ¤
Æ°á»£ c
ĠkÃ¶ z
Ġdecre ase
ĠM ichael
Ä© a
po ol
± àºļ
áłłáł ª
av u
Ġà¶ Ń
Ġdet ailed
acc ount
D ir
Ġop p
Ã¼ m
ap es
æĺ¾ å¾Ĺ
Ġmet ab
. con
IN T
ĠH ot
Ġ" \
æ°Ķ ä½ĵ
c ell
æıĲ åıĸ
×ķ× Ķ
Ġon s
ä¸Ĭ åİ»
Ġà¶ º
ä¼łç»Ł çļĦ
à¸± à¸Ļ
_s et
Ġteach er
D elete
å¹² çĩ¥
_ config
on ia
p ad
F alse
Ġ ),
ism o
é¢Ĺ ç²Ĵ
à°¾à° °
ê³ ¼
æĹħ è¡Į
Ġindic ated
çģµ æ´»
åħ¬ åĽŃ
ä¹Ł å¾Ī
Ġterm in
åıį é¦Ī
Ġstart s
n Ã½ch
Ġsh if
éī´ å®ļ
Ġpic tures
à¤¾à¤° à¥Ģ
est ed
à¤® à¤¾
ik al
à³įà² Ł
Î» Î·
Ġse at
Ġà¤ħ à¤ª
Ð¸ÑĤ ÐµÐ»
ç¤º èĮĥ
Ã³Ì£ n
Ġre pro
è´¯ å½»
ed om
çĥ ¯
×ķ× ¡
ãģĦ ãĤĭ
Ġann ounced
Ġevalu ation
Ġnd ipo
Ġch apter
ĠS E
Ġthrow s
Ġpre gn
######## ########
ä»¥ ä¾¿
Ġf ashion
ä¸» å¸Ń
Å¡ a
vo je
St orage
å¸ Ĳ
est amp
k ap
åŀ «
ç¡ ħ
Ġdec ide
åħ³éĶ® è¯į
æ° ¯
C ell
Ġl uck
Õ¡Õ ²
Ġap plic
ĠH am
ke ys
U B
Ġt ad
od o
à³įà² ¦
è¦ģ æ³¨æĦı
ĠF ebruary
Õ °
ä¼ĺ çĤ¹
è¿ĳ å¹´æĿ¥
å®¶ äºº
åĪĻ æĺ¯
ĠáĬ ĵ
Û ²
ä¿Ŀ çķĻ
åĪĨåĪ« ä¸º
åıĳ åĬ¨æľº
C urrent
Ġmod er
ap os
Ġw ine
und le
Ġng ok
Ġel imin
å¼Ģ åħ³
Ã© e
Ġexpos ure
Ġestim ated
æĬ ļ
ï¼ į
Ġb inding
ri pt
ä»¶ çļĦ
Ġnumer ous
Õ¶Õ¥ÖĢ Õ«
ĠØ¯ Ø§
Ġrecord ed
ps i
ĠP ath
Ġn orth
ĠÐ½Ð° Ñģ
æ± º
M u
ç®Ģåįķ çļĦ
up a
çķĮ éĿ¢
Ġsp ect
ä¸Ģ æĸ¹éĿ¢
Ã¡ ri
ĠÃ ¸
Ġext ent
Ð½Ñĭ Ò£
àª¾àª µ
ĠÐ· Ð½
ÛĮ Ø¯
ve z
à¤ ħ
Ġtem plate
. user
ĠÕ° Õ¡Õ´
è¢« åĳĬ
Ġ Ã¤
Ġinvol ve
Ġj est
Ġà¨¨ à©Ĥà©°
ç©º è°ĥ
åºĶ æĢ¥
( const
é«ĺ èĢĥ
åĲĦ èĩª
Ġsc r
Ġrec ip
å®¡ æŁ¥
à¹ ĩ
ä¸ĭ ä¸Ģ
Ð± Ð°
Ð¸ÑĤ Ð¸
åįļ å£«
Ġbec oming
N ext
A ny
à½ł à½ĳ
ĠA tt
Ġpro g
Ġpl ane
å¡ĳ æĸĻ
P tr
ìŀ Ī
åĵ² åŃ¦
à¶±à·Ĭ à¶±
å°± ç®Ĺ
çľĭ äºĨ
Ġsh ut
ci ent
Ð½ Ð¸ÑĤÐµ
â ĺ
åĲĦ åľ°
ä¼ł æĦŁ
×ł ×ķ
Ġkom un
ĠJ SON
Ġwonder ful
, omit
ven ue
àµ ¼
çĪ ¬
val u
æĤ ł
à¤° à¥ĩ
å¼ı çļĦ
æĬ ¹
on na
Ġsup posed
Ġpar k
Ġs le
ĠV ir
é¦ ¬
Ġp and
ber t
w ater
Ã©s z
à¯ģà® ķ
çļĦ éľĢæ±Ĥ
àº²àº ģàº
oh ol
Ġfore ign
ĠB oth
") ]
Ġwhere as
Ġf le
emb ly
h ab
ĠØ³ Ø§ÙĦ
Ġfund ament
çİ Ľ
U P
åķı é¡Į
ÃŃ r
conn ect
åĲ¬ åĪ°
×ķ× ©
áĢľ áĢŃáĢ¯
Ġatt end
çĻ½ èī²
åĨĻ ä½ľ
Ġf Ã¸r
Ðµ Ò£
ul s
ĠÐ´ ÑĢÑĥ
it us
æħ¢ æĢ§
Ġm ingi
àµ ½
åıĳ çĹħ
Õ¸ÖĤÕ©Õµ Õ¡Õ¶
Ñį Ñį
Õ ²
Ġseg ment
ĠL ife
áĥĿáĥ ĳ
Ġext ended
ul ed
L S
å¿ĥ æĥħ
Ġob lig
Ġde i
æĥħ å½¢
åĳ³ éģĵ
çļĦ åŃ¦ä¹ł
ä¾µ çĬ¯
áĪ ±
Ġh ier
éĤ ª
å¹¶ éĿŀ
.S tring
ç´ °
ent ry
Ġr ib
ĠSci ence
æĵ ļ
å¼Ģ åĲ¯
åľ ĸ
Ġt we
Ġl ui
P ort
( N
Ste p
æľŁ éĻĲ
Ġm ung
ìĹ ¬
l ines
ill er
äººæ°ĳ å¸ģ
Pro vider
Ġà¦ ¶
Óķ Ð³
ÙĪ Ø²
èµ° äºĨ
im we
cep ts
ĠRes p
se y
w ari
æĮĩ æĮ¥
ch t
å½» åºķ
R ight
à²¿à² °
æľī åĬ©äºİ
çĶµ åĬĽ
éķ¿ æĹ¶éĹ´
Ġel if
çļĦ çī¹çĤ¹
å¤© æ´¥
åıį å¤į
Ġi v
Y PE
.spring framework
ci ples
Par am
æĪĳ è§īå¾Ĺ
} ),
æ¯ı æĹ¥
aw i
Ġgr ab
Ġen able
Ġs ister
à»Ī àº²àºĩ
ĠÐ½ Ð°Ð¿
ition ally
estiv al
áĥ ¢
ĠR iver
Ð Ĩ
ä½ł å¥½
åĤ ħ
Ġz am
éģ ©
Ġà¤¨ à¥ĩ
Ġnot es
Ġf Ãºn
Ïĥ Îµ
ĠÙħ ØŃ
æīĵ åį°
åıĳ éĢģ
èĶ¬ èıľ
Ġw ire
ord ers
ĠS y
å·¥ åİĤ
am ise
iz ont
à½ĺ à½²
ĠU nder
çĺ ¦
k ul
Ġd ad
st on
çļĦ ç¾İ
:: <
ĠPro ject
à¥ģ à¤¨
Ġn ab
Ġoccur red
inter face
Ĳ áĢ½
é¢Ħ è®¡
Ġread er
éģµ å®Ī
ÙĪ Ø³
Ġy ÉĶ
_ G
ĠÐ ĸ
Ġr am
Ġn og
erv let
æĪ ¶
æľĢ å¥½çļĦ
Ġdep ending
Ġallow ing
ĠI z
ĠÅ ł
ĠJ ud
Ġsym bol
Ġbo leh
C I
om er
Ġà¨ħ à¨¤à©ĩ
ä»ĸ åĢĳ
Ġl ing
- an
Ð° Ð¾
áĢ¯áĢ¶ áĢ¸áĢ
AP P
: **
Ġf ans
Ġan x
é«ĺ çŃī
Ġc ards
c r
åŃ¦ æľŁ
Ġd ose
w ir
( k
n ika
Ġsubject s
av ad
å« Į
è·¯ å¾Ħ
æ¡Ĩ æŀ¶
Ġn ob
Ġle an
à¤ ·
EN D
Ø§Ø± Ø¯
Ġtop ic
enc ia
ann ya
Î¿Ïħ ÏĤ
ĠP an
Ġinf ection
. V
Ġlog ger
èĦ Ĩ
æ¤ Ĵ
ĠÐº Ð°Ðº
éĩĬ æĶ¾
Util s
è¿ Ī
c d
ĠìĹ Ĳ
lig t
Ġb ato
M ar
rup t
åį° è±¡
Ġà¤® à¤¨
å·¥ äºº
Ġnj ih
è®¤ çŁ¥
Ġb one
ä¸Ĭ æ¶¨
ov ing
Ġcl uster
æĺŁ æľŁ
Ġt Ã¡
éĨ «
Ġp ose
ik in
ä¹¡ æĿĳ
ĠGe orge
- ch
Ġprint f
ĠS ection
m ith
è¡¥ åģ¿
æī© å±ķ
åħ¬ åĳĬ
å¤Ħ çļĦ
ri or
Ġd ol
Q ue
Ñ ŀ
ut ely
ĠS aturday
Ġpain t
ä¸į èµ·
Î¯Î± ÏĤ
ç¢ Ĺ
, y
Ġre k
ĠÄĳ Æ°á»£c
ĠDes ign
Ġclaim s
Ð¼ Ð¸
ĠM u
Ġ-- >
' ),
Ġ Ð°Ð¼
áº¹ n
le la
Ġs outh
Ġpro pos
ÏĦ Îµ
ç³ ķ
I X
Ġa ka
Åµ a
ament o
. Name
à· ħ
ĠD uring
Ġà¨ °
áĬ ĳ
Ã³ d
Ġn Ãł
b at
_f rom
] :
æ¶Ī èĢĹ
Ġ\ {
Ġm ogu
ro gen
ãĤ ¢
. net
**************** ****************
èĪª ç©º
Ġexpl ore
ç¤¾ä¼ļ çļĦ
Ġn is
ĠN ote
åľ¨ ä¸Ģ
tor an
çĭ ¼
ĠG reat
Ġaccur acy
æĪĳä»¬ åı¯ä»¥
Ġ- $
ÉĻ d
Ġw inter
eng er
id h
Ġlot s
è´¦ æĪ·
Ġáłª áłłáł¶áł¢áł
åĪł éĻ¤
Ġl atter
æī ®
it Ãł
ĠÕ ¹
Ġcompet ition
or ph
## #
èŃ ·
Ùħ Ùĩ
ref ix
çļĦ ä½¿çĶ¨
Ġà² Ĩ
åŃ©åŃĲ ä»¬
æµ ©
Ġun ion
Ġb end
ÑģÑĤÐ² Ð¾
æ¶Ī éĻ¤
å¤ļ åħĥ
çĽ® å½ķ
å¨ ľ
Ġmain ly
Ġcont ainer
Ġfu q
è§Ĩ è§ī
ap on
ä¾¿ æĺ¯
.p ng
èĻ Ł
åĴ ³
Ġam ih
ĠÃ¥ r
Ġproced ures
à»Ģàº ®
Ġr ig
( L
èĬ ½
ĠÏĥ Îµ
Ġus ka
os itory
Ġf ingers
_ a
×© ×¨
éĽĨ æĪĲ
. json
Ġsu itable
áŀ¶áŀ ĸ
l ocal
Ġcr uc
Ġele ktr
ut en
Ġhab ag
Ġthe ore
Ð° Ð°
æľį åĭĻ
Ġd apat
à¥įà¤ ¹
ĠÙħ Ûĩ
E ach
åĩł å¤©
ç¼ĸ åĪ¶
à¥ §
Ġweek end
çĹĽ èĭ¦
Ġk ong
æħ Ī
çŃī äºİ
ĠMan agement
è®¸ åı¯
å±ħ ä½ı
×ķ× ¤
ix el
Ġinc red
Ġad op
é¢ĺ çĽ®
Î¿Ïħ Î½
Ġà¤² à¥ĩ
as te
Ġ íķĺ
ç® Ń
áŀĦ áŁĴáŀ
Ġqu arter
Ġmost ly
anc er
ãĢĭ ãĢĬ
Re ader
ĠK ar
n ull
åĽ½ æľī
j Ãº
à® ®à¯į
ë ĮĢ
Þ °
I K
æħ °
gb Ãł
Ø§ Ø³Øª
åŃ Ł
idl akan
R ed
àº± àºĩàº
kn ow
çŁ¥ åĲį
âĢĿ âĢľ
ti j
é į
ãĥ ©
Ġà´ ķ
Ġe cho
áĭ Ľ
á Ĳ
Ġà· Ħ
å¯¹ åħ¶
äºĪ ä»¥
Ġre con
_S IZE
çŃ¾ è®¢
go ogle
çĸ Ĩ
à¤¿à¤ ®
åħ¬ å¹³
çľŁæŃ£ çļĦ
-------- ----
Ġelectr on
Þ ¬
Ġshould er
Ġposs ibly
( pro
ĠP oint
æľ¬ ä¹¦
Ġtan ba
Ġopin ion
áŁĴáŀ ĺ
y cl
æº ĸ
âĦ ĥ
Ñ ĳ
áī³ áīµ
ĠS ign
ĠVal ue
åł ¡
ĠA z
Ġmeasure ments
æ¿Ģ åıĳ
ä¸į æĥ³
l av
Ġinst itu
ĠÏĢ Ïģ
all ed
éħ ¬
Ġwill ing
Ð³ ÓĻ
Ð¸ Ð¾
ĠS um
Å¡ k
Ġfore st
áĢ± áĢ¸
çī¹ å®ļ
Ðµ Ð±
Ġ ãĢĬ
Ġappear ance
Ġkab ung
à»Ī àºĩ
Õ¡Õ ¦
gr id
ay ers
Ġcompre hens
Ġg eb
ä¸į éľĢè¦ģ
poss ible
æĪĲ éĥ½
çļĦ æķĪæŀľ
ĠY es
Ġrespons es
Ġi o
im es
M ay
è¨ ±
æ¿Ģ ç´ł
G r
à¬¾à¬ ¨
ĠN OT
å¦Ĥæŀľ æĺ¯
çº ²
à½Ķ à½¢
ia h
ini Å³
Ġh ulle
ÃŃ c
ĠCh ild
ÙĪ Ùĩ
åĲĮ æŃ¥
Ġsn ow
Ġk ÃŃ
æŁ ´
ï¼ ħ
ĠSt art
} C
Ġ ÓķÐ¼
Ġne b
ic ial
Äĥ m
p ass
e per
æ¿Ģ åħī
up u
n ight
å¯ ĵ
Ġdin ner
ap as
æĶ¶ èİ·
Ġf ederal
en ie
æľ¬ åľ°
is co
t re
Ġb ot
Ġmus cle
ä¸ī åįģ
Ġsched ule
ä¹ Ķ
Ġn n
Ġsh ock
ĠCh inese
èŃ °
ĠÕ ·
éľ ī
,omit empty
å½ĵäºĭ äºº
ÛĮ Øª
Ġc s
on an
Ġs pl
èĪ Į
ĠL and
Ġpur poses
å¯¹ æīĭ
æ°Ľ åĽ´
D ep
áĭ ĺ
Ġex cess
P ay
F O
èĥ ĸ
æĭħ ä»»
ä¼ĺ åħĪ
çļĦ è¡Įä¸º
çļĦ ç¤¾ä¼ļ
Ġj ur
æĽ´ æį¢
è¾ ¦
iz o
ĠS un
åĬ £
Ġktor Ã©
ang i
ãĤ ı
àµģà´ ¨àµįà´¨
ĠH en
tiv a
H S
à»Ī àº²
ÑĸÐ» ÑĮ
Ġbu ilder
æĭ ³
Ġsim pl
àº·à»Ī àºŃ
åĢ ¡
Ġo se
åĵį åºĶ
ĠÑĪ ÑĤÐ¾
Ġz ab
æł· åŃĲ
æµ· æ´ĭ
Ġpl as
c ale
Ġtr ail
è« ĸ
å¸¸è§ģ çļĦ
ë į
çĩ Ł
k am
Ġdes ire
èĤ ļ
Ġsal t
ÓĻ Ð¼
Ġcas ino
Ġevent ually
/ g
p art
Ġlead er
çªĹ åı£
âĳ ł
æĪĳ è¯´
Ġkabung toran
hul agway
æ£ ĭ
Col umn
Ġtah un
Ġhad ton
) ),
Ð» Ñĭ
K omis
Ġs Ã«
Ġm uka
å½ĵ ä¸Ń
c ap
éģ Ĭ
U D
éļı æľº
Õ½ Õ¿
ek t
æ¡ ĳ
Ġan thu
r ÉĶ
ĠPe ople
Ġindic ates
Ġà¨ Ĩ
Ġy eke
A re
Ġz i
å¼ ¥
> ();
Ġà¸ Ħ
hes is
Ġn erv
ĠP o
åħĪ åĲİ
S earch
_ or
ĠN ode
Select or
ĠĠĠĠ Ċ
æµĭ å®ļ
Ġà° ®
_ CO
Ġ. $
el m
Ġsh r
Ġnod ded
Ġd uration
èĤĮ èĤī
Ñ Ļ
Ġà¤° à¤¹
ĠÐº Ð¾Ð»
- al
æ°´ æŀľ
Ġsever e
T C
H er
ĠI S
s ka
çļĦ åĨħ
Ġle a
æĶ¶ åĪ°
Ġj ak
è´¢ å¯Į
Ð³ ÑĮÑĭ
Ġgin hulagway
ĠÙĨ ÛĴ
Ġby tes
Ġs ama
Ð» Ð°Ñģ
ĠL uc
L C
ĠM ex
ÅŁ Ä±
ult ural
éĵģ è·¯
áĢĶ áĢº
Ġne z
Ġliv ed
×Ļ× ŀ
åĸ º
Ç Ŀ
G A
ol id
Ġtyp ical
Ġre form
Ġn ik
Y e
Ġres olution
åľ° éĿ¢
åĲĪ çī©
ans ion
L A
Ġpat ag
Õ¡ ÖĤ
çļĦ è¿ĩç¨ĭä¸Ń
åľ ĺ
st va
Ġng Æ°á»Ŀi
_ V
ä¸¤ äºº
ĠG ud
é¡µ éĿ¢
il ik
äººæ°ĳ æ³ķéĻ¢
Ġfrequ ently
h ov
Ġreal ized
ob ora
Ġexc ited
ä¼ ª
Ġà¦ Ĺ
å¾Ī å°ĳ
ĠM odel
åĬł çĥŃ
Ġach ieved
Ġà¦ª à§įà¦°
l is
ro ad
à´ ³
¥ àº°àº
ep h
Ġcreat ive
áŀ¾ áŀĻ
Ġpan ic
à¼ĭ à¼į
èĭ ¯
lec tive
Ġform al
ç§ĺ å¯Ĩ
Ġposs ibility
c ase
Ġrecomm ended
Ġap an
Ġáŀ ĺ
Ġpro iz
ŀ áĢĬáĢº
our se
or u
Ġpro of
éĥ½ æ²¡æľī
å» ·
c ount
áŁĦ áŀĢ
àº» àºĻàº
Ġà¸ŀ à¸£à¸°
Ð¸Ðº Ð°
j al
èĽ ĩ
_ RE
èģ ²
Ġà¤ Ł
pl ed
å±ı å¹ķ
à½¦à¾ ¤
çıŃ çº§
å·² ç¶ĵ
L ength
Ġd ies
åı¦ ä¸Ģä¸ª
Ġsuccess fully
Ð» Ñĸ
à¤¿à¤ ı
æī ĩ
Ġgen es
Ġ" -
[ string
c at
uk wa
áŀ¶áŀ ħ
F ound
ĠP ower
Ġill ustr
V D
åİ Į
ĠÅ Ľ
Ġak tiv
in ations
- E
àŃ ĭ
à» ľ
Ġsi wo
ĠnÃ¡ Ãł
é¡º åºı
ĠÂ £
Ġleg is
Ġpass ion
ploy ment
ing o
ĠT O
Ġpar ties
Ġdet ection
éĢı æĺİ
å§Ķ ä¼ļ
ä»Ķ ç»Ĩ
Ġm oko
Ġle bih
or ia
Ġn arrow
Ġcol ors
çº Į
éļı åĲİ
é£ ĺ
à¥įà¤ ķ
æĶ¯ åĩº
ãģ Ī
Ġk y
ä»£ è°¢
ĠO per
ĠY ear
Ġask ing
ĠOr gan
Ġb ih
æ£® æŀĹ
in ity
Ġcrit eria
ĠSm ith
à½£ à½¦
éĶ Ĳ
ĠPar lament
Ġper man
çº¿ è·¯
Ġre cept
å®ĥ æĺ¯
og ene
Ġun iform
Ġ×ĳ ×ŀ
æĭĵ å±ķ
Ġm ixed
Ġprac tical
áĬĲ áīµ
Ġbro ken
à¬ ¤
Ġdep art
èµ «
ĠG ame
×¤ ×¨
èĪ °
å¹³ éĿ¢
çļĦ çĽ®çļĦ
Ð°Ð¼ Ð°
à° Ĥ
Ġass ume
à¤¿à¤ Ĥ
E xt
æ¯ı ä¸ªäºº
Ġim g
è®¤ åı¯
è¿Ľ ç¨ĭ
Ġr ough
dev ice
Ġproper ly
d raw
Ġpos itions
r b
åį ¸
Ġsc ript
ìĬ µ
Ġam ene
s Ã¥
st al
ĠáĢ Ĵ
æłĳ ç«ĭ
æĹ¶ å°ļ
æĺ¾ çĦ¶
an z
Ġing red
ĠBa ib
M ed
Ġad j
ÈĽ i
Ġà´ µ
è¦ģ æľī
Ġtor ch
éĽ ¢
Ġa o
ç»§ æī¿
Ġde han
ĠUn ion
é» ı
é¦ĸ æ¬¡
é¥ ¼
Ð°ÑĤ ÑĮ
éĥ¨ ç½²
è¯· éĹ®
å°ı äºİ
ĠMore over
åħ Ķ
èĥľ åĪ©
Ġk illed
Õ« Õ¿
ĠL eg
Ġunder st
ÅĤ y
ĠOff ice
à® ļ
ä¼ Ĳ
Ġk p
Ġà° ķ
åĬł ä»¥
ĠAp ple
Ñģ Ñĭ
åĴĮ åħ¶ä»ĸ
Ð°Ð» ÑĭÒĽ
ĠÐ´ Ð»Ñı
ĠA ut
å¼ Ĺ
é©¬åħĭ æĢĿ
Ġtw enty
é© Ĺ
n Ã½
Ġsu it
çİ° çĬ¶
Ġf aster
IN E
Ġst able
ĠAfr ica
à¬ ¹
ari able
Ġg ad
çĶŁ çĲĨ
å¥ĸ åĬ±
S up
Ġe y
tific ate
Ġp ob
k Ã©
Ġbo ot
ĠP ay
Ġd ov
Ġdat as
Ġsign s
ãģ¾ ãģĻ
R C
ist ed
Ġeconom y
Ġl ad
åģĩ è®¾
å¹¼åĦ¿ åĽŃ
å¤ª å¤ļ
áĥĲáĥ ļ
Ġsound s
ĠF il
% ,
in ks
çļĦ éĢīæĭ©
åĩº ä¸Ģ
åıĺ å½¢
å®ļ åĪ¶
P art
ä¸ ¸
åľ¨ ä¸ŃåĽ½
Ġleg s
à½´ à½¢
Ġfor ces
Ġconcern ed
Ġrec overy
T arget
æĶ¾ åħ¥
äºĮ æ¬¡
e a
Ġint ended
Ð¾ ÑĪ
- and
Ä« t
å® ł
ÉĽ n
Ġtre ba
Ġspecific ally
à®° à¯į
Ġs uk
ou ch
Ġg be
ĠFr ance
ĠM ethod
¨ áĥĺ
Ġla unch
Ġfu el
-l ike
ĠR ad
Ġconf idence
à° µ
Ġto im
çĮ ľ
tr l
Ġmo et
Ä Į
im ba
T a
l jen
èµ° åĲĳ
Ġh ang
Ġaccom pl
åĨ² åĩ»
à½¦à¾ Ł
æĤ£èĢħ çļĦ
Ġt ips
ĠR a
åľ¨ æĪĳ
) ^{
åĪļ åĪļ
al ian
ĠE X
åĲ ¾
Ġb lev
........ ........
re ated
áĪ Ĭ
èĩ³ ä»Ĭ
r ag
å¯¹ åºĶ
à· Ŀ
è¿Ļ æ¬¾
ost on
Ġáĭ¨ áĪļ
áŀĵ áŁģáŁĩ
- ind
è¿ĺ æ²¡æľī
åľ° ä¸Ĭ
Ġ[ '
S um
ãĢĭ (
Ð½ Ð¾Ð²
Ġag ents
åį± æľº
Ġcall ing
cent er
Ġfab ric
æĶ¶ è´¹
à¦¾à¦ ®
ä¹ĭ ä¸ĭ
Ø§ÙĨ Ø¯
è¿Ľ å±ķ
J ust
Ġv ul
Ġy on
ĠM ap
Ġall a
Ġch at
Ġà¦ ²
Ð» Ñİ
w at
Ġconsider ing
ç© ´
ist ent
å¢ŀ å¤§
èŃ ī
n on
ĠÐ ¨
à¤ ł
ä¸ļ ç»©
à¤¿à¤ µ
å¤§ åĬĽ
Ġb attle
Ġj oy
ark an
å½¢ çĬ¶
ĠE q
è¯´ æ³ķ
Ġint ellig
æľ¬ æĿ¥
ĠS u
Ġconcern s
Ġwall s
åŃ Ŀ
ĠK os
ag ers
âĳ ¡
ER E
áĢ¸ áĢ±
Ġla ug
åĽ½å®¶ çļĦ
_w ith
Ã¹ n
d at
uck et
Ġf inger
Ð¸Ð» Ð¸
Ġmark ed
é¡¹çĽ® çļĦ
æĦı å¤ĸ
pr ise
Ġs ugar
ãĢĤ ãĢį
Ġk et
èŃ ĺ
ÅĤ o
Õ¡Õµ Õ«Õ¶
ĠL ake
.s ub
Ġk Äģ
or al
èĢ ¶
ac ji
ĠResp ublik
N ull
ÙĨ Ùĩ
-f ree
ond ition
è§£ æĶ¾
n av
j ection
ĠÏĢ Î±Ïģ
ĠC ap
èĥ º
Ġarri ved
Ġmo Å¾e
m ir
G ame
ce an
P U
×Ĺ ×¨
Ġh urt
r Ã¥
èµ ģ
åı ĥ
per ti
à»ī àºĻ
** *
Ġ×Ĳ ×ľ
ind s
Ġf Ã¸
Ð¸Ð¹ Ð½
ĠØ´ Ø¯
å¹³ å®ī
èµ· åĪ°
S ession
h s
te k
Õ« ÖĢ
Ġs os
à¤¾à¤ ģ
Ġprote ins
Ġl um
åł µ
à´ ª
Ġin k
Ġthan ks
ro k
Ġn ust
Ġg ra
à± Ĩ
åĲĪ å¹¶
hy d
é«ĺ åħ´
_ sh
Ġà´ ¨
à¦¾à¦ ¯à¦¼
Ġmed i
Ġtas te
Ġlist ed
Õ¡ÖĢÕ ¤
éĢĻ åĢĭ
Ġz one
çº ½
ç«Ł çĦ¶
é»ĳ èī²
ĠB est
áĥ łáĥ
( user
Ġprincip al
çĻ» å½ķ
Ġinde ed
Ä °
èģ ª
Ġbo Ê»
Ġperspec tive
or ang
_t est
à²¿à² Ĥ
å¯¹ æŃ¤
for ce
f irst
_ i
() ->
åľ° è¯´
å·¨ å¤§çļĦ
Ġm ail
c olor
ĠM ount
Ġl Ãµ
ĠTw itter
ÑĨ Ð°
ä¸ī ç§į
Ġb á»¥
å¤± åİ»
Ġsp in
ç¿ Ĵ
äºº æķ°
Ġsk l
åį³ å°Ĩ
è´ ¤
ÙĪ Ø´
Ġst ated
æĪĳä»¬ åľ¨
st atus
Ð½ Ð¸Ñħ
å®ŀ æĹ¶
R eturn
ev en
le ms
Ù Ģ
Õ¶ Õ¹
Ġn icht
Ġbil an
å» £
å¾Īå¤ļ äºº
} [
è¯» èĢħ
con sole
Ġmar ried
ĠM ath
áĥ Ĵ
ç½ Ĳ
å°ı å¿ĥ
Ġm ens
ve k
Ġà¨ Ĺ
Ġm ate
Ġv Å¡
ug s
ĠS econd
Ġord ers
Ġd ost
äºº ç¾¤
çĽ ²
ag u
Ġb ers
ãģĤ ãĤĭ
åĬŁ æķĪ
ĠÐ· Ð°Ð¿
ig t
em m
ç§Ł èµģ
ĠÚ© Ûģ
Ġlead ers
Ġdep ends
Ġste el
è³ ¼
éĿĻ èĦī
ĠE vent
åŃ¦ åİĨ
å¯Ĩ çłģ
ĠÎ ®
ĠT a
ĠSoc ial
Ġj am
åŃĲ å¥³
æħ ķ
_ num
ek iston
Ġam i
ĠC ode
no ÅĽci
èĤ¡ æĿĥ
ti p
ĠH all
Ġhon est
æľī ä¸ª
ãģ Ĭ
åİĺ ç±³
ind ÉĻ
Ġframe work
ern el
ĠAr ch
ĠV is
- tr
à²¿à² ¨
à¥įà¤ ²
AC K
Õ Ń
å¤Ħ ç½ļ
as p
åŃĺåľ¨ çļĦ
f ar
åĨĽ äºĭ
ĠÎ ¬
Ġappro aches
åĽ¢ ç»ĵ
Ġbel ief
ĠH ash
è¾ ½
Ġà¤ §
ut ure
% .
itiv ity
ìĬ ¤
Ġrepe ated
æĪ¿ éĹ´
Ġrec over
éĶ Ī
ä¹Ļ æĸ¹
Ġaccount s
Ä± na
ac tiv
at ar
å¿ħè¦ģ çļĦ
Ġal k
ĠE UR
ĠIs land
ul um
à½¡ à½¼à½ĳ
Ġlat ou
Ġto x
. res
it ure
Ġw edding
åķ ¥
Ġtr av
à¾ ³
ÐµÐº Ð°
éº ½
æıĲé«ĺ äºĨ
ç½Ĺ æĸ¯
Ġsar ay
Î» Îµ
am ber
Ġn ari
àŃ Ģ
æĪ °
or r
Ġfin an
ĠR el
åĴĮ ç¤¾ä¼ļ
Ġmet a
ĠT op
æļ ĳ
å°ĳ æķ°
(f alse
ĠSt and
è¨Ń è¨Ī
ĠG al
Ġo ko
ises ti
Ġtw ice
à´¾à´ ¯
h ol
Ĺ à»Ī
åıĳ è¾¾
åĬ¨ çļĦ
Ġap i
ĠáĬ¥áĭ ©
Ã§ a
Ġorgan ic
å®Į ç¾İ
M ark
S ee
Ġd war
t ri
ĠPro t
Ġacc ident
ç¦» å©ļ
ĠW ho
åĴ ¬
å®ŀéªĮ å®¤
à½¦à¾ Ĵ
T emplate
Ġett Ã¤
áŀ¾ áŀĦ
ÑģÑĤÐ² Ð°
å¤§ ä¼Ĺ
æ¶ Į
Ġg ada
ä¼ļ åľ¨
Ġvic tim
H O
Y ehova
ro le
plic ated
.W indows
éħį å¥Ĺ
Ġhot u
ãĥ ĥ
Ð² Ð¾ÑĢ
æį Ĳ
åħļ å§Ķ
áĢ Ĥ
Ð½ Ð¸ÑĨ
Ġcal c
Ã§ Ãµes
æ¹ĸ åįĹ
ĠInd ian
ãĤ ¯
ĠH and
åħ±åĴĮ åĽ½
ĠC are
Ġh idden
Ġend ed
èĴ Ĥ
ot er
Ġaccept ed
equ als
ãģĭ ãĤī
ĠMay be
ç»Ļ äºĨ
ple ments
m essage
Ġpor tion
b os
ĠÙĨ ÛĮ
Ġsci entific
Ġup or
Ġe c
Ġent ity
Ġà¤ħ à¤¨
ĠB ook
åŃ£ åº¦
çļĦ ç®¡çĲĨ
ĠIn formation
åĨ² çªģ
Ġà» ĥ
áŀĬ áŁĤáŀĽ
à²¾à² ¨
æ³¨ å°Ħ
èī ³
å½¼ æŃ¤
Ġrem ained
ov es
ĠM ah
Ġáĭ ĵ
é©¬ ä¸Ĭ
Ġh ung
åĪĩ å®ŀ
out s
å¢ ĵ
E K
Ġà¸Ĥ à¸Ńà¸ĩ
ç¥ Ń
ĠY e
em an
à½Ķ à½¼
åĮ¹ éħį
Ġph ilos
Ġz on
Ġv z
è§£åĨ³ æĸ¹æ¡Ī
è¾ĥ ä½İ
èĻļ æĭŁ
AS S
ÙĪ Ø¹
ĠÄ °
Ļ àµįà´
å®£ å¸ĥ
ç§į ç±»
ÑģÐº Ð°
èĢģ æĿ¿
in ition
Ġcomp are
Ġà¦ ļ
ç¤¾ äº¤
. end
K ind
áĤ ķ
Ġh az
Ä¡ Ä¡
( in
ĠÙħ Ø±
äº§ éĩı
Ûĩ Ù¾
åĸ Ĥ
Ġdr ag
èĽĭçĻ½ è´¨
Ġm á»Ļt
è¿ĩ æ»¤
end i
Ġir on
ĠO R
Õ¡Õ º
åİŁ å§ĭ
Ġvi Å¡e
. parse
Ġmain tenance
å¤ ł
Ġimprove ment
. remove
Ġdep artment
il ib
ĠTex as
Ġn m
Ñģ Ð°
or ial
ä¸ĵ é¡¹
Ġà¨ķ à¨°
Ġus ual
ĠG L
ÉĶ Ìģ
Ø§ÛĮ ÛĮ
çļĦ ä¸Ń
sc ape
Ä© rÄ©
ĠD ire
Pro duct
à¦¾à¦ ¤
ĠBl ue
comm on
Ġpolic ies
in is
Ġfeed back
ĠÕ¡Õ ¼
Ġknow ing
tu a
Ġwat ched
Ġfun ds
. </
çº¦ æĿŁ
uj Ãº
ĠEng ine
è¿Ļ ä½į
ĠÃ¼ Ã§
ĠÕ´ Õ¥Õ
Ġbill ion
Õ ·
ä½ł æĺ¯
ĠáĬ¨ áĪĿ
Ġse ed
Ø§ Ùģ
åĪĿ å§ĭ
èı ¯
F unc
ĠM en
Ø³ ÙĦ
ĠÚ© ÛĲ
Ð°Ñģ Ñĭ
èª ŀ
Ġreg ional
æ¡ ¶
ch ron
éĻ¢ æł¡
Ļ àŃįà¬
áŀĢ áŁĴáŀĵáŀ»áŀĦ
Ġhold s
How ever
Ùī Ùħ
it ate
Ġt ables
áĢĽ áĢ½
M B
ĠÃ¶ ver
éļ Ĭ
ĠBib lia
èĩªèº« çļĦ
Ġ ê·¸
èĥ ģ
) ?;
Ġest ate
Ã¨ s
Ġrem ote
Q U
h ala
A pi
Ã¶ s
p ack
ÙĬ ÙĦ
F S
Ġtrans action
ag ram
Ġà¤ķ à¤¿
Ġst ored
ĠFurther more
Ġeffec tively
æŃ¦ æ±ī
enti als
Ġcontin ues
Ġadult s
ç¡¬ ä»¶
æĦ ī
E t
àª ¥à«Ģ
ä¸į åı¯èĥ½
éŁ µ
à§ Ī
ip her
Ġáĭ «
áĢ±áĢĲ áĢ¼
ĠI ts
Ġover l
Ġz in
Ġk ata
il u
Ġprov ider
ä½ł è¦ģ
ç»© æķĪ
Inter face
Ġk g
çĶ» éĿ¢
em ic
HT ML
ĠÃ ¾
åŃĲ å®«
å¦ ¥
M ore
å¹³æĸ¹ ç±³
£ ¼
y k
c p
Ġdis p
ament u
il ang
Ġpl ays
ç»Ĩ èıĮ
è¿Ļ å°±
Ġpro ve
p ul
æ³ķ çļĦ
Ġagre ed
à¨¿à©±à¨ ļ
En c
à¦¾à¦ ĩ
und o
ĠD iv
Ġp adding
Ġa th
ĠC a
tif act
Ġsecond ary
E mpty
à´ ²
åĪ¶ åĵģ
Ġcover age
Ġph osph
ask et
AL L
Ġthem e
Ġq o
ur g
âĢ¦âĢ¦ âĢĿ
æĹ¥ èµ·
ĠCom mit
Ġmilit ary
æ¬ º
Ġe ating
) ).
èĳĹ ä½ľ
Ġseb agai
clud ing
èģ ¯
è£ ½
åĲİ éĿ¢
Ġàªª à«įàª°
å¼ķ åħ¥
ĠMin ist
Ġáī µ
åİĤ å®¶
éľ į
Ð½ Ð°ÑĤÐ°
H P
; (
Ġt ie
Ġput ting
Ġte eth
Ð°ÑĢ Ð´
åŁºæľ¬ ä¸Ĭ
Ġh á»į
Ġconf irmed
Ã¶ l
è¯¾ é¢ĺ
Å¡ u
ÏĦ Î¹Îº
åĩºçīĪ ç¤¾
u its
Ġ Ó
æ¸¸ å®¢
s cript
å½¢ åĬ¿
ĠSoc iety
az ine
A ut
Ġà¶ ľ
C ons
os ing
Ġl Ã³
B a
il an
Ġa us
à¨ Ī
Ġk aw
ĠÑĥ Ñģ
um es
Ġsche me
å®¶ æĹı
Ð¸Ð¼ Ð°
×Ļ ×Ļ×Ŀ
xy gen
áł ¨
æĭį æĳĦ
Ġenter ed
Ġout comes
è¿Ļ ç±»
Ġcre ation
ĠN d
áĭ ©
Ġd ij
ĠU l
Ġconsum er
ĠSt at
æ° ®
n is
µ áł¦
ic ian
ĠC er
à©ĭ à¨Ĥ
åĪĿ æŃ¥
ĠB ill
Ġaccur ate
Ġpr zy
çļĦ æīĭ
Î¿ Î³
åīį éĿ¢
åįķ åĩ»
Ġs ight
à³įà² ķ
ÎµÏĦ Î±Î¹
Ġs ides
Ġà² ¦
Ġp ir
m ay
Ò¯ Ð¹
à¦ ľ
åĿĲ åľ¨
ult y
Ar g
è®© ä»ĸ
åĲĦ çº§
Ġgod ine
Wh ere
Ġwor se
ig o
å¸ ħ
Ø¦ ÛĮ
Ġex it
Ġb uk
ä½ı æĪ¿
éĤĢ è¯·
Ùī Ø±Ùī
å¤« å¦»
àª Ĺ
V ol
Ġh ip
Ġmi xture
Ðº Ðµ
Äį a
t ons
æĹĭ è½¬
Ġter rit
ÑĥÐ² Ð°
Ġb agi
à¬° àŃĩ
Ġ Ð°Ð·
à§ Ł
ĠÑģ Ð¸
el ly
Ġg arden
ç§ ©
Ġtr ouble
Ġiz m
T itle
ne ver
it ative
Ġset up
äºº ä¸º
Par ameters
Ġsc ope
_m ap
or an
. rs
Ġhas h
Con st
éĢł åŀĭ
ify ing
_ cl
... ,
è´§ çī©
ĠR oad
à»ī àºĻàº
Ġpo Äį
Ġdiscover ed
çļĦ åħ³éĶ®
Ġpent ru
éĢ ¸
Ġà¤¦ à¥ĩ
' ],
Ġst one
Ġ ï¼ī
ĠB ack
Ġve Äĩ
Ġj ako
Ġf uck
åĺ Ľ
ĠWh ere
Ġindust rial
Ġnet works
arg o
è¿Ļ ä¸¤
(f ile
çº¿ æĢ§
s u
ä¸į ä½Ĩ
ĠM ain
Ġa Éĸe
put e
Ġdis pl
if ukwa
y ou
Ġne p
ĠV ic
Ġà¸ Ľ
à¥Ĥ à¤¨
um us
af ter
Ø§Ø µ
v Ã¡
Ġsp oke
Ġb ere
áł µáł¢áł
_d ict
ä¹Ł æ²¡
ĠáĪ Ľ
ul us
áĮ £
CT ION
áĢģ áĢ¶
åħ¸ åŀĭ
áĢ± áĢ«
« çĹ
åįģ äºĶ
èĬ Ŀ
æĹ¢ çĦ¶
Ġdro pped
Ġfl uid
Ġbe auty
E v
Ø® Øª
Ġnuc le
æī ĳ
ĠE ur
æ² ĥ
Ġà® ī
and u
Åĳ l
ĠEduc ation
Ġrespons ibility
Ġconcentr ations
à·Ģ à·ı
Un it
Ġà¬ ¬
å¾Ī å®¹æĺĵ
- related
è¾ Ĳ
} >
ĠA T
Ġdoc uments
ä¹ĭ å¤Ħ
Ġà´ ¸
ÑĨ ÑĮ
Ġre in
Ġloc ations
å·¨ å¤§
åħħ çĶµ
Ġex port
è¦ ª
Dev ice
ĠE arth
èģĮ èĥ½
ĠS at
Ġar ticles
en ya
pl ot
ĠA R
Ġdec or
ĠØ§ Ùħ
ä»ħ ä»ħ
çİ° æľī
Ġdet ect
no on
èµ ´
Pol icy
erm an
I LE
Ġz ar
Ġp Ã¤Ã¤
Ġev olution
Ġser ial
Ġn ya
åĪĨ è§£
Ġog sÃ¥
Ð² ÑĢ
ç¨ĭåº¦ ä¸Ĭ
Ġv az
ĠE G
åķ ²
ĠF unction
Ġsm iled
ĠÎµÏĢ Î¹
éĽ¶ åĶ®
, t
Ġte en
ìľ¼ ë¡ľ
Ġmeasure ment
Ġfac ilit
Ġe fter
ĠBu ild
ĠJ an
åĲĪ éĩĳ
Ġcl imate
è®¤ å®ļ
Ð¼ ÐµÐ½
èĦ Ĭ
ÑĤ Ð¾ÑĢ
ä¸į éģİ
ĠM onday
áº¡ i
áŁĨ áŀİ
Ġfor ced
ĠÐ½ Ð°ÑĢ
Ġv or
H a
ĠÎ´ Î¹
ĠW ater
æĲ ħ
æĴ Ĵ
ĠAm azon
Ġg ap
å®¹ éĩı
è¯ ŀ
Ġreview s
ãģ ¡
A v
åĭ ĥ
"> </
ad an
Ġpl ain
å¦ĩ å¥³
Ġarg uments
M R
Ġm ice
ä¿ Ĭ
Ġparti cles
OD O
eni u
OR D
Ġsob re
èĩª è§ī
Ġal ert
Ġas i
ĠUs ing
ä½¿ åħ¶
M o
åıĪ æĺ¯
Ġret ail
im m
Ġke ys
Ġku i
ĠCl ub
ĠÐ± ÑĥÐ´
t ml
å©´ åĦ¿
riv ate
Ġm Ã©
éĢī çĶ¨
ãģ ¤
æĿĥ åĬĽ
- x
et ry
Ġnat ur
åħ³ èģĶ
Ġi le
ĠD ie
ing e
.F orms
Ġtr igger
Ġk ick
Ġch in
ĠØ¨ Ûĩ
Ġrep air
Ġf old
et ti
Ġg est
Õ« ÖĤ
èĩª ä¿¡
ì Ľ
ĠC N
éĩį çļĦ
Ġt ule
Ġve ik
æ¸© æļĸ
åĵĪ åĵĪ
Ġvir us
Ġpl enty
è¡Ĺ éģĵ
is is
' i
åºĶè¯¥ æĺ¯
az u
Ġto e
ug o
èģĶ çĽŁ
çĽ¸ åıį
å¯¹ å¾ħ
ĠÙĬ ÛĲ
.t xt
Ġfr uit
åºı åĪĹ
Å¡ en
ä»ª åĻ¨
åĲĪçĲĨ çļĦ
çİ°åľ¨ çļĦ
Ġexist ence
ĠN g
Ġ×Ķ ×©
Å¡ to
ĠU r
og g
Ġs ila
å¨ ĥ
çĭ¬çī¹ çļĦ
áĢ µ
ir wa
Ġdist inct
åįĥ ä¸ĩ
æĺİæĺ¾ çļĦ
- day
Ġdes ired
Ġt ark
éĺ² æĬ¤
ĠĠĠĠĠĠĠĠĠĠĠĠĠĠĠĠ ĠĠĠĠ
âĢ¯áł³ áł¤
' u
ĠM ont
D ialog
ĠE qu
áŁ Ĭ
à§įà¦ Ł
Ġk ami
çĶ² æĸ¹
U m
Ùĩ Ø±
Ġr iver
ÑĤ Ð°Ð½
å¼Ģ å¿ĥ
çĿ¡ çľł
( result
. config
çļĦ éĤ£
Ġdiagnos is
åĨħ åŃĺ
àµįà´ ¯
Ã¡ si
åĩı è½»
Ġab y
ä¸ĸçķĮ ä¸Ĭ
AC T
Ġáĭ µ
ĠØ® ÙĪØ¯
k el
Ġm ell
Ġentire ly
à¤¾à¤ ĩ
om eter
é¢ ĩ
n am
Ġl Äĵ
uh an
}) ^{
çĶ· æĢ§
à«įàª ¤
ç¦ģ æŃ¢
Ġr ah
and on
ìł ģ
çºł çº·
Ġpick ed
áĪ ģ
S QL
ä½ĵ ç§¯
æľī å¤ļ
ĠDevelop ment
Ù ĭ
è´Ń çī©
ĠFin ally
Ġstr ings
Par ameter
Ġed itor
Ġà¨µ à¨¿à©±à¨ļ
æĢĢ åŃķ
ç®¡çĲĨ çļĦ
é¢Ħ æľŁ
Ð¾ Ñħ
à´ ķ
Ġart ist
Ġan i
fort unately
- be
Ġdest roy
z es
up le
æĻĤ åĢĻ
ĠiÃ§ in
Ġmonitor ing
Ġst abil
q t
Ġno ticed
ä»¥ åħį
æ» ¨
å¥½ å¤ļ
op hy
çĶ¢ åĵģ
Ġder ived
Øª Ùħ
D M
ta a
à¦¾à¦ ¦
Ġsou l
Ġb osh
àª §
ĠK er
Ġs á»į
åĸ »
éĺ² æ²»
G l
Ġfac ilities
åį ľ
Ïģ Î¯
H is
Ġroom s
å· ¾
à»ĦàºĶ à»ī
j j
E V
å¯¿ åĳ½
Ġun known
ĠÐ Ĺ
æĢ¥ æĢ§
Ġam in
ĠÎ´ Î¹Î±
åį° åº¦
Ġc um
à¨ ¬
ĠÕ¥ ÖĢÕ
ĠB ox
Ġpro sp
ÉĽ ÉĽ
Ġst a
ĠRe al
ç¦ı åĪ©
Ð½ Ð¸Ð¼
ĠN O
Ġmar riage
Ġcit iz
ist or
æ¼Ĥ äº®
äºĳ åįĹ
è°ĥ çłĶ
. Text
ãģķ ãĤĮ
éĵ¾ æİ¥
ĠIm age
æ³ ģ
è¿Ľ èĢĮ
Ġta im
åħ± æľī
Ġáŀ ¢
Ġsh aring
ow o
Ġfil ms
Ð°Ñļ Ðµ
Ġ$ {
éĢ² è¡Į
è½¦ åŀĭ
Ġt ir
Ġtr end
Ġreal ize
Ġcare fully
éļ¾ åº¦
ĠCom mission
çŁ³ æ²¹
Ä«b Äģ
Ġy ap
Ġdedic ated
Ġt all
. load
Ġshe l
h or
Ġsav ed
Ġexpl an
Ġbig gest
Ġc v
Ø§Ø º
ĠÎ¼ ÎŃ
ĠRob ert
åĽ¾ å½¢
éļ Ľ
ĠÑģ Ð¼
ĠW al
at r
éĢłæĪĲ çļĦ
Ġg ent
à´ £
Ġaut hentic
Ġadminist ration
à® ª
Ġà¤Ĩ à¤¹à¥ĩ
ĠE nt
éĻĦ ä»¶
Ġj Ã¤
se k
U V
ĠC reat
Ġjo ined
æĿĥ çļĦ
ÙĨ ÛĴ
Õ¡Õ¶ ÖĦ
Ġa uf
AT A
è¡Į é©¶
Ġcontrol s
Ġprob ability
Ġur ban
å¤§ çº¦
áĢ±áĢĲ áĢ¬
(" %
ĠÐ± Ð°
çĻ ľ
à²¿à² ¤
Ġad min
ĠGerm an
ĠÅŁ i
Ġdis k
Ġro d
ĠM aj
Ġro ku
Ġà¹ Ĥ
ON T
Ã¡ ch
ç¼º éĻ·
ars er
åįģ ä¸Ģ
Õ«Õ ¯
Ġl ayout
/ >
Ġwind ows
Ġpr oud
Ġlo an
Ð°Ð± Ð¾ÑĤ
à¸ ŀ
×ķ× Ĺ
Ûĩ ÙĨ
.s end
Ġv eter
å¾Ĺ äºĨ
åĽ½ åĬ¡
in ti
Ġre place
ad as
ÙĦÙī Ø±Ùī
Ġj ournal
ĠJ ul
ad h
Rep ository
Ġinvestig ation
i em
ÑĬ ÑĤ
ÑĤ Ñĸ
Ġprom ote
Ġhelp ful
Ġinstit ution
Ġsudden ly
Ġk Ã²
m ic
Ġrequest s
Ġwel come
æº ¢
el j
Ġb ÃŃ
- qu
Ġax is
Ġm ata
Ð ¯
Ġi he
ĠRev iew
Ġad vent
reg ister
_n ode
_ com
åıĸ æ¶Ī
ĠáĢ Ń
st yle
æĤ Ķ
Ġinter actions
æİĴ éĻ¤
Ġj et
Ġm ath
Ġhigh light
ic ans
Ã¨ n
çļĦ ä¼ģä¸ļ
è½¬ è®©
_ url
le ts
ĠS uch
É Ĺ
ed z
Ġpre mi
å¸ ½
i ers
Ġrecogn ized
d ig
EX T
ĠE K
éĥ¨ éĺŁ
à¹ ģà¸
ple x
Ġvis ible
éģĵ çĲĨ
er en
P s
áŀļáŀĶ áŀŁáŁĭ
à´ ¨àµįà´¨
if fer
C N
Ð³ Ñĸ
Ġtell ing
Ġv iz
éĿ¢ åĲĳ
ä¾¿ å®ľ
Ġint ensity
usal em
æĲ ı
Ġfam ous
any ak
è·¯ çº¿
àµįà´ ª
ĠInst ead
Ġy ok
Ġpr ime
Ġprep are
ĠReturn s
ĠC amp
ord an
re y
Ġupd ated
Ġelectr ic
Ġàª Ĺ
Ġbo ost
à¤¾à¤ ¬
Ñĭ ÑģÑĤ
Ġdet ected
àº¡ àºµ
æ³ ³
Ġg aw
èĢĮ å·²
çļĦ å½¢å¼ı
ĠWilli am
Ġaut or
sh ot
æ³ķ å®ļ
ĠM emb
åħ¬ æ°ĳ
Ġsl ot
Ġunc ertain
Hand le
Ġà° ħ
Ġalc ohol
ĠA li
Õ¸ÖĤÕ ½
Ġstr ict
O B
eng o
çĽ¸ ç»ĵåĲĪ
åīį åĲİ
Le ft
Ġp are
C ache
à¦¾à¦ ¬
. assert
Ġold u
´ áłłáłŃ
Cl ose
Ð¸Ð» Ð°
Ġlay ers
Ä± k
Ġcreat es
Ġpar am
cript or
Ġpart ners
ĠF ire
ĠØ³ ÛĮ
æł ĵ
çļĦ ä½įç½®
åı¯ çĶ¨
áī¸ áĭį
ĠvÃ¦ re
Ġà¸ ĩ
èĲ §
ĠÙ¾ ÛĮ
áĢĻáĢ» áĢ¬áĢ¸
Ġat tract
Ġt ash
s is
ç»ıæµİ åıĳå±ķ
Ġf ro
Ġcontinu ous
P od
æĳĺ è¦ģ
Ġb atch
æĬ ĸ
ĠC ard
Ġku f
ä¸į å¤ª
ÑĨ Ð¸
åıĸå¾Ĺ äºĨ
ä¸į åıĺ
éĺ² æİ§
Ġy ra
Ġbel ie
ĠÎ± ÏħÏĦ
à»Ģàº Ĥ
å¯ ¶
é£ŀ æľº
éł ĺ
Ûĩ ÙĤ
Ġh ans
ĠÄ ©
ĠO N
Ø§Ø¯ ÛĮ
åıį å¯¹
à½ĸà¾± à½ºà½ĳ
ä»Ģ éº¼
.Print ln
Eng ine
ä¸Ģæł· çļĦ
àª¾àª ¯
Îµ ÏģÎ¹
( request
åº Ļ
_p tr
Ġabsol ute
C B
(p ath
. __
ä¿Ŀ åģ¥
- ne
is che
éĵ ¸
çļĦ è´¨éĩı
ĠN y
Ġì ł
áĥĲáĥ ®
Ġt mp
te le
é« ĵ
ak ed
ist ant
n b
Ġv am
erson al
Ûķ Ú©
Ġexp ensive
å®ĺ ç½ĳ
ic ate
Ġbod ies
åī ĸ
Ġtin an
Ġassoci ation
ro j
c ut
æĬĵ ä½ı
à¨ Ł
è§£ çŃĶ
ĠTh omas
izont al
ed nes
æĹł éĻĲ
éĿ¢ è¯ķ
å¤§ å¹ħ
ynam ic
è¾¹ çļĦ
ad r
ab at
é¢ ģ
Ġemo tional
in ya
Ġch rom
m á»į
åħ¨ èº«
ist Ã¤
ĠF ore
Äĩ u
Ġocc asion
ä¸į åĩº
Ġtat ou
Ġc ars
à¹ ĥ
ĠáŁ Ĵ
à° ¤
Ġà¶ ¶
Ġsol o
n own
Ø± Ùģ
ĠÑĤ ÑĥÑĢ
Ġst om
Ġb am
Ġturn s
, p
Ġ ìĿĺ
åĽł åŃĲ
Ġcol on
Ġg all
Ġat a
å²ģ çļĦ
×ł ×Ķ
_ text
av lj
áĭ ®
nd a
Ġh ay
ra id
Ġad s
Ġresearch ers
Ø§ Ø¹
Ġfe els
çļĦ åĬŁèĥ½
æī¹ è¯Ħ
áĥĺáĥ ľ
Ã¶ t
Ġprofession als
Ġcircum stances
H an
éĥ¨ ä»¶
G rid
urs day
ĠR om
Ġbl ocks
Ġhor se
ĠÄį lan
ä¸Ĭ åįĪ
ĠDan iel
Ġd ialog
( key
æ¸ ´
åĭ Ł
Ġbus y
æİĴ æĶ¾
ä¼łæĦŁ åĻ¨
G u
^{ *
åıį èĢĮ
Ġp end
Ġáĭ ļ
çķĻ ä¸ĭ
Ġsk up
e ed
f alse
ä»ĺ è´¹
Ġto d
ÙĲ ÙĬ
. Status
ï¼Ł ï¼Ł
ĠMed ical
ĠG en
HT TP
æ°Ķ åĢĻ
ĠG a
Ġne i
) }
aci Ã³
ib Ã©
Ġbel ieved
åĳ Ĩ
Ġyou th
ÄĻ d
áĢ¸áĢ ŀ
åĩ ¸
Ġz m
ÅĦ st
and y
Ġunderst ood
n ab
us ia
/ h
Ġh r
; i
æŃ¦ åĻ¨
ĠlÃ¡ ti
ä¾Ŀ éĿł
ic ago
æ¤ İ
+ "
Ùī ØªÙī
Ġ ..
U RE
. ch
ĠM rs
éĺ Ĳ
ç¼º çĤ¹
éľ ľ
Ġend s
() ).
Ġch uan
æľį çĶ¨
is ia
n ut
Ġtechn ologies
ç¨³å®ļ æĢ§
ues day
un j
Ġanti b
ĠØ¬ ÙĪ
Ġà¦¬ à¦¿à¦
comm od
C al
Ä±nd an
à¨Ĩ à¨Ĥ
ĠH as
Ġim possible
Ġext ension
Ġn ur
Ġkind s
ul in
Ġr ide
Þ ª
Ġaud io
Ġt amb
Ġc yt
Ġl Ã©
Ġ ìĿĦ
ĠØ¨ ÙīÙĦ
Ã¬ ÃŃ
åĿ Ĭ
Ġgrow n
Ġincor por
Ġtr u
( y
à³ģ à²¤à³įà²¤
åķĨ æłĩ
Ġpro ces
V IP
ĠF ield
ĠÐº Ð¾ÑĢ
Ġm wa
Ġrem ark
Ġhistor ical
ow ych
Ġpercent age
p to
Äĳ u
Ġour selves
asc ular
éĸĭ å§ĭ
Ð ¨
ĠÎµ Îº
å® ª
l ang
c fg
Ġgood s
ĠSup er
çĶ¨ åĵģ
åİ ¦
àª ³
áĢ¶ áĢ¯
à·ĥ à·Ĭ
Ġen v
æĹł çĸĳ
Ġz av
Ġhe aring
h older
Ġth ro
èĩ Ń
s ection
Ġpag k
il or
Ed it
S k
Ġ" .
Ġturn ing
Ġcre am
ĠÓ© Ð·
}) =
å¹² æī°
Ġà¹ģà¸ ¥à¸°
. Group
ĠNet work
ĠÕ° Õ¥Õ¿
Ġsc ores
az o
br id
Ġp H
çļĦ ç²¾ç¥ŀ
ut hi
ä¸´ æĹ¶
Ġtum or
ä¸į æķ¢
ib ilities
ä¸ ĺ
ç» ³
æĺ Ĥ
Ġber k
Ġcur ve
ow i
ick en
æµģ è¡Į
ĠL ear
à¤ ĥ
áĢĸ áĢħáĢ¹
ĠMed ic
Ġconsum ption
bl ÉĶ
æµ· å¤ĸ
Ġu y
Ð¾Ñ Ħ
ĠTim es
ĠM S
á»Ľ i
% ;
Ð Ľ
Ġp ump
Î» Î±
Ġez ali
ri um
éħ ¯
à¸ Ĭ
çļĦ æľºä¼ļ
Ġak ka
æĽ´ æľī
Ġacadem ic
Ġn ge
åīį å¾Ģ
Ġr ent
Ġm Ã³s
æ¦Ĥ çİĩ
åĭ ¾
bl ing
ac u
_ ref
Ġrestaur ant
äºº å®¶
Ġs voje
F R
çĭ ł
Î¼ Î±
/ t
Ġk ans
Ġb ash
æĪĲ äº¤
è¼ ķ
Ġam a
ĠáĢ ĺ
ĠØ¨ ÙīØ±
Ġc ities
Ġadv ance
at re
èģ ½
) $$
on k
ç½ ¢
åĪĳ äºĭ
Ġform ula
Ġevalu ate
Ġcard i
Ġex ceed
æ¸ħ çĲĨ
Ġad apt
ĠIs lam
Ġlink ed
ie j
Ġst ability
.b ody
Ġi ÅŁ
_c ode
l Ã¡
ÐµÐ½ Ð½Ñı
æµ ¦
Õ¡Õ Ń
D I
Ġlead ership
ãģ ©
áĢ¬ áĢĢáĢ¹
av an
Val ues
ÐµÐ½ Ð¾
è½¬ åŀĭ
ĠÃł ti
æĸĩåĮĸ çļĦ
ĠA h
éĩĩ éĽĨ
z ek
æĹł çº¿
æ°ĳ éĹ´
ä¸Ģ è·¯
Ġn ine
Pro ject
ĠÑĤ Ò¯
It ems
åŁİ éķĩ
áĢĢ áĢ»
th read
ä¸Ģ ç³»åĪĹ
T ypes
D NA
.l en
Ġexper ts
ä¸į å¯¹
Ġrepresent ed
çº¦ å®ļ
Ġmark ets
çĻ¾ å§ĵ
ç¼ ¸
æł· æľ¬
Ñ Ķ
æľį è£ħ
Ġ" ;
ĠÐ¿ Ð¾ÑĤ
Ġis a
ç» µ
å² Ń
.S ize
Äį ne
ä¸Ģ çīĩ
te v
ç´ ħ
çļĦ æľĢ
Ġout come
å¸ĥ ç½®
æľª æĿ¥çļĦ
å·¥ åķĨ
éĴ ł
D C
. z
Ġcomp ens
ter ior
å¿ĥ èĦı
um Äģ
Ġà¤° à¤¾à¤ľ
Ġa id
Ġfr Ã¥n
Ġo xygen
èĭ į
ĠÐ³ Ð¾
çļĦ æĦŁè§ī
Ġrepresent ation
äº Ń
ï¼ļ ãĢĮ
ç¨ »
å®ŀ ä½ĵ
åĴ ½
Ġcent re
at ural
æº «
Ġes p
ĠÙħ Ø§
éģĹ ä¼ł
am ples
à° ¸
Ġthous ands
×ķ× §
Ġequival ent
à¯ Ģ
v ik
æĿĥ å¨ģ
Ġed he
Ð¿ ÑĢ
è®¾ å®ļ
Ø§Ø¯ Ùĩ
s ed
spec ific
åĤ ²
e en
ag ger
Ġro of
å½¢æĪĲ äºĨ
Ġcruc ial
â Ķ
ç»Ħç»ĩ çļĦ
bur g
z ym
enc i
Ġcl othes
ab al
Ġap a
åĲĪéĢĤ çļĦ
áī ¢
Ġwit ness
è ł
. use
Ġd j
ĠÕ ¬
ĠØ§ÙĦ Ø¯
Ġin her
Ġcr ack
ab an
áł¡áł ®
.in ner
Ġcorrel ation
å¤į åĪ¶
ĠSt ar
] ]
å°Ĩ åľ¨
cl aim
Ġfoot ball
Ġabs ence
Ġvel ocity
um o
Ġ< !--
Ap plication
æī¿ åĮħ
W S
ä¸Ĭ æľī
ä½ĵ åĨħ
ĠPa ulo
áŀ Ĵ
í ĸ
Ġà¬ ®
è¡ į
ì Ĩ
ĠO s
å¤ ķ
ĠØ¯ Ùĩ
èĬ¯ çīĩ
Ġcont rolled
Ã¼ t
im ary
ĠDirect or
ç®Ģ ç§°
w ÉĶ
Ġactiv ation
å¼º å¤§çļĦ
æ¼Ķ åĳĺ
Ġfo i
Ġauthor ity
form ed
ĠMal ays
çļĦ æľī
Ġt ÉĻ
Ðµ Ñħ
Ġind epend
ä¸Ńåįİ äººæ°ĳ
Ġz na
ĠÐĲ Ð»
ip h
Ġsp at
çļĩ å¸Ŀ
bul let
áł¤áł °
ti z
áº¿ n
ÑĮ Ð°
ĠPl ay
Ġne be
ĠÕ¨ Õ¶
à½ł à½
ï¼Į ãĢĬ
aren ess
On ce
oj en
Ġà° ¸
àª ¬
( str
n n
ĠF ort
åį ¢
t ur
à¦ ļ
ol umn
æ³¢ åĬ¨
æ¶Ī æ¯Ĵ
ed ge
y en
çłĶç©¶ çĶŁ
æŀĦ éĢł
ĠÄįl Ã¡n
oun try
ot or
Ġrelig ious
æĤ Ħ
he ter
Ġinterest s
ä¾ĽåºĶ åķĨ
in an
Ġg em
Ġáł ´áł¢áł
sum mary
ĠGerm any
å®¡ æī¹
Ġs amp
Ġne Ê¼
Øª ØŃ
áĤ ĩ
æł ½
Äģ l
Ġsh ook
Ġà² ĩ
Ġth reshold
åıĳ çļĦ
Ġvol unte
Ġth or
Ġestim ate
Ð½ Ð°Ð»
ĠH y
å¥³ åŃĲ
åĳ½ è¿Ĳ
à® ¨à¯įà®¤
åİŁ æľ¬
áŁģ áŀŁ
Ġrece iving
Ġcho ices
Ġm ouse
% )
ail ability
è§Ĥ çľĭ
g Ä§
å¯Ĩ å°ģ
ĠCar ol
ÑĬ Ð»
Ġwid ely
Ġmolec ular
Ġhet an
elij k
l ic
å®Ĺ æķĻ
ç¬¬ åħŃ
æī§ æ³ķ
_l og
à¤¯ à¤¾
.m odel
ĠK it
Ġposs ess
çĻ½ çĻľ
à¥įà¤ ª
Ġid entific
ĠÄ Ĳ
Ġpar allel
å£ ĵ
am era
on ym
.cl ose
re al
Ġcont ained
à·Ļ à¶±
ç¼ Ĩ
ad min
áģ ¿
à¥ĩ à¤²
Ð» ÐµÐ¼
Ġspe ech
Ġprom o
è¿Ŀ åıį
ut ter
. *
è½¦ çļĦ
Ġvalu able
ĠĊ Ġ
Ġbe ar
Ġden ne
Ġàª® àª¾àª
Ġsol ve
ĠÚ© Ø§
ãĢį ï¼Į
Ġemploye e
å¥ĭ æĸĹ
ednes day
Ġspirit ual
ç²¾ åº¦
ÑĸÐ½ Ð´Ðµ
çļĦ åıĳçĶŁ
ç½ĳ é¡µ
àºĻàº µ
Ġbeg ins
åĢŁ æ¬¾
ir k
v s
p ap
ĠAn other
rap per
å¤ĸ åĽ½
Ġresid ents
y at
ĻáĢ» áĢ¬áĢ¸
Rec ord
Ġg az
E very
ĠT em
Ġautom atically
ĠT R
åĪĽ æĦı
Â ®
åľ Ĵ
æĥ §
ä¸ĩ äºº
Ġte a
( F
èĨ Ģ
ãģª ãģĦ
èŁ ¹
d ouble
áĢĲ áĢļáĢ¹
ç¬¦ åı·
åºĶ åĬĽ
Ġk ter
Ġelectr onic
Ġun f
est r
éŁ ¿
ĠAn n
áĢĲ áĢ¼
à·ı à·Ģ
Ġrefer red
ç§© åºı
}}{ \
A uth
Ġacc um
ĠR oman
n ormal
æľįåĬ¡ çļĦ
ä¼ģ æ¥Ń
æł· åĵģ
Ġg it
Ġà² İ
Ġspe aking
Ġs aka
Ġp up
Ġh ap
éļ ¨
å¸Ĥ æ°ĳ
åŀĤ çĽ´
æīį ä¼ļ
ĠPar is
æĪĳ ä¼ļ
ä¸į ä¸Ĭ
ĠI ll
osph ere
áĢĦáĢ· áĢ¹
ĠO ld
od u
Ġn ative
áĢĶ áĢ¾
çĻ½çĻľ é£İ
Ġdes k
Ð½ Ð¾Ð¹
p in
æħ ĭ
é«ĺ æ¸©
à¯ģà® µ
G ood
ih an
çŃī çļĦ
Ġdis appe
E le
Ġoptim al
Ġcon vert
æĪĳ åĴĮ
Ð°Ð½ Ð¸
çĨ Ķ
AS E
Ġs ick
Ġbl ank
Ġpoint ed
Ġà¹ ĩ
Ġad ap
è¿ĩ åº¦
Ðº Ð¾Ð»
éģ ®
Ġà¤ħ à¤¸
amb iri
å® Ļ
Ġol an
ul f
duc ts
éº» çĥ¦
éĶ ¡
_ user
áĢĻ áĢºáĢ¬
ER S
g ent
ĠØ¯ ÛĴ
Ïģ Î³
Ġiy ang
Ġsec tions
Ġclos ely
çŁŃ æľŁ
à¤ ¢
ç¾ ©
ak as
è¿Ļä¸Ģ çĤ¹
Ġhyp othes
ĠÄ ī
Õ¾ Õ¡Õ®
è¡¨çİ° ä¸º
Ġc ache
ĻàŃįà¬ ķ
ĠFound ation
Ø¯ Ùħ
Äģ j
ê ±
ì ¹
áĭ ±
S ince
ĠÙģ Ø±
Ġb ought
ç¥Ŀ ç¦ı
æ¥ µ
áŀĵ áŁĴáŀ
an im
à¤ Ĩ
ÅĽ Äĩ
åĽ½åĬ¡ éĻ¢
à´¿à´ ķàµįà´ķ
es tic
å¤ļ æķ°
Ar gs
çŀ¬ éĹ´
ane ous
y tt
Ġg ender
\% )
ac o
v ec
áĥ §
éĻ ķ
v aj
ç³ĸ å°¿
Ġmom ents
_m ut
Be fore
í Ļ
h ay
ä¾Ľ ç»Ļ
éĤ ĵ
Mat rix
Ġb aw
ĠC ong
æ¨¡ æĿ¿
è¿ĩ äºİ
Ġb rown
æĻ ķ
Ġword t
ĠM icrosoft
à§ Ĥ
Ġt rib
ä¸º æŃ¤
Ġtem por
æĮĩ ç¤º
æłĩ çŃ¾
Î Ł
Ġown ers
Ġch ronic
ä¸Ģ çĶŁ
for c
Ġ$(" #
åĬ¨ çĶ»
$ (
æŁ ı
à«ĩàª ²
r á»¥
Ġshop ping
Ġà¦ ī
Ġsor ry
ÑģÑĤ ÑĢ
éľĢè¦ģ çļĦ
c ar
Õ »
k az
×Ļ× ¢
Ġst ead
ĠEn ter
åį »
_ form
Ġor az
Ġa ya
ĠRep ublic
Ġdise ases
Ġcap able
åĿĲ æłĩ
à½Ħ à½¦
Ġdecre ased
P ool
æĸ¹ ä½į
Ġà¤¹à¥Ī à¤Ĥ
à¤¾à¤¹ à¥Ģ
Ġbr ings
Ġr Ã©
B ytes
ab etes
Ġk ona
áŁĴáŀļáŀ ¼
ĠØ£ ÙĨ
pli ance
l g
m ail
Å¼ y
tir ish
Ġis i
. error
Ġcompos ition
ut uk
ÑĢ Ð°Ð·
ĠS ing
ĠÐ¿ Ð¾Ðº
ir ty
æĹł äºº
å¢ŀåĬł äºĨ
åĪĹ è¡¨
Ġma f
ĠÓķÐ¼ Óķ
ĠÖ ħ
Ġvari ation
åĲ ĵ
Ġkam ap
Ġop posite
Ġfour th
èĬ ¬
_in put
ĠU RL
ê ŀĮ
åı¥ åŃĲ
Ú¯ ÛĮ
Ġmor al
åľ°åĮº çļĦ
ip ada
ok es
Ġhum ans
Ġd ÄĹl
Ġst ri
éª Ĥ
Ġcy cl
åįı åĬ©
ĠM ass
Ġcons ists
æŃ ¡
áĢĲ áĢ²áĢ·
ß «
å¦ ĸ
ä¸Ģ åľº
åĦ Ĵ
iy os
åįĩ é«ĺ
Ġsub str
Ġag ency
åģ¥ åħ¨
Ġd ÉĻ
' l
ĠK u
Ġm ult
æľī åı¯èĥ½
Ġu ved
ÑĸÐ½ ÑĸÒ£
adi us
à° ¦
è£ ¤
Ġs Ãµ
éĽ Ļ
Ġp us
à´ ¸
à¤¾à¤ ¥
æĸĹ äºī
ÙĬ Ùħ
il arly
und i
Ġbene fic
Ġuch un
à·Ķ à·Ģ
æ¬¡ æķ°
Ġin ap
Th read
æĪĳä»¬ è¦ģ
à¯ Ĥ
á»© c
Ġc ategories
igh ter
E A
å°ı åĮº
å® ´
Ġà¶ Ķ
j á»į
Ñĭ Ð´
Ä¡ i
Ġsign ed
_ all
Ġmil k
pp ing
Ġdiffer enti
() ))
ÛĪ ÙĨ
ac cess
Ùī ÙĨÙī
Ġdog s
çª Ħ
Ġv acc
éħ µ
àŃį àŃŁ
Ġj Äģ
Ã¼ z
w el
çĸ ¯
w á»į
ĠH ospital
à§į à§°
In teger
áŀ¢ áŁĴáŀĵáŀĢ
ĠCent ral
ç¿ ł
Ġabsol utely
n ership
Ġext ensive
ä¸ľ æĸ¹
Ġs enior
à½´ à½Ĥà½¦
Å¾ u
Ġgreat est
èĬĤ èĥ½
_t oken
Re ference
w eni
çİ°ä»£ åĮĸ
åı¯èĥ½ æĢ§
Ġar rest
Ġfl ight
àº ®
æ¡ ©
à½´ à½¦
è´Ł æĭħ
ĠP RO
Ġc Ã¡c
od d
Ġá ¹
Ġass istance
à¬ ¸
Ġbu f
G R
ner gy
ĠDef ault
Ġeduc ational
à§ĩà¦ Ľ
çĶ³ æĬ¥
è´ º
Ġcon ference
à¨¸ à¨¼
IC E
ler i
M ock
à²¾à² ¦
J son
ĠC A
åľ¨ ä¸Ģä¸ª
äºī åıĸ
à¸µ à¸¢
_ res
æ¶ ¯
Ġcont ribute
Ġimag ine
Ġ Ð°Ð²
- level
Ġdest ination
Ġsitu ations
Ġpred ict
è¾Ĳ å°Ħ
éĩį éĩı
Ġacc eler
Ġcomprehens ive
ĠJ on
Ð½Ð¾ÑģÑĤ Ð¸
åĢº åĪ¸
ĠÐ¸ Ð»Ð¸
å¥ ´
Ñĥ Ð³
ell i
à¥ĩà¤ ĸ
w est
Ġà¤® à¤¹
Ġc art
Ġsugg es
Det ails
ç¾İ æľ¯
Óķ Ð´
ç²¾ åĩĨ
à¶¸ à·Ĭ
Õ¡Õ ·
Ġorgan is
æī¿ è®¤
Ã³ k
B O
si i
Îº Îµ
à¸ ģà¸
r áº¹
æĵ ħ
aw ay
å¼ķ è¿Ľ
ĠAfr ican
ĠOn line
sh ir
æĪª èĩ³
ãĢ ı
s ti
åĬ Ŀ
ģ áĢ»
ĠH ill
at ang
LE CT
{ x
áĢºáĢ Ģ
çľĭ èµ·æĿ¥
T V
à¥ĩ à¤°
az z
åĴĮ å¹³
ĠD own
éł Ĳ
à»ī àº§
Ġst ars
Ġre ct
ìĬµ ëĭĪëĭ¤
Ġà¸ ¢
ĠÚĨ ÛĲ
åĨħ å¿ĥ
ul er
ag ar
é ĭ
Ġprom ise
èħ »
az ione
çļĦ åŃ¦çĶŁ
åħ¨ å¸Ĥ
åıĺ æĽ´
à¤¿à¤ ¹
å½¢æĪĲ çļĦ
åĶ ĩ
çº· çº·
à»ĢàºĽ àº±àºĻàº
Ø¹ ÙĦ
ter y
Ġis land
em ia
åįı åķĨ
Result s
Ġà¤ ¡
Ġbo ys
Ġocc urr
Ġk ed
Õ¸Õ ½
Ġg ate
ÄŁ i
æľĢ å¤ļ
Ġco ast
Ġhouse hold
à¤¤ à¤¿
he ll
å¼º åĪ¶
er ts
p ak
Ġac know
æİĪ æĿĥ
Ø§Ø´ Øª
W E
ist r
Ġch annels
æĸ° çĶŁ
ĠW estern
ĠÕ§ ÖĢ
im Äħ
å®ŀçİ° äºĨ
ur d
Ġst ores
æº ĥ
doc ument
áĢ± áĢ·
åĩ ¶
af a
oc us
. join
Ġbe at
ach o
áĢ¬ áĢĽ
à¨¦ à¨¾
G ET
M C
Ġf ak
Ġb ango
C ar
Ġafter noon
Å¼ i
åĪĨ æķ°
B P
Ġs atu
Ġd ana
Ġfor th
ĠJ ac
is per
ĠØ¨Ø± Ø§ÛĮ
æĺ¯ éĿŀå¸¸
b our
ĠB ase
áĢŀ áĢ°
à³ģ à²¦
ok ing
åįķ çĭ¬
áŀ» áŁĨ
aj n
ah i
Ġdirect ory
Ġper m
ç´¯ è®¡
S ettings
Ġenh ance
æĸ° é²ľ
ä¸į å¼Ģ
ks i
Ex ec
ç»Ļ ä»ĸ
Ġcommon ly
C a
ä¼ļ ä¸Ĭ
à¯įà®ķà®³ à¯į
áł ´
ĠÂ ·
Ġk Ã©
ĠÛģ ÙĪ
æ£Ģ å¯Ł
Ġjud g
Ġand re
S H
, \
Ġ ÏĨ
Ġde k
èĲ¥ éĢł
ĠJ oh
à´¿à´ ²
ha ir
ra ham
èĳ ±
l ut
ject ed
ä¼ł å¥ĩ
ĠÐº Ð°ÑĢ
Ġassum ed
è¸ ©
Ġans wers
ĠÐ» Ñİ
c or
- ex
Ġemploy ed
à½ĵ à½²
æķĻèĤ² çļĦ
ä»¿ ä½Ľ
Ġfav our
Ġì ķ
Ġn ke
åĲİ æľŁ
å½ĵ å¹´
Ġgr ade
æ© ¡
Î¼ Î²
Ġod d
is hes
Ġmat ches
æĬķ æłĩ
åĶ ¤
ĠF ind
Ġu w
Ġáŀ ĸ
k um
æģ ¼
ä»¬ çļĦ
áŀ ¡
d ec
b ab
Ġmo le
çĶµ åķĨ
Ġdeg rees
æľ¯ åĲİ
ĠCon fig
AB LE
_ ID
å¹ «
.doc x
áŁ į
\ begin
ä¸Ģ å¼ł
è¯¯ å·®
éŃħ åĬĽ
äºĭ çī©
Ġma is
Ġenc ounter
ç¶ Ń
æ²³ åĮĹ
Ġde fer
ä¸Ģ åıª
ç¬Ķ è®°
in ar
Ġta u
Ġáĥ Ļ
Ġd ict
æĸ° èĥ½æºĲ
Ġcon cer
Ġà® Ĩ
Ġprze z
ĠÛĮ Ú©
ym ph
Ġsurpr ise
Ġcont ents
.L og
Ġd ump
Ġsens itive
Ġn Ãº
ib u
Ġne ither
Ġder iv
ial a
ĠáĬ «
ĠØ´ Ø¯Ùĩ
ĠGr and
ĠÒ ±
ìĻ Ģ
à®¿à®© à¯į
Ġc ogn
un z
ä¸įä»ħ ä»ħ
åĽŀ å½Ĵ
O s
Ġl agi
éĥ½ å¾Ī
Ġfr action
å· ¢
ä¸¤ å¹´
æ¬£ èµı
Ġsurv ival
ä½ł ä¼ļ
que ue
qu ired
éĮ ¢
Ġfun k
ju Äį
Ð² ÐµÑĤ
uz z
æĿ¡ ä¾ĭ
i at
ĠN umber
ach ine
Ġpr ison
Ġprot ocol
anc el
G L
éŁ© åĽ½
æľŁ æľĽ
ãĢ İ
ĠUni vers
} :
åŃĹ ç¬¦
èĳĹ åĲį
k es
Ġmechan isms
ĠFlor ida
W riter
åľ¨ å¤§
Ġess ay
ĠÏĢ Î±
re ction
IT Y
-s ize
. insert
leg al
æĺ¯ è¦ģ
áł¤áł ³
B I
æĺ ı
èĪ Ł
Ġfa ult
ĠĠĠĠĠĠĠĠĠĠĠĠĠĠĠĠ ĠĠĠĠĠĠĠĠĠĠĠĠĠĠĠĠĠĠĠĠĠĠĠĠĠĠĠ
Ġco ach
åĲ ŀ
Ġno ve
Ġre put
ĠSh ow
ìĹĲ ìĦľ
Ġwe aring
ad ian
æĺİ çļĦ
Ġbr anch
éĺ ģ
Ġrow s
ç³ĸå°¿ çĹħ
æ´» åĭķ
áŀĽ áŁĭ
æĢ» ä¹ĭ
Ġun able
Ab stract
ĠáĢķ áĢ¼
æĭĽ çĶŁ
ĠÅ¼ e
äºº åĴĮ
à¹ī à¸²
b id
ĠØ³ Ø±
Ġmal u
Ġcour ses
éģ Ĥ
ugg ed
ĠMul ungu
é«ĺ è´¨éĩı
ä¾¿ åĪ©
Ġspectr um
åı¯ æĮģç»Ń
å¸¦ åĬ¨
lection s
"" "
Ã¤ tt
( !
F P
ëŁ ¬
c ie
ĠR ock
Bu ild
ch ing
.in fo
ĠP op
ĠI l
_ result
å±Ĥ çļĦ
w rite
r m
omb re
æĽ¿ ä»£
ÉĻ k
æ·ĺ å®Ŀ
çĻ¼ å±ķ
ä»Ĭ åĲİ
Ġv es
. K
b ind
é£İ æĻ¯
ç©¶ ç«Ł
ic tions
å¤į ä¹ł
Ġprom pt
èĪŀ åı°
ĠJ esu
lig e
z in
é¥ ²
å« ģ
Ð¸Ð½ Ðµ
Ġcont roller
¯áł Ń
Ġimp ress
n Ã¡
Ġsp ending
IG HT
âĢĻ .
Ð¸ÑĢ Ð°
. update
( get
Ġk ud
C ard
åıĪ æľī
Ġdi verse
Ġgre w
çļĦ åºĶçĶ¨
Ġobj ective
ÚĨ Ûķ
Ò ¡
ĠT ra
Ġconsum ers
çª Ŀ
Ġta ik
Ð¾Ð½ Ð¸
áĬ ¸
Ġfeel ings
Ã İ
ĠK ore
âĨ Ĵ
ĠOr der
áĬ Ľ
comm and
æľ ´
Ġng an
ĠAc adem
ĠÐ± ÐµÐ·
e be
ĠSte p
ab ul
Ġm ÉĶ
ĠCommit tee
ĠW ord
Ġinstruc tions
çĻ «çĹ
æĺİ æĺŁ
Ġfund ing
ra h
Ñī Ðµ
æ¸ £
ĠØª ÛĲ
Ġáłª áł£áł
çĭ ±
Ġtell s
Ï Ī
ÐµÑĢ ÑĤ
Ġexam ined
ĠÙħ Ø´
Ġfre edom
OR M
Êĭ Êĭ
ĠC S
Ġq ar
Ġli ver
ke j
Ġm erc
æ°´ æ³¥
çĻ«çĹ «
Ġto ler
åĲ ķ
ĠR ef
éĻĦ åĬł
. tr
Ġn Ãµ
v ens
( H
ĠbÅ« ti
Ġinvol ves
Ġreli able
ĠØª Ø§
t et
Ġfe e
Ġmenj adi
æ¼ ł
à® ´
l ers
é ĳ
éĹ ·
à¥ģ à¤²
idel ines
å»¶ éķ¿
è¦ģ æĺ¯
ia ÅĤ
Ġà¸ Ķ
Ġse perti
Ġ×ķ ×Ķ
_ error
k og
æĹ¥ çĽĬ
. ap
Ġfriend ly
ah u
Ġà¹ Į
çĶ· åŃĲ
Ġreason able
cul es
Ġpost s
at akse
n h
ĠÏĦ Î¿Î½
Ġ Ð°Ñģ
Ð´ Ñĥ
á» Ŀi
ce ived
Ġem bed
im an
Ġg amb
à° ¯
t at
Ġcon duct
j ak
Ġh id
ä¹Ł ä¸įä¼ļ
ek i
ĠØ¦ Ø§ÙĦ
æĴŃ æĶ¾
M any
åĽ¾ä¹¦ é¦Ĩ
Ġson o
è¾ħ å¯¼
¡ à»Ī
Ġl uk
åĲĥ é¥Ń
Ġmembr ane
Ð´ Ð¸Ð½
è®© åŃ¦çĶŁ
çļĦ ä»·æł¼
ens us
Ġox id
Ġte h
àº» àºĻ
ĠCont rol
por ter
à½´ à½ĵ
çļĦ åħī
è¡¥ è´´
ģ àº²àºĻ
Ġs ql
Ġcommit ted
Ġman ifest
Ġex posed
Ġpre f
n el
Ġvide os
ĠEx ception
do or
Å į
Ġmur der
ĠÐ± ÑĸÑĢ
Ġn urs
ĠÏĦ Î¹ÏĤ
Ġv ess
Ġk áº¹
ÏĮ ÏĤ
Õ¡Õ ¤
em porary
W idget
m Ä±ÅŁ
b as
à½ł à½Ĥ
å¾Ĺ åĩº
r us
r ich
è¿ĳ æľŁ
èĨ ¨
} H
' un
Ġf ond
Ļàµįà´ Ļ
Ad apter
Ġac commod
ç¾İ å¥½
run time
ìĦ ±
æ·± åĮĸ
éĢļ è®¯
. Un
Ch annel
p is
çļĦ çĥŃ
åł ª
çĮ İ
çŁ© éĺµ
Ġso le
ĠÏĥÏĦ Î¿
ÙĤ Ø±
å« ©
è´« åĽ°
çĵ £
ul ing
ÒĽ ÓĻÐ°
è´ ¾
Ġàª ¥
Ġw ie
amb il
ĠB es
Ġan c
Ñį Ð»
ç¬¬ä¸ī æĸ¹
ĠÕ ¦
ë© ´
s rc
ĠJ ournal
Ġdist ingu
Ġmag netic
Ġarr ang
uc ed
áĪ ŀ
äº¿ ç¾İåħĥ
Ġanaly zed
ä¿ ±
å¦» åŃĲ
Ġ×ĳ ×Ĳ
ĠA L
_ con
à¤ķ à¤¾à¤°
Ġse u
è®¢ åįķ
' ny
et her
Ø³ Ø§
In valid
Ġcol our
Ġà¤¹ à¤®
ĠK at
Ġemerg ency
Ġr ac
Ã¨ t
áĢ¬áĢ¸áĢ ŀ
Ġris ks
å° ¸
Ñħ Ð¾Ð´
Ġne ur
Ñĭ Ð³
æĵ ĩ
ä¸ľ åĮĹ
áŁĴáŀ ĭ
ä¸Ń èį¯
ÑĤÑĮ ÑģÑı
è¿ĳ æĹ¥
å¼Ģ äºĨ
A ct
ĠÐ½ Ð°Ð´
Ûķ Ù¾
R el
Ġdeliver ed
Ġb inary
led e
åľ° åĽ¾
åħ¬ çĽĬ
ç« Ń
Ġt one
å± ¤
o q
ĠN eg
Ġclean ing
åı¯ çŁ¥
st vo
Q Q
àª ¡
S elf
W rite
èµĦæºĲ çļĦ
ach a
Ġstrong ly
áĥĶáĥ ł
å·® è·Ŀ
qu ire
áģ ĥ
ä¸į è§ģ
} ",
ĠÑ İ
Ġbu at
id wa
áŀ Ĵáŀ
l ength
çļĦ è¡¨çİ°
Time out
cont ent
à¹ Ħà¸
Ġread ers
Õ´ Õ¡Õ¶
åĽŀ å¿Ĩ
Ġl ia
Ġàª Ń
ĠMed ia
åŃ¦ ä½į
ym bol
Ġtrans mission
Þ ¨
Ġsp an
y ang
åŃ£ èĬĤ
umi em
Ø¬ Ùĩ
çº³ ç¨İ
æĵ İ
AT H
m Ã¤
çĸ ¹
Ġpas in
Ðº Ñĸ
èĥ½ åĲ¦
M ut
iy at
Ġok ay
æīĵ ç®Ĺ
Ġm bi
áº¥ t
add ress
St ud
çŃĸ åĪĴ
éĽ ĸ
áł¡ áł¢
ä¸ī å¤§
ĠÑĢ Ð¾Ð·
Ġli ik
Ã¡ ly
Ġuni versity
ä¸į ä¹ħ
è®º åĿĽ
ĠÐ¾ Ð½
æľī æĹ¶åĢĻ
A k
und u
c all
g j
åıĳçĶŁ çļĦ
á½ ¶
Ïģ Î¬
æľĪ çļĦ
ung i
ec i
åĪĨ æķ£
à¤¤ à¥įà¤¤
ä¸įå¾Ĺ ä¸į
çŁ £
åı¯ä»¥ çĶ¨
ĠN ov
iss ions
ĠC as
ĠW ood
st ar
ĠF ar
Equ al
Ġsk ill
ĠÎ± ÏĢÎ¿
Ġtr ong
O ST
ĠP s
ĠE R
Ùī Ø³Ùī
ĠPro v
à² £
N y
ĠAd minist
Ġlet ters
à¥ ¨
Ġkat ika
Ã¶ d
ë ²
ĠS pan
Ġy ellow
ĠK a
Ġs ake
é¤Ĳ é¥®
åİļ çļĦ
Ġorder ed
ĠØ¨ Ø§Ø±
y cle
èĸ ¦
Ġbuild ings
ÑĢ Ð°Ð¼
ev a
ĠS erver
im ages
P assword
V C
An other
åĨ· åį´
Ġw Ãł
Ã¨ h
çİĩ ä¸º
è¾ĥ å¤§çļĦ
ë¶ Ģ
_ per
ĠM un
uri ous
Ġmedic ine
ĠÐ¼ Ñĥ
áŀī áŁĴáŀ
Ġle h
Pro xy
à¥ģ à¤®
àµįà´ ļ
Ð¾ Ð¸
ĠÎ ¹
à¯įà® ļ
æī« æıı
ir y
ä½ı å®ħ
st ore
Ġrec ru
Im pl
àªµ àª¾
ĠGl obal
M D
åĪĴ åĪĨ
à½² à½¦
ĠSc ott
áŀ º
au x
ç° ¡
æ¹ĸ åĮĹ
Ġclass ic
Õ¡Õ ¢
çĤİ çĹĩ
iction ary
à¥ ī
Ð» Ð°Ð²
ink ed
Trans action
çļĦ æľĭåıĭ
Ġz imene
æĳĦ å½±
à°¿à° Ĥà°
Ġshe et
Ġsol ar
å¼ ¦
è¿ĩ æķı
Ġro se
ĠS ir
Ġsurround ing
d on
ä»ĸ æĺ¯
up ela
åįģ åħ«
ol ament
' ))
æİ ©
r á»į
Ġr w
Ġj s
- line
á± ļ
ç¼ĸ çłģ
Ġb antu
èĭ¥ å¹²
åĳ¨ è¾¹
åŁ¹ èĤ²
r ig
Ġc ock
T otal
Ġm ock
de lete
æ½ľ åľ¨
ĠC re
çĶµ éĺ»
Ġrez ult
are t
Ġsub mit
T i
åİļ åº¦
Ġsp aces
×ķ× ¦
ĠCon st
Ø³ Ø§ÙĨ
Ġsz er
áº¿ t
á¸ į
é¡ ¯
åĢ¾ åĲĳ
id za
ĠRich ard
å®ĩ å®Ļ
v ant
Ġmin imal
Ġadd s
( X
åĲ« ä¹ī
Ġa ke
ç Ģ
æľº åľº
Ñį Ð³
U ni
n as
ed it
R ange
ĠØ¦Ùī Ø´
ĠMalays ia
à½ĸ à½łà½²
ĠCh icago
ste in
Ġkon k
Ġà¹Ģà¸ Ľ
Ġat as
Ġin line
æŃ£ è§Ħ
Ġd ance
Ġkom pet
/ f
Ķ áĢ¾
ĠÐ¸ ÑĪ
KE Y
.c urrent
å¡ ĺ
çĭ Ń
ĠáĢŃ áĢ¯
Ġsubsequ ent
R ule
ä¸» å¼ł
áŁĨ áŀĸ
Ġt ank
Ġmat ters
çļĦ æīĢæľī
Ð² Ð°ÑĤ
å¦ ¨
èµ Į
åŃĺ æ¬¾
as ha
n ed
rou ter
æľĪ ç»ı
ans o
èĩ´ åĬĽ
C K
Ġgl ad
æķ ²
Ġ×© ×Ķ
Ġgene tic
Ġtot ally
æĦŁ åıĹåĪ°
å°ļ æľª
Ġv ital
à¶º à·Ĵ
ĠØ® ÙĪ
Ġsim ulation
atas et
áī ķ
Ġimplement ed
Ġbe ach
æĪĲ å¹´
ìļ °
èİ ī
Ġdo ors
ort ed
åħ³ç³» çļĦ
à©į à¨°
ĠL in
åĺ ±
é¹ ¿
Ġvill age
ed u
Ġà¨µ à¨¿à¨
Ġbu ying
b ound
Å¡ anu
ìĭ ł
Ġsup erv
ĠT u
çĶŁ æĦı
è¯ Ī
Ġstruct ural
è§Ħ æł¼
Ġhe s
åŃ¦ å®¶
Ġinstitu tions
Ġany where
ĠB il
å¸ ķ
æĳ Ĭ
ĠÙħ Ø¬
éħ ±
ens a
Ġd á»ĭ
M T
ä¸į å¤§
åĮ» å¸Ī
à¤¾à¤ £
Ġf ur
Ġk ob
åıĳçĶŁ äºĨ
k us
G en
Ġreduc ing
Ġtag ata
à®¾à® ²
ĠÐ´ Ðµ
Ġá» ¥
ĠA ction
à¨¾à¨ ¨
Ġsupport s
Ġsup erior
Ġshe ll
Ġgu id
Ġsign als
Ġs ana
Pro perties
er on
çī© ä¸ļ
å¹¿ åľº
Ġsh um
Ġà¤ķ à¤¾à¤°
çļĦ çĽ¸åħ³
Ġvolt age
Ġs izes
e i
Ġdar ipada
= -
Ġlim its
çļĦ æľįåĬ¡
Ġbound ary
Ġgu ests
åª ½
ĠØ¨ÙīÙĦ ÛķÙĨ
Ġc ru
ili ya
æĿŃ å·ŀ
Ġtemper atures
Ġinc ident
Ġcommit ment
Artik olu
ä¸» äºº
Ġà¸ ļ
ec utive
l on
æ§ ĭ
å®īåħ¨ çĶŁäº§
Ġg ed
lar Ä±n
Ġà²ª à³įà²°
ĠTechn ology
å¸¦ æľī
×Ļ× ĺ
Ġter se
Ġro les
Ûķ Ø³
æĽ´ é«ĺ
Ġinstall ed
Ġë ĵ
ĠPh il
æĹ¶éĹ´ çļĦ
è¿Ľ åİ»
æ°Ķ çļĦ
Ġch ief
- W
_l ength
_f or
à¤Ĥ à¤Ĺ
Ð°ÑĢ Ð¸
è³ ½
Ġà¦ °
áī ¡
è¾¹ ç¼ĺ
t emplate
Ġpot reb
ĠØ¢ Ùħ
++ ){
Ġdist rict
Ġà° ¨
ĠÐ± ÐµÐ»
Ġtherm al
ĠLe ague
Ġuku ti
Û ³
Ġag ric
Ġà¦ Ń
Ġs ys
Ġbehavi our
Ġ Ð°ÑĪ
à¤µ à¤¾
zÄħ d
Ġim per
åįı ä½ľ
è¿Ļ ä¹Łæĺ¯
Ġre h
ĠM aster
Ġà´ ®
Ġàº ŀ
ĠL os
Ġfac ility
Ġt unn
Ġappro ved
Ġque ue
. k
è¶ħ è¶Ĭ
å§ĳ å¨ĺ
çĦĬ æİ¥
æİ¨ èĸ¦
Ġcl ock
ik ir
Ġwa x
Ġvi en
Ġn arr
èĲ Ŀ
Ġsens or
åħ ĳ
Ġ ãĢĲ
å² ³
ag g
å¤ĸ è§Ĥ
ol j
ot he
Ġrel ief
Ġt f
Ú¾ ÛĮ
çļĦ åİŁåĪĻ
Ġsh arp
Ġstr ain
Ã© nek
åĮĸ å·¥
Ġsome what
çºª å¾ĭ
à¦ Ń
æĶ¶ èĹı
ĠÚ© Ø§Ø±
Ġre ward
æĪĲåĬŁ çļĦ
Î¸ Î·
Ġt ung
N ote
_ err
Ġbring ing
ä¸ĵ çĶ¨
ãĤ Ħ
è¯´ äºĨ
çķ «
Ġf ellow
Ġ×ľ ×ŀ
Ġass ign
Ġt art
çĩĥ çĥ§
Ġintegr ation
Ã ļ
Ġdef end
äº¤ å¾Ģ
ä»İ æĿ¥
Ġp ig
ç»Ī ç«¯
ä¼ĳ éĹ²
oj o
ĠF ood
åĴĮ åıĳå±ķ
D an
A H
Ġhad de
( req
Ġáĭ °
V i
un o
ter a
ard e
Ġmag ic
åĨł åĨĽ
Ġass ets
Ġk ult
Ġáĥ Ķ
Ã® n
Ġsil ver
æµª è´¹
Ġinstit uc
éħį å¤ĩ
Ġbe k
Ġst ages
l os
Ð°ÑĨ Ð¸Ñı
ä½ı äºĨ
Ġfor ma
ĠG ar
W ho
Ġsh a
æĪĸèĢħ æĺ¯
j est
åŃĲ éĩĮ
- Reg
å½± çīĩ
it te
ä¹Ł ä¸įæĺ¯
T wo
B B
ĠÄ Į
Ġengine ering
æľīæķĪ åľ°
Î ¤
åħ¶ å¯¦
Ġs ara
ĠAnd roid
å»¶ ä¼¸
er as
çļĦ çĽ®æłĩ
G raph
å·² æľī
é¢ ĸ
ÛĮ Ùħ
Î¬ Î½
Ġs tick
ĠI L
. The
ust a
Ġj el
MA X
èģ ·
çĽ´ å¾Ħ
Î± Ïĥ
è¶ħ çº§
åĲĳ ä¸Ĭ
) "
Ġfr ag
ĠÎ± Î½
Ġass igned
Ġatt ached
Ġje g
Ġcall back
Ġplan et
çĶ¨ éĢĶ
à¥ĩ à¤¸
ĠS P
åĲį ä¸º
end if
Ġperfect ly
èĶ ¡
Ġpers ons
- o
Ġ$(' #
Ġcapt ure
Ð°Ð½ Ð½Ñı
ĠC R
éĢ ¾
Ġfundament al
Ġdis cipl
ch ain
ä¸į çĦ¶
å¹¿ æĴŃ
Ġáĥ Ĺ
áģ µ
è¡Įä¸ļ çļĦ
Ġk ond
M E
Ġsurpr ised
() ),
Ġanalys es
æĸ° å¢ŀ
mission en
Ġsupport ing
à½¡ à½²à½ĵ
Ġinter act
è¢ ģ
Ãº bl
Que ue
and roid
åŁºç¡Ģ ä¸Ĭ
ik ira
ĠP y
G amma
Ġad equ
ĠP age
v ate
Ġà¤¤ à¥įà¤¯
Ġb ug
æľºåĻ¨ äºº
éĢ ¢
Ļ áĢ¾áĢ¯
åĽŀ äºĭ
z b
àµ Ģ
Ġsu a
= False
Ð¾ Ñı
Ġcomp ounds
Ġgj ith
ĠÃ¡ ll
ĠÃ ±
ĠN on
ĠÄĳ Ã£
áŁ ¡
æĭħ ä¿Ŀ
ä¸Ģ ä»¶
Ġs elling
Ġop t
æľĢ ä¸º
y nt
ĠL ight
è§Ĩ ä¸º
t ab
ĠArray List
Ġan cient
æĭĽ æłĩ
id agi
ERR OR
. view
lo or
Ġcirc uit
Ġk amp
Ġà¹ Ģà¸£
å¾Ĺ ä»¥
Ã¡ b
Ġag greg
ati ent
é«ĺ ç«¯
ç»´ è¯Ń
çļĦ åİĨåı²
D id
ik es
çĪ± å¥½
æķ ¦
Ð¾ÑĢ Ð°
Ġpro to
Ġd ell
d Ä±
Ġp Ãµ
è¿Ļä¸ª éĹ®é¢ĺ
éĻ Į
Ð¾ Ñĥ
Ġrepl aced
- per
å¸¦æĿ¥ äºĨ
æŁĲ ä¸ª
ĠC la
Ġ" ",
å¼¹ æĢ§
à²¿à²Ĺ à³Ĩ
èĻ ¾
ĠØ¨ ÛĲ
Ġpass ing
èĶ ½
à¥įà¤ ¨
Ã¢ nd
Ġp ushed
æ´ Ĵ
æ¯ķä¸ļ çĶŁ
ÅĻ ÃŃ
ess ages
ä¸ĵ é¢ĺ
å¡« åĨĻ
å¤´ åıĳ
Oper ation
Ġlight s
ĠU m
Ġexc iting
Ġë °
Ġdec ades
} }=
¢ àº¹
ĠÐ¿ Ð¾Ð¼
çļĦ çİ¯å¢ĥ
s ke
Ġdet te
app y
Ġprin ciples
pr ice
Ġqu an
èĲ Į
Ġe h
Ġme al
è®¾ æľī
ä¹ĭ æīĢä»¥
æķ° åĢ¼
ä¾ĭ åŃĲ
æ¼Ķ è®²
it Ã©
Ò ¿
Ġrecogn ition
ãģ§ ãģĻ
' in
Ġtr ace
K a
On ly
ĠD ig
ĠB ul
Ġà¨¦ à¨¾
Ġy en
ç¾İ é£Ł
Ġr it
ç¨İ åĬ¡
Ġintegr ated
Øª ÛĴ
ent o
Ġh pe
áŁĴáŀļáŀ »
Ġte g
è·Ł çĿĢ
Ġseek ing
Ġinvestig ated
èıľ åįķ
à¶ľ à·ļ
ip t
à¦ ĸ
æĶ¾ å¿ĥ
çģ £
ä¸Ģ éĥ¨åĪĨ
ra zy
à¸²à¸ ģ
Ġdr am
×ľ ×Ĳ
i ans
c ard
k ir
Ġs id
aw t
Ġpar ad
ĠCh arl
ìł ķ
åįģ ä¸ī
Ġdra wn
ĠL ine
çļĦ æķħäºĭ
ĠRespublik asi
æĻ¯ è§Ĥ
éģµ å¾ª
àº £
ÏĢ Î¹
clus ions
om ething
av imo
çĲĨ æĢ§
Ø§Ø ·
ä¿Ħ ç½Ĺæĸ¯
åĤ¬ åĮĸ
ke z
c raft
äºĭå®ŀ ä¸Ĭ
éĩĩ çº³
Ð¾Ð³ Ð°
Ġgr av
å®ī å¾½
In st
ion a
à¥įà¤ ¸
à´¿à´ ¯
×¢ ×¨
Ġa ug
eps ilon
Ġw arn
ĠC L
ic u
ä¸Ńåįİäººæ°ĳ åħ±åĴĮåĽ½
ig inal
ĠL u
Ġcon j
ĠK an
é¢Ĩ åħĪ
éĽĨ åĲĪ
çļĦäºº çĶŁ
ul ong
ç«ŀäºī åĬĽ
Al though
åĲĮæĹ¶ ä¹Ł
Ġamount s
E uro
Ġd f
à¦ Ľ
ĠCl ick
im us
é¦ ¨
- com
à®± à¯įà®±
Ġa ye
áĤ ĥ
Ġn Ã³
æµ ĩ
åħ·ä½ĵ çļĦ
ä»¥ æŃ¤
ÛĪ Ø´
Ġt ough
Ġg if
éĺ² æ°´
è®¾å¤ĩ çļĦ
` ,
Ġcl ar
æĩĤ å¾Ĺ
æĥ ©
æķ ·
ĠPh ys
Ġprim arily
Õ¡Õ¶ Õ«
Ġoffic er
Ġcon clusion
æŀ ķ
Ġprint ln
Ġcor porate
Ġj Ã¤r
Ġpl anned
Ġ' /
ä½ľ å®¶
çĭ Ģ
Ġele ction
Ġs enti
des cription
è¿ĺ æ²¡
åº ŀ
Ġlas er
P N
Ġl á»į
I ter
Ġby te
Ġkn ock
Ġnga i
ĠV an
Ġà¶ »
åħ¥ åı£
ĠH or
å¨ģ èĥģ
Õ«ÖĤ Õ¶
AC E
pr ene
è¦º å¾Ĺ
ä½ł åľ¨
Ġin fer
B al
åŃ¦ä¹ł çļĦ
Ar r
Ġáł¬ áł¦áł
Ġje j
Ġt iny
is et
ĠSpec ial
Ġhe ter
app end
Ġcrow d
è¿ĺ éľĢè¦ģ
Ġs ov
on der
ç¨İ æĶ¶
ä¸»è¦ģ æľī
l ak
ĠØ§ÙĦ ØŃ
ë Ĳĺ
ĠP rom
Ãº s
ĠMar ia
Ġplas ma
åıĳ æĶ¾
æĬ¥ èĢĥ
Ġf et
çºª å¿µ
d Ä±r
v ari
Ġku ch
ĠÐ´ Ð²
Ġl al
Ġph arm
å¤§ éĻĨ
r Å¡
Ġsp ir
E Y
f ill
åĩł ç§į
ih in
Ġp emb
áĢĦáĢ¹ áĢ¸
Ġta Ê¼
____ __
app oint
é¾ į
ang k
æĶ¶ è´Ń
ç²® é£Ł
éģ¸ æĵĩ
å¸Ī çĶŁ
à®¿à® ķ
O l
ĠÙĨ ÙĪ
æ¯ ħ
s at
èĬ Ĵ
ä¿ ©
çĶ¨ èį¯
à¥įà¤° à¥Ģ
Ġex plicit
.st ate
me an
= None
Ġhe av
m ann
ì ²
æīĵ åĩ»
ĠO S
åį´ æĺ¯
am l
âĳ ¢
Ä± s
×Ļ× Ĺ
us ti
à²¿à²¦ à³įà²¦
ĠMart in
M apping
ëĭ Ī
Ġtreat ments
ag al
Ġcalcul ate
ĠN ext
Ġcol le
Ð¾Ð² Ð¸
à»ī àº²àº
ĠÑĩ Ðµ
D D
à¤¾à¤Ĥ à¤ļ
r angle
æ¸Ĺ éĢı
ĠBe fore
Ġm asa
Off set
} &
ä¸¤ æ¬¡
æŀ ¯
Ð¸Ñ Ħ
Ãł i
Ð §
Ġdanger ous
ĠÐ· Ð°Ðº
Ø¨ ÙĦ
Âł Ø¦
L ong
ä¸Ĭ çıŃ
Äģ t
èĥ½åĬĽ çļĦ
im inal
- res
è®² è§£
Ð½ Ñĥ
Ġk ÉĽ
Em ail
à¸± à¸ĩ
ĠÙĩ Ø§ÛĮ
é Ĳĺ
L ocal
Ġm h
áĢ± áĢľ
å°ı åŃ©
ç¦ı å»º
ãĤ ¿
Ġy r
cep tions
àº² à»Ģàº
ä¸¥éĩį çļĦ
à±įà° ¨
Ġpot entially
Ġprincip le
å¯¹ æĪĳ
Ġprovid ers
ĠL ast
áŀĳ áŁħ
ÑĤ ÑĤ
å·¥ç¨ĭ å¸Ī
Ġyoung er
Ġn Ã£o
on u
æĪĲä¸º äºĨ
P hi
Ðº ÑĢ
éĤ£ å°±
å¤ ¸
Ġj um
Ġobj ec
Ġmod ified
åĴ± ä»¬
Ġconsider ation
Ã¡s ok
Ġà¤ķ à¤¹
Ġart ists
à¤ Ľ
` .
Ġt ay
ĠÏĥÏĦ Î·Î½
ĠC OV
E ff
ĠD iyos
à¤¸ à¥įà¤¤
Ġg ay
èĩªåĬ¨ åĮĸ
Ġb read
éħ ®
as Ä±
il gan
Ġvehic les
å¸¦ é¢Ĩ
å ¬
Ġa qu
v ad
io on
åī ¥
ĠáĢĢ áĢŃáĢ¯
éĴ ĵ
Ġm s
Ġwe alth
à½¦à¾Ĳ à¾±
ä¸Ī å¤«
ÏĥÎµÎ¹ ÏĤ
Ġp ate
ĠT ake
ĠB ob
Ð´ ÐµÐ½
f all
Ġ× ¦
Ġ[ "
è¾ĥ é«ĺçļĦ
æĪ ²
ĠS el
pro to
Ġà¸ Ĭ
å¯¹ åºĶçļĦ
- ba
Ġenjoy ed
Ġdivid ed
Ġs r
M ENT
¡ àºµ
ç§ĳ çĽ®
Ġl unch
ore m
Ġhous ing
ach ment
æµģ éĢļ
çļĦ ä¸įåĲĮ
- par
Ġpap ers
Õ¡ ÖĦ
.s plit
çı¾ åľ¨
ä¸Ģ äºº
Ñĸ ÑĹ
ĠI ha
oc ate
äºī è®®
miss ions
åħ¨ çľģ
Ġingred ients
Ġdim ension
Ġwhe el
l ÉĶ
Ġp itch
ĠáĮ Ī
Ġà¶ ½
Ġdistrib uted
( response
äººåĳĺ çļĦ
ĠØ¹ ÙĨ
äº§ çī©
Ġevalu ated
Ġinsp ir
é© °
æĶ¾ ç½®
ä¸į åıĬ
r er
ĠD oc
áĢ¸áĢ ¡
§ à¸²à¸¡
æ´» åĬĽ
æĦı å¿Ĺ
y Ãłn
Î· ÏĤ
ud en
it aj
æłĩ é¢ĺ
æĺİ å¤©
Ġunder lying
Ġhand ling
ual ity
×ŀ ×Ķ
Ã¨ re
æĹ¥ çļĦ
æ°ĳ äºĭ
Ġcon crete
äººæ°ĳ æĶ¿åºľ
an za
ĠÃ µ
æ°´ ä¸Ń
_ get
×ľ ×Ķ
ä¸Ģ å£°
áŀĵ áŁĴáŀı
Ġd ial
Ġch ay
è®° è½½
Ġdepend ent
áīł áĪŃ
Ġaf raid
, b
M r
åģĩ å¦Ĥ
Ġexp ansion
á ķ
ĠChar les
. into
ĠAcc ount
à§įà¦ ·
Ġà¦ ĵ
à§ ±
Ġic on
d ie
l t
ĠàªĨ àªµ
èµ° è¿Ľ
ga i
at um
ÑĤ ÑĢ
Þª Þ
ĠB ab
Ġpar lament
Ġth i
à¶Ń à·Ĵ
Ġa ve
áĪ ĥ
ĠÐº ÐµÐ»
or ney
s ki
j sii
Ġàº Ħ
Ġfig ures
ĠGovern ment
Ġk val
Ġver b
àª¨ à«ĭ
Ġn ini
áŀĲ áŀ¶
S cript
æķĮ äºº
ìł ľ
ÄĹ j
uc ks
Ġi ya
Ã¸ d
åµ Į
çļĦ åħ·ä½ĵ
ä¼ļ åĦ¿
à®© à¯į
ĠM awu
à½¢à¾ ©
c ular
å¢ Ĭ
Ġr ail
ĠDist rict
åºĵ åŃĺ
- off
d ep
r Å¾
Ġg ang
w t
m ond
Ġnorm ally
åįļ çī©
Ġprepar ation
áĬ ĸ
çĹħ åıĺ
æĿĳ æ°ĳ
áĪĿ áĪĭ
Ġtu ir
s end
M I
æ¸ Ķ
èĳ Ľ
Ġfood s
éĮ ¯
ot ts
En abled
ield s
ä¹° åįĸ
d ated
Ġbo at
åħ¨ æĸ°
ç±»åŀĭ çļĦ
lig a
_ pos
Ġple asure
à¤¾à¤² à¤¾
åİŁ åŃĲ
åľ° éľĩ
Ġcontrib ution
æĮĸ æİĺ
Ġrapid ly
H R
ÅĨ Äģ
.p pt
ĠÐ Ļ
Ġwin ning
Ġat e
è¥¿ å®ī
Ġk ry
ath an
×ķ× Ľ
Ġsuc ceed
Des cription
od ule
Ð¾Ð½ Ð´
_m odel
M ain
Ġpresent ation
äºº æĸĩ
Ġal ive
Ñĸ Ñı
èĴ ĭ
h op
áŁĴáŀļáŀ¼ áŀľ
æŃĮ æĽ²
åı· çłģ
ĠÐ¸ Ñħ
ç» ĳ
, P
à¬ ¬
m ist
ĠD ar
éĩįè¦ģ çļĦæĺ¯
Ø§ÙĦ ÛĮ
Ġy ake
ra form
à´ ±
Ġres erv
Ġo ok
Ġ' ./
Ġsong s
R ender
Ġjo Å¡
åĲİ æŀľ
ro c
çĶŁ èĤ²
Î¹Îº Î®
å¸® å¿Ļ
ÛĮÙĨ ÛĮ
ç¢ §
( context
Met adata
âĢĻ ,
id ents
Ġgr ass
æİ¥ ä¸ĭæĿ¥
Ġmetab ol
è» į
Ġan k
ĠÂ °
à®£ à¯įà®Ł
mod ule
ĠÐ² ÑĬ
Ġg h
ic ip
áĥĶáĥĳ áĥĺáĥ¡
æĹ© ä¸Ĭ
Ġng u
Ġcol umns
Ð¸ÑĤ ÐµÑĤ
à¦¿à¦ °
äºº å¤§
Ø³ ÙĬ
\ text
O ther
ac tivity
- con
anc he
åįķ çº¯
áĥĺáĥ ļ
Ġsup plement
ĠAs ia
P ad
itial ize
à°¾à° ²
ä»» æĦı
p us
ro oms
Ð°Ð» Ñĭ
Ġn uro
æī¿ åıĹ
Ġt aj
ĠÐ± Ð°Ñģ
oper ative
èĬĤ å¥ı
å¾® åįļ
å°± æ²¡æľī
ãģ Ľ
à¤¤ à¤°
Ġencour age
. Data
Ġserv ing
vi en
åĪ¤ åĨ³
åŃ¦ åĳĺ
è¡ ¬
à»į à»Īàº
èħĲ èļĢ
Ġsy nd
ester day
Ġal ign
è¢ ĸ
Ġre verse
×ĵ ×Ļ
ĠÕº Õ¡Õ¿
ent h
En ter
ĠRe quest
Ġme at
Ġa ver
Ġcrit ic
ç¬ ¼
A F
æĿĲæĸĻ çļĦ
æĿ¡ æ¬¾
ä½¿ åĳ½
Ġpres ents
Ġsize of
( num
Ġconven tional
Ġ×Ķ ×ª
Ġh od
æĶ¾ å¤§
Ġb ert
ific ations
ĠW H
ĠÐ± ÑĢ
çĽĪ åĪ©
å°½ å¿«
àºĻàº ±
he ten
Ġk uba
um at
Õ¸ÖĤÕ© Õ«ÖĤÕ¶
Ġlist ening
Ð¼ Ð°Ð½
Ġu pload
Ġcharg ed
à¤°à¥įà¤ µ
åįķ ä¸Ģ
Ġdesign s
Ġterse but
ÙĪØ± ÛĮ
ä»¥ å¤ĸ
å¼ §
åħ¬ åĬ¡
Ñĥ Ð°
ç»Ł æ²»
as ional
Ġk Ä©
ĠM em
åĩº çİ°åľ¨
à® ķà¯įà®ķ
Ġka ip
Ġhol iday
Ġà¶ ĳ
éªĮ æĶ¶
R ev
Ġh ide
Ġobserv ations
J ob
åħ¨ åĬĽ
Ġk rit
è¹ Ī
an tic
Ġà¹ĥ à¸Ļ
à²¿à²Ĥ à²¦
äºĨä¸Ģ ä¸ĭ
- type
Ġgent le
ĠE ff
us ers
ĠAd am
æĸ ·
S w
ÑĪ Ðµ
Ġk ala
Ġrem ind
áŁ ı
J ehova
M ost
rist o
Ġh orm
Ġrecogn ize
ub s
Ñĸ Ð¿
Ġb iso
Ġh ole
Ġ Û
Ġprod ukt
Ġf Ã¥
æŁĲ ä¸Ģ
Ġbig ger
Ġvisit ors
çĽ® åħī
_c ast
à²° à³įà²
çº º
Ġta ught
Ġd um
ist o
ĠĠĠĠĠĠĠĠĠĠĠĠĠĠĠĠ ĠĠĠĠĠ
Ġregister ed
`` `
Ġpr on
å½ °
å°Ĩ åĨĽ
åĪĿ ä¸Ń
Ġam ely
Ġt ies
en je
é«ĺ åİĭ
Ġprof it
Ġsc atter
áĢ± áĢķ
Ġà¨¹ à©ĭ
t ors
Ġprov ed
ĠRe port
Ġlik ed
æ³ »
_ at
Ð¸Ñı ÑĤ
åĽ½åĨħ å¤ĸ
å¯ Ĥ
. ;
Ġch iq
Ġla un
-n ia
áł¢áł ³
ĠP os
Ġh Ã¶
éĢĻ æ¨£
Ġver d
Ã¬n h
ĠT i
Ġstand s
åĬł è½½
Ġcr ime
ient e
Tr ace
Ġpolit ik
Fl ags
O F
Ġesc ape
T T
åįı åĲĮ
æĿĲ è´¨
åĪ¶ çļĦ
.m ap
ik ing
Ã« ve
Ġàªª àª°
å¤´ çļĦ
Ö ĥ
Ġsel uk
Ġtr uck
S L
ĠÏĢ ÎµÏģÎ¹
ft en
Ġmed lems
ĠR os
ä¸į è¡Į
ãģĿ ãģ®
Ġcont ro
U se
à¤ķ à¥įà¤¤
Ġk Ã«
Ġmiss ed
E q
Ġver tical
Ġr ene
ĠÖ ĥ
åĨĽ éĺŁ
Ġs ap
å± ĳ
-K um
D irect
. index
æĦ ģ
Ġw Ã¡
æ³ Ĭ
D er
at ra
m ethod
Ø§Ø± Ùĩ
æī© å¼ł
ĠT ODO
rib le
g ame
F ind
æĥħ èĬĤ
èĤ¡ ä»·
aku ti
àª¿ àªķ
. $$
Ġw ana
Ġm ic
us p
ä»½ é¢Ŀ
å®¢ æľį
èħ Ĭ
Ð ¤
o om
åīį æĻ¯
éģ ł
Ġp ill
s ql
ĠWhe ther
äºļ æ´²
ĠH uman
æľŁ è´§
×Ļ× ¡
æĬĢ è¡ĵ
}^{ (
/ C
Ġprz ed
é» ĥ
ĠB rown
åıĳ ä½ľ
åħĭ æľį
g on
Ġt ug
ä½ł å°±
Ġre act
oc c
in ÄĹs
ï¼ ı
åĿĩ è¡¡
Ġkas ut
h ur
Ġcut ting
' ])
å®ĮæĪĲ äºĨ
Ġm ÉĻ
å¯¹ èĩªå·±
ä»ĺ åĩº
ç´§ å¯Ĩ
ä¿Ŀ åħ»
å¾® ç¬ĳ
åı¯ä»¥ çľĭåĩº
Ġla ugh
çĶµ åĻ¨
it he
çħ§ é¡¾
æį ī
ĠN ever
D isplay
å¤© åľ°
ht u
ĠÐ´ Ð¾Ð±
áł¡áł ¬áł¦
ĠÐ´ Ð¾Ðº
åįģ åĽĽ
åĭ ¢
é¸ ¿
Ġatt ributes
Ġd Ã¡
Ġaw areness
ĠF und
à²Ĥà²¦ à³ģ
{ },
äºĶ å¹´
é¢ĨåŁŁ çļĦ
Ò¯ Ð»
ĠH o
Pr ice
ĠAc cess
à½ł à½ĸ
ĠM es
Ġt ied
ä¼ļ çļĦ
à§ĩà¦ ķ
ĠTh ose
ç²ī ä¸Ŀ
iment u
an na
áŁ ¢
Ġdisc ount
æľī è¶£
æĺ¯ å¾Ī
Ġmov es
Ġd v
Ã´ i
ad ed
æ¶² ä½ĵ
Ġh ai
Ġfe es
ä¸ ĳ
æ¨¡ ç³Ĭ
-L este
) [
çľ ¾
bo ot
Ġmass ive
ä¸ī æĺ¯
à¦¾à¦ ¸
ĠTe am
à° ª
ĠÉĸ o
Ġan o
Ġl ava
à»ĥàº« à»ī
© áłŃ
av at
áŀľ áŀ·
æĮĩ ä»¤
Ġimmedi ate
_by tes
áĢĲ áĢº
up s
èĬĤ çº¦
æ¬ Ĭ
è´ ª
pl at
Ġhand ler
áŀ¶áŀı áŁĭ
le l
çĽ¸åĲĮ çļĦ
Ġà²ħ à²µ
å· ©
çĬ ¬
ush ing
áĢĻ áĢ½
kl ad
ap plication
l us
Õ¸ÖĤÕ µ
Ġj os
Ġel Åĳ
èĤ¡ä»½ æľīéĻĲåħ¬åı¸
Ġtr aj
z ero
Ġà¤Ń à¥Ģ
Acc ording
Ð°ÑĨ Ð¸Ð¸
Ġá¼ Ĳ
à¦ §
ÐµÐ´ Ñĸ
ä¸ Ľ
ele ction
å®¹ åĻ¨
Ġsim ult
áŀĢ áŀĺáŁĴáŀ
×ķ Ö¼
Ð¾ ÑĥÐ¿
ĠK r
á»¯ ng
nos Å¥
Ġáĥ ¬
ĠB it
Ã¡ sa
ĠTh ursday
ov Ã©
áĥĲáĥ ª
Ġid i
Ġwa ar
Ġna ud
Ġanx iety
In s
Ġáŀ Ĥ
z one
Ġ ï
Ġbr idge
Ġobserv ation
åĲİ ç»Ń
in j
æĻ ´
æ¸ ¬
Ġhab it
Ġg ear
Ġsa j
à¥ĭ à¤°
çĶ· å¥³
Ġvul ner
am al
ĠÐ¸ Ñģ
ud ar
Ġdom estic
- j
ĠF a
f Ãł
à°¾à° ¨
i as
Ġinnov ation
C F
ĠT uesday
els en
å®ŀ è´¨
Ġpar tial
Ġde ze
Ġup ang
ç«ĭ åĪ»
à®© à¯įà®±
_ on
S econd
g ener
Ġm az
Ġtrans formation
Ġdemonstr ate
oc a
d ing
ÑĤ Ðº
çº ±
èŀį åħ¥
Ġl ake
- J
æĬ Ħ
Ġb un
Ġa ur
ir s
Ġinter ior
ĠRes ponse
Ġd ust
. annot
æĴ °
æĶ¾ æĿ¾
, j
Ġw Ã³Ì£n
à¥įà¤ §
çĶ¨ äºĨ
åĮ Ļ
Ġf Ã³
ä¸Ĭå¸Ĥ åħ¬åı¸
Ġe ase
Ġkont rol
_ DE
èĥ½åĬĽ åĴĮ
}. $$
Ġstr ange
Ġdi ameter
æĢ» ç»ıçĲĨ
it se
Ġp p
ĠâĢ ¢
ĠY et
ĠÎ± Î½Î±
. Is
èµĽ åŃ£
åĸ ī
Ġv eg
ÑĪ Ð°
áĢ¯ áĢķáĢ¹
Ġà¤® à¥ģ
Ġphot ograph
an es
ä¸ĭ è·Į
å¢ŀ åĢ¼
ãĤ ·
Ġtag Ä§
ĠKrist o
Ġte x
áĤ ī
Ġg um
áĭİ áī½
æ´»åĬ¨ ä¸Ń
reg ion
ic ed
å®³ æĢķ
åı£ èħĶ
èĪĴ æľį
àº´ àºĶàº
ĠCommun ity
Ġnull ptr
åľ¨ æľ¬
ĠA P
u tic
Ġre plied
å¼ ĺ
áĢŃáĢ¯ áĢĦáĢºáĢ¸
à¦¨ à§įà¦
è¿Ĳ ä½ľ
Ġinform ed
.s how
ä¸į åĬ¨
Â» ,
Ñĸ Ð±
ĠØ§ Ùģ
à¬ £
Ġda ar
Ä ı
ĠÚ© ÙĨ
Ġk if
Ġl ux
çķ ľ
Þ¬ Þ
à´ ķàµįà´ķ
æĳ© æĵ¦
àº± àºģàº
z ing
ĠÐ¸ ÑģÑĤ
áĥĿáĥ ķ
à· ģ
Ġdoll ars
ä¹ĭ è·¯
ĠÐ´ÑĢÑĥ Ð³
èº ²
Ġus age
d x
Ġt Ã©
Ġconn ections
ĠØ¥ ÙĦÙī
k ins
an ak
Ġbi as
Ġemploy ment
æıĴ åħ¥
ĠPro cess
æł¼ å±Ģ
éĢī åıĸ
ĠIn teger
ÑĨ Ð¸Ñı
child ren
Ġj en
Ġneighbor hood
ç· Ĭ
éĢ Ĭ
: (
the less
ĠØ¨ Ûķ
à·ĵ à¶¸
à·Ļ à¶±à·Ĭ
Ġinter pre
ĠInd ust
ite v
å¸¸ çĶ¨
h on
ÐµÑĢ Ð¸
> ::
è± «
w ere
çĮ ´
ĠD isc
Ø² ÛĮ
ç§į åŃĲ
ĠP ad
âĢĮ ÙĩØ§ÛĮ
. Type
Ġpr is
Â» .
any ch
( val
. trans
ĠCh o
Ġsl ip
é¼ İ
Ïģ Ïī
ĠAr ab
àº§ àºģ
åĪ ®
Ø¨ Ùĩ
Ġs ich
Ġp ant
åģľ è½¦
Ġd ÉĶ
ĠÅ ŀ
à½´ à½Ĥ
ir ira
áŁ ł
è½» è½»
eng then
up i
ocol ate
Ġap ps
åħħ è¶³
ĠT oday
ik ut
ĠCOV ID
ä» ĩ
Ġà¤¹ à¥ĩ
Pro t
Ð¾Ð½ Ð°
×ª ×Ļ
g led
es se
by tes
áŁĨ áŀĵ
à«įàª µ
Ġj aw
çķ ı
ì £¼
Ġcharg es
Ġj og
} x
ÄĻ p
Ġsist ema
ro duction
Ġmet er
èº«ä»½ è¯ģ
æľĢ å°ı
ist ing
Ġpr v
Ġcons cious
çļĦ ç¬¬ä¸Ģ
Ġb tn
Ġpol ar
Ġab und
ĠÄ «
ĠÐ¿ Ð¾ÑĢ
Ġà¬ ¤
ĠS ou
ĠP ers
å¤ĸ éĿ¢
Õ¸ÖĢÕ ®
ìł Ħ
Ġsubst an
Ùħ Ø¹
_ un
ĠM essage
ri ev
Ġdraw ing
Ġtelev ision
à½ĸ à½ŀ
éĢļ çĶ¨
Ġbatter y
à¤¾à¤ Ł
Õ¡Õ »
Ġcheck ed
L es
Ġresult ed
.l abel
get a
Ġsome where
h ou
ig r
Ú ķ
ĠE ll
æ°´ åĪĨ
è¿Ľ åº¦
ĠØ¨ Ø§Ø²
em ble
Ġpoly mer
ç¼º å°ĳ
ä¹ĭ å¾Į
Ö ħ
Ġtr ained
Ġman ip
miss joni
( `
áĢ¸áĢ Ĳ
á± ®
æĺ¯ ä¸ºäºĨ
ĠE gy
imens ional
an ju
oc ated
Ġch ose
åĩºçİ° çļĦ
ÙĪ Ûķ
Ġnecess arily
ost er
ul as
çī© ä½ĵ
ĠC ON
Ġmax im
le le
. min
Ġed ges
ĠW all
por ation
ĠW omen
å¤© ç©º
áĢ ı
Ġcompet itive
æĲħ æĭĮ
Ġi ke
as ant
Ġh vor
å¿ĺ è®°
Ġst er
ļ àµįà´ļ
å±± è¥¿
ľ àº¹
é¸ Ń
Ġnote ik
.st art
èĥ °
çľĭ åĪ°äºĨ
ë§ Į
Ð» Ð¸Ðº
l aw
åĴ ª
ĠT ree
f ilter
F ailed
Ġstom ach
åĽŀ å¤į
Ġanswer ed
Ø¯Ùī ÙĥÙī
F iles
åħ Ĩ
ĠD am
Ġà¸Ń à¸¢
æĪĲ äºº
ĠÅ¾iv ot
Ġan ticip
ÙĪØ± Ø¯
åŁİ ä¹¡
Ġcomp ris
å¼º å¤§
ĠJ im
c rib
áŀı áŁĴáŀı
à¨¾à¨ ¹
Ġper f
å¤§å®¶ éĥ½
ä¸Ģ é¡¹
Ġhapp ening
ä¿¡æģ¯ çļĦ
/ b
Ġwan pela
Ó© Ð·
tiv eness
Ġas et
ç«ĭ æ³ķ
ic ion
çļĦä¸Ģ åĪĩ
_d ate
Ġn ose
e ft
ĠSec urity
çħ Į
Ġany way
Ġh are
ĠÐº Ð°ÑĤÐ¾
åķĨ å®¶
J E
Ġill ness
Ġhon or
æĹ¶ åħī
å± ¬
èķ ´
ĠÏĥÏħ Î½
Ġi j
à½Ĥ à½ŀ
Ġg w
Ġj ot
il ename
ĠØª ØŃ
Ġrem oval
Ġsc ient
Ġgen om
è§£ éĻ¤
Ġl av
éĢļè¿ĩ å¯¹
Ġca using
Ġt ang
çĹħ çļĦ
ul an
Ô¥ Ñģ
æĭ ¾
èĨ Ŀ
Ġinv ent
çĽ´ çº¿
Ð¸ÑĩÐµ ÑģÐº
ç¨ ±
Ġs red
ih at
at koz
I con
am mat
Ġáį ¡
ic ing
ĠVic tor
Ġdef ense
ant es
Ã¡ u
åºĶçĶ¨ äºİ
al and
Ġuns igned
ÄĽ t
Ġin tim
any i
Ġt Äģ
åĪ« äººçļĦ
Ġà¦¹ à¦¯à¦¼
æĸĩ èīº
Ġbut ter
oc y
àª¾àª® àª¾àªĤ
à¥ĭ à¤ľ
Ġh Ã¸
Ġz en
ari os
Ġà¦ ¥
è£ ķ
i he
lar ni
own ed
v ÃŃ
re act
Ġmechan ical
Ġimm une
Ġfac es
Ġt rem
Ńáł¤áł ¯áł
az y
Ñĸ Ñĩ
Ġcare ful
Ġsk ip
Ġfr am
Î¯Î½ Î±Î¹
çº³ åħ¥
åıĸ åĨ³
w d
Ġáĥł áĥĿáĥĽ
Ú© Ùĩ
Ġconfl ict
Ġst em
åħ±äº§ åħļ
Ġup p
åħ» æ®ĸ
ä¸Ģ ä»£
áĢĻ áĢ¼
od z
Ġthor ough
c rate
in os
Ġh Ã£
éļĲ æĤ£
åĪ¶ å¤ĩ
ç§¯ åĪĨ
ĠL td
ä»ĺ æ¬¾
æı Ľ
Î¹Îº Î¬
Ġperiod s
ĠÑĢ Ð¾Ðº
ä¹Łå°±æĺ¯ è¯´
åıį å°Ħ
è®¾è®¡ çļĦ
t arget
çİī ç±³
}, $$
Ġint ent
at ik
Ġa ux
èĴĻ åı¤
ĠL ee
à¦¿à¦ ¬
æĿĤ å¿Ĺ
Ġwebs ites
è¡¨ æĥħ
à±įà° ¯
Ġre actions
Ġche ap
T ool
Ġsens itivity
Ġar v
çĶŁ æĹ¥
ans i
ON E
d or
ĠÃ¶ z
el lect
à¤Ĥ à¤¦
ak un
Ø¦ ÛĴ
ä¸Ģ çº§
Ġpart nership
Ġà¬ ¨
Ġl ies
áĢĸ áĢ¼
éĢĢ ä¼ĳ
Ġlog in
b orn
ti er
à¦° à§įà¦
Ġtop ics
åľ° è´¨
æľº éģĩ
Ø´ ÛĮ
Ġdi en
Ó ·
- Artikolu
çļĦ æĢĿæĥ³
n al
roll ing
l á»į
emp ts
èĦ¸ ä¸Ĭ
æĸ ¥
Ġap o
Ïģ Îµ
Î¹ ÏĥÎ¼
ĠÐ± Ð¸
(c rate
-Reg olament
pl ant
æķ°æį® çļĦ
Ġext end
Ġwh isper
S m
Ġs j
Ġexam ination
çĹ °
ç±» åĪ«
crip tions
åįģ åħŃ
Ġv ote
çĹ Ĵ
à¤¾à¤ ı
e ature
C or
áŀ¶áŀ ļ
ac on
? .
he et
ok w
ĠĠĠĠĠĠĠĠĠĠĠĠĠĠĠĠ ĠĠ
Ġw est
åıĺ åĬ¨
ast s
å½ĵ ä»£
Ġgl uc
Ð ¦
ez u
(' .
æ¹ ĺ
å°½ åı¯èĥ½
éº µ
åŃ¦æł¡ çļĦ
Ġam al
s ec
ep ing
ĠMus ic
æŀ ¢
æ·ĭ å·´
Ã© rt
à§ §
Ġl Ä«dz
Ġc md
Ñĭ ÑĨ
k ie
Ð½ Ð¸Ð¹
ÙĤ Øª
æĺ¯ ä»İ
åĽŀ åİ»
à¸· à¸Ń
ah l
Ġcandid ate
f ont
å§Ĳ å§Ĳ
æł¡ éķ¿
çĶ· çĶŁ
ĠW ednesday
Ġpost ed
.j pg
hem ical
ĠP L
æ¯ı æľĪ
ä½Ĩ æĪĳ
Ġtarget s
Net work
å¾ ©
ä¸Ń åľĭ
et he
ĠC ir
Ġm enc
ĠÐ¿ÑĢ Ð¸
Ġg uk
Ġs ending
æįŁ åĿı
Ã½ mi
{ })
å¼ķ æĵİ
èħ¾ è®¯
åı¯ åľ¨
åĬŀ äºĭ
ek k
áĪ Ļ
àª ı
åĪ© æģ¯
C u
áº ¯
ĠL ev
ch ito
àº´ àºĶ
ä¾ ł
Ġexpert ise
éĢĤ éĩı
U ID
n in
äºĨ æĪĳ
][ '
Ø¯ Ø§ÙĨ
ë ŀĮ
iy i
éĿŀ æ³ķ
à½º à½¢
å°Ĩ æĿ¥
è¿Ļç§į æĥħåĨµ
Î ĳ
Ġos ob
Ġpropor tion
mith y
ict ory
ĠL ove
Ġt j
èİ·å¾Ĺ äºĨ
æĥ ¨
Ġáł µáł¢áł
ä»¥ å¾Ģ
ar ik
éĵ ĥ
Ġdec lar
æľĢ åĪĿ
rid ge
w ira
_ class
.cl ient
asad pan
Ġac ts
áģ¼ áĢº
cl ose
Ġa er
to o
à½ĸ à½ħ
Ġrout ine
Ġl oron
ge x
å¿ĥ çģµ
åĲĥ çļĦ
ÏĮ ÏĦÎ·
atic s
Ð½ Ð¾Ð³
Ġparticip ate
æıĲ éĹ®
it ika
Ġte j
Ġr ip
ink ing
Ð¾Ð» ÑĮ
å»ºç«ĭ äºĨ
Ġstep ped
Ġlarg ely
ĠM ulti
Ġviol ence
Ġb ind
ĠáĢŀ áĢ°
Ġk Ã³
ĠP ut
P arser
Ġ×Ķ ×¢
åĬł éĩį
ĠH aw
on de
ĠC ath
æĺ¯ åı¯ä»¥
Ġstat ements
ĠT ry
ra j
util s
Th ank
th ere
_id x
×Ľ ×ľ
Ġi Phone
: '
S I
Ã¡ roz
Ġl ar
Î± Î»
à» Ŀ
ĠR et
ĠÉ£ er
åıĸåĨ³ äºİ
_st art
Ġfl ash
ol ver
Ġpro c
áłł áł¢
å½¢ çļĦ
f y
Ġáł¤ áł
Ġáĭ į
ol g
j Äħ
å¯ ¨
Ġin duced
Ġna Å¡
Û ¹
æĦ ¤
Ġà¨¨ à©ĩ
Ġsp ons
og e
Ġatm osphere
çľĭ æ³ķ
ym i
im is
ener a
ok ed
Ġarchitect ure
Õ¡Õ¶ Õ¡Õ¯
å¸Ĥ åł´
Ġil ang
éĿĴ å°ĳå¹´
-k asadpan
à¥ĩà¤ Ł
se lected
ä»ª å¼ı
Ġà² ¯
å· ·
pl ier
ĠC EO
.W rite
àº°àº «
× £
Ð°Ò µ
áŀ¶áŀ ĩ
Ī àº»à»ī
AN T
äººåĬĽ èµĦæºĲ
Ġb li
ag ues
áŀ½ áŀĵ
Ġthous and
Ġpro l
ĠVal ley
ĠÎ¿ Î¹
çľ¼ åīį
á» ĵ
Ġà¬ Ĩ
Ġth a
Ġdeb t
Ġper mit
ĠÐ³ ÑĢ
ĠEle ctr
å·® åĪ«
Ġde vi
æĽ Ŀ
n it
Î³ Ïī
Ã¤ ll
Ġlab els
ele t
åĽ¢ ä½ĵ
ir us
çĶ· åŃ©
ĠÐ± Ð¸ÑĢ
ä¸İ åħ¶ä»ĸ
Ġwan em
ĠV i
Pro file
à´¿ àµ½
ĠVir gin
Ġt ene
Ġmor ph
Ð¶ Ðµ
Ð¾Ñģ Ð¿
ri ers
ç»Ħ ä»¶
Ġacc ord
U nd
l Ã©
áŀ¼ áŀĽ
st one
f an
Ġprior ity
æĺ¯ ä¸ŃåĽ½
r ar
à²¾à² ¡
ĠÐ¿Ð¾ ÑģÑĤ
Ġhous es
à©į à¨¹
Ġb rowser
áĢĻ áĢ¾
ÐµÑĤ Ðµ
Ġpartic le
áī ĥ
åĢ¼ ä¸º
Ġ[ `
Ú© ÙĨ
es ha
Ġd uty
åĲ¬ è¯´
w ala
Ġz at
è¾ĥ å¤ļ
Ġobvious ly
ĠÛģ ÛĮÚº
éĹ¨ åı£
je v
ä¸į åģľ
è° Ĭ
J ohn
Ġ×Ķ ×Ĺ
Ã¼ nd
d am
Ġë §
åĮ» èį¯
Ġg aze
Ġrec ipe
å®ļ äºĨ
ÙĦ Ø³
Ġà° ļ
Ġequ ations
ä¸¾ æĬ¥
ater al
æ· ®
ä¸į æĺĵ
Î¼ ÎµÎ½
ic er
Õ¥ÖĢ Õ«
å» Ĭ
áłİ áł
Ġmu a
à«įàª Ł
ë³ ´
çĭ ®
ul ating
ĉ ĉ
( []
Î £
ä»Ģä¹Ī æĺ¯
çļĦå¤§ å°ı
b f
Äħc ych
Ġmanufact uring
ĠD id
Ġsek tor
.Group Layout
Ġas ide
Ġà¬ķ à¬°
å®ŀéĻħ æĥħåĨµ
ç»ĵæŀĦ çļĦ
ä¸º æĤ¨
Ġh af
Ġpay ing
Ġthick ness
Ġk uma
à© ľ
Ġp omo
Ġp ier
ollow ing
Ġradi ation
ĠS af
áģ ħ
å¸¸ çĶ¨çļĦ
Ġv oc
Ġgr ant
è½ °
Ġdirect ed
áł¡áł· áł¡áłŃ
áĢģ áĢ²áĢ·
medi ate
Ġt out
Ġà¤ª à¤¹
Ġatt rib
âĺ ħ
_l en
à¯įà® ³
å¿½ è§Ĩ
Ùģ ÙĬ
çī ²
Ġelectr ical
. List
Ġs essions
Ġr iv
Ġcir cle
id ir
Ġd ow
angu ages
g ang
es ome
éĢ Ŀ
Ġwor st
å¹³ çŃī
ç³» çµ±
ĠTh anks
st ra
( u
åĤ »
Ġmach ines
è¿ĺ åİŁ
ĠM ill
Ġpar king
à¸ Ĥ
åĮĸ åĲĪçī©
åľ¨ å®¶
Î¸ Îµ
Ġen emy
ka ÅĨÄģ
as hed
à½´ à½ĸ
N av
ĠÐ± Ð°ÑĪ
Ġkos ke
éĽ ĩ
áĮ ¸
èĩ´åĬĽ äºİ
Ġ\% $
Ġmole cules
ak in
ä¿¡æģ¯ åĮĸ
er ne
ri o
Ġcitiz ens
l ie
.p df
Ġd uk
im iz
Ġinvol ving
èĹ ¤
l ate
Ġal g
Ġoffic ers
Ġg ly
_ k
æħ Į
r z
Ġfir ms
ch arge
Ġko hta
Ġnin ia
áĢŃ áĢĻ
ot te
las ti
áĥĶáĥ Ľ
çģ« è½¦
- V
ÑĭÐ½ Ð°Ð½
ä¸į å®ľ
ä¸İ åħ¶
Ġtrad ing
!! !
le i
D ebug
y cz
Ġatt ribute
Ġwer en
Ġmal o
Ð» Ð¸Ð²
Ġr ÃŃ
àº± àºĩ
èĮ ħ
åº· å¤į
æ¯Ķ è¼ĥ
Ġdiv ision
Ġd uke
St op
Ġ ê°Ģ
Ġz aj
åģ¥ èº«
enn is
çĽ® çļĦæĺ¯
ä¼ł æī¿
Ġbar ak
Î± ÏĤ
I z
Ġdi vers
Ġent ertain
ĠAmer icans
Ġáŀ ļáŀ
Õ¡Õµ Õ«
. max
à«įàª¯ à«ģàªĤ
put er
ĠØ§ÙĦ Ø¥
çĶµ æ°Ķ
è¿Ļ ä¸¤ä¸ª
Ð°ÑĤ ÐµÐ»
Ġres olve
åĬ «
å»º æĪĲ
Ġb ike
ĠY ah
-s idlakan
ÙĦ ÙĪ
èĳ ¬
ä¹Ł ä¸įèĥ½
ack ing
çį ²
åİ» éĻ¤
Ġà¶ļ à¶»
ĠL ead
èĥ½ åľ¨
åĵ Ģ
Å¡ ta
å¼º çĥĪ
ĠF OR
Ġà¸ ľ
ĠÕ¸ ÖĢÕ
Ġvis ited
èĹ Ŀ
rit ing
Ġkug ira
_ number
ä¾¿ äºİ
çļĦ æ°Ķ
æ¢ ¨
Ġdi abetes
G E
æĹ© å·²
æĶ¯ éĥ¨
ç¬Ķ èĢħ
Ġbl ess
Ġb ude
çĿ¡ è§ī
other apy
ì ¡
Ġfact s
çĶ¨ æ°´
çļĦ å¸Ĥåľº
ä¸º ä¾ĭ
åĲĦ åĽ½
Ġreg lament
æĺ¨ å¤©
ĠáĬ ¸
ä¸ļ ä¸»
ĠØª Ùĩ
è¶ħ å£°
è¾¾ æĪĲ
ä¾Ŀ æĹ§
æĮģ æľī
per t
ser ve
Ġin struction
ul ous
Ġjus tice
áĢĲ áĢļáĢº
Ġt uk
- out
Ġd arb
å¹´ åºķ
Ġs ug
Ġd Ã¶
ç¥ŀ ç§ĺ
re ts
Ġáŀ ł
à² ¶
ib b
ak on
aj ar
çīĽ å¥¶
×Ĳ ×ª
åħ¶ ä¸ŃçļĦ
ĠÐ³Ð¾Ð´ Ð¸Ð½Ð°
åĢº æĿĥ
ĠÏĦÎ¿Ïħ ÏĤ
Ġah á»¥
Ġco vers
Ġsh k
ĠL ocal
Ġrelig ion
Ġadop ted
ä»£ æĽ¿
ĠG er
B ook
Ä¾ a
éĴ ī
Ġpurch ased
m ad
ĠT ele
Ġd ys
å®ı è§Ĥ
àª¾àª ¤
æľº åĬ¨
ĠÑĢ Ð°Ñģ
à¹Ī à¸Ń
è®² è¯Ŀ
çħ İ
ĠÔ µ
mi en
as ync
Ġvers us
çī© èµĦ
_ iter
Ġi es
Ġisol ated
è½¨ éģĵ
ĠA f
An im
Ġc oc
ä¸Ń åħ±
In it
Ġ( '
Ġmo od
åĲ µ
Ð°Ð» Ð¾
Ġemph as
ane ously
å¦Ĥæŀľ æĤ¨
é»Ħ èī²
D oc
am il
________ ________
Ġjan Ã«
ik s
Ġph r
Ġin cl
ä¸Ń æīĢ
app a
Sh ow
à§ĩà¦ ²
àµ ¾
Ġd ub
æŃ» äºĨ
áĳ ¦
Ġal leg
od ies
ĠE xt
Ġdep ression
S uccess
Ã³ m
ir l
M ake
at om
áĢ½ áĢ²
ess Ã¤
D av
Ġconstant ly
Ġm ush
O DE
ä¸Ĭ è¯¾
Ġm ula
Ģ áĢ¼
ÐµÑĢ Ñĸ
èĻ ¹
Ġk im
Ġcab in
åħ´ å¥ĭ
Ġst o
Col lection
ĠÐ· ÐµÐ¼
é£ŀ è¡Į
Ġmer ely
Äĥ r
ç© į
ow ania
Pl ay
Ġgl ob
ä»·åĢ¼ è§Ĥ
åĨĻ çļĦ
." );
ĠT ay
á»ģ u
Ġw il
èº º
Cl uster
B ecause
áĬ ¡
ast ing
×ķ× Ĵ
< std
Ġáī ħ
æ² «
ĠHen ry
Ġimpro ving
re j
à´ ¨àµįà´
ĠnÃŃ nÃº
- for
ens ia
Î Ĺ
Ġg Ã¼n
áŁĴáŀ Ķ
ĠReg ister
ĠD B
ĠR ay
ĠS earch
æĻ® åıĬ
æĸ¹ éĴĪ
R ece
Ġtrad ition
Ġf al
Ġload ing
Ġm nog
Ġvalid ate
à¨¤ à©Ģ
Ġadvert ising
Ġtom orrow
Ġkom is
_ j
ĠB oston
min us
áģ Ħ
plic ate
Ġfair ly
.s ave
ig ate
è¦ģ åľ¨
<< "
Ġmin i
ĠH ave
ç¾İ å®¹
åīį æľŁ
) *
ak ter
å¤© å¤©
( z
Ġtext ure
Ġexam ine
ç»ıæµİ çļĦ
Ġchalleng ing
Ġlo o
ĠEuro opa
G O
Ġin valid
çĨ ¬
å¤Ħ ç½®
st u
éĤ£ æĺ¯
éĶ Į
Ġhundred s
åĩŃ åĢŁ
Ġl oud
K u
Ġstraips nio
Ġexpect ations
ĠØ °
ativ a
å¯¼ åĲĳ
Ġn de
æĪ¿ äº§
Ġj ar
åĸľæ¬¢ çļĦ
Ġinstall ation
{ "
à½¢ à½²
.query Selector
t ake
Ġin y
ĠSec ret
Ġt udi
b ro
ic ation
ä¸Ģ çľĭ
Å¡ te
Ð» Ð¾
ĠHe ad
åĨ ¯
ĠJapan ese
Ġver ify
n p
"> <
ĠH istory
ĠÃ¶ ss
â ´
Ġ×ŀ ×©
ä¸į è®º
Ġbreak fast
E ven
ç´ Ļ
- go
åº¦ åĴĮ
ĠL ab
ind u
Ġol arak
éĨ ĭ
à¨¦ à©ĩ
ç¡ķ å£«
è¯ļ ä¿¡
ĠS and
Î ļ
ust ers
ê ¹
å¤§ æ°Ķ
Ġinfrastr ucture
äºĮ çº§
/ S
Õ¡Õµ Õ¶
as er
ë ŀ
Ġdisplay ed
J a
è¿Ľ æĶ»
è·Ł è¸ª
æĬĬ å®ĥ
ĠpÃ¤ iv
Ġst or
fer ences
Ġob st
ç«ŀ èµĽ
Ġ\ $
ver n
Call back
Ġnego ti
Õ¸Õ µ
å¯» æ±Ĥ
Ġcharacter istic
å¹¿ è¥¿
ĠTh ree
Ġy hte
id ers
Å ŀ
.pro t
ä¸ľ åįĹ
Ġindic ating
an ye
d ÉĻ
Ñ ļ
ha i
èĮ «
Ġd ak
èĮ Ĥ
áłłáł µáł¤
ä¸İ æŃ¤
à¤¤ à¥įà¤¯
Ġquant ity
âĢľ ,
v it
( ch
Ġproble ma
ar ks
é §
äºº ä¸İ
omet ric
ĠÐ± ÑĭÐ»
Ġj ag
èĢĥèĻĳ åĪ°
Ġcomp at
ä¸Ģ åı¥
' y
ap se
à²¾à²Ĺ à²¿
ĠØ¬ ÙĬ
Ġpre j
åı« åģļ
in as
çļĦ çİ°è±¡
id as
ĠP ot
åħħåĪĨ åıĳæĮ¥
Ġbon us
Ġguaran tee
U K
èĢĲ å¿ĥ
Ġregular ly
-m ail
c ing
iy ang
ä¸¤ èĢħ
ak am
áŁĴáŀľ áŀ¾
çĸ« èĭĹ
b us
Ç Ĳ
Ġintro duction
çļĦ èĢģ
ÒĽ ÓĻ
ä¸Ģ æĹ¥
ĠÐ½ Ð°Ð¼
ĠØ§ Ùı
à¥Ģ à¤¨
ÅĨ em
Ġkh Ã´ng
Ġáŀ ı
og r
å½¢ å®¹
Ġtri als
ĠA le
åıĳ è¨Ģ
Ġed it
Ãº ng
æ¢ ³
r ac
_ image
Ġlog ic
èµļ éĴ±
in Ã«
áĥĶáĥĳ áĥĲ
Ġz ag
Ð» ÐµÐº
Ġprefer red
Ø Ł
æĹł æķ°
d ob
éŁ §
áĢĽ áĢ¾áĢŃ
ÙĦ Ø±
z at
ä½ł èĥ½
Ġl aran
çļĦ çĶŁäº§
ul d
ind en
! =
S am
ä¾ ¦
odi um
à¶½ à·Ĭ
ĠÎµ Î¯Î½Î±Î¹
ĠFranc isco
æ¸Ĳ æ¸Ĳ
åīį æıĲ
å°ı æľĭåıĭ
å¿« çļĦ
en Ã©
ĠV ector
- O
am ount
atch er
ni Äį
Ġh ate
àº²àº ģ
in stance
Ġf y
am ond
ë ¯
ä¸į éĢĤ
Ùĥ Ûķ
à½² à½ĳ
ĠÐ Ĩ
ä¸Ģ æĸ¹
Ú ĳ
Ġh ub
æĶ¶ ç¼©
ĠBl ock
Ġsent ence
us k
Ġtalk ed
Ġkra j
R ect
å¼ķ é¢Ĩ
ĠÐ´ Ð°ÑĢ
Ġdis se
M eta
Ġla id
æļĤ æĹ¶
èį£ èªī
Ã¤ ng
æĮ «
Ġid en
ÑĪ ÓĻ
à²Ĥ à²¤
.set Text
lig i
Ġser um
Ġhealth care
ord ening
å¤§ å¸Ī
Ġlaug hed
Ġà¹Ħà¸ Ķ
äº¤ åıī
åĢŁ åĬ©
S ION
ĠW ay
íķĺ ëĬĶ
Ġf ot
l ot
àµ »
æıĲ åĪ°
éĻĲ äºİ
s ystem
ĠáĢ ļ
ĠS H
Ġcon cepts
st ater
Ġsh oes
. open
Ġn im
ĠC T
w orth
Ġpow der
Ġw u
ç¯® çĲĥ
ÑĪ ÑĤ
áĢŁ áĢ¯
ĠÎµ Î¾
Ġ! ==
( std
åıį æĢĿ
çŃī äºº
à· ĸ
Ġsignific ance
Ġben ch
Ġstud io
Ú ª
Ġse pt
it Ã¤
ever al
æİ¢ ç©¶
ĠÐ· Ð°Ð²
éļ ª
ĠJohn son
ĠÛĮ Ø§
çĿ ĩ
å¾ħ éģĩ
éŁ ¦
Ġul tr
ble m
åĲį åįķ
Ġbro ke
Ġg li
Ġthro at
Ñĭ Òĵ
Ġpre ced
çĶ¨æĪ· çļĦ
W indows
Äģc ijas
_ E
Ð¸Ñ İ
Ġw ound
å®¢ äºº
d ers
ĠØ¦ ÛĪ
. X
Ġm ug
ĠÑ Ĺ
àª¾àª ¸
éļı æĦı
Ġent h
Ġmo ist
æĢĢ çĸĳ
zen ie
â ħ
ĠáĪ ķ
å¥³ å£«
ic ts
åīį è¿Ľ
ç»ĵ ç®Ĺ
Ġle i
Ġab a
à¤¾à¤¨ à¥ĩ
è§ģ åĪ°
Ġk ama
ìĥ ģ
oun ce
ĠM ike
it als
V A
æĻ¯ åĮº
st an
à²° à³Ĩ
Ġde aling
çĥ ĺ
Ġinvestig ate
Ġoh un
Ġspat ial
avi en
Ġor al
Ġáłª áłł
ĠTh rough
à¶ ©
Ġcr isis
éĩĩçĶ¨ äºĨ
Ġkeep s
åıĳ å°Ħ
ĠT erm
ä¸ª äººçļĦ
í ĥ
çĹ ĺ
Ġth u
æ» ©
ĠA I
è®© ä»ĸä»¬
ä¸ĵ æ³¨
ĠØ§ ÙĪÙĦ
Ġà» Ħ
ĠÒĽ Ò±ÑĢ
_ types
Ã©s i
q i
. Request
R ole
ä½ Ĳ
éļ¾ éģĵ
ĠR am
ĠØª Ùħ
åį° åĪ·
Ġn Ã¥
Ġskl adu
Äįi Å³
áł° áłłáł¨
Ġk ai
åıĤ è§Ĥ
åĽŀ æĬ¥
-c olor
àºĻàº °
Ð½Ñĭ Ðµ
à» Ģ
å³ ¡
Ġdel ight
Ġ ÉĶ
æ¸ħ éĻ¤
èģĬ å¤©
åĮº åĪĨ
ç®Ĺ æĺ¯
Éĸ o
ar se
Ø§ÙĨ Ùĩ
Field s
Ġdim ensions
×ŀ ×¨
àª¿àª ¯
áŁģ áŀĽ
èĩ´ çļĦ
æ±Ł è¥¿
ĠØ§ÙĦ ÙĤ
Ġar bit
q s
åı¯ä»¥ è¯´
å§ĵ åĲį
if ies
æŀ ļ
Ð¾Ð» Ð¾Ð³
éĥ ¡
Ġs Ã©
ĠO d
à½£à¾ Ł
hen g
è±¡ å¾ģ
áĤı áĢ½
Y esu
ĠP ac
éģ £
Ñĩ Ðµ
Ġà¤ĩ à¤¸
ĠH IV
Ġv aj
Ġb its
æ¸ Ľ
å´ ©
Ġk ull
Ġhen ce
à´ Ļàµįà´Ļ
åĲ¸ éĻĦ
è¥¿ éĥ¨
Ġzb ekiston
Ġfr agment
áĥĺáĥ ĵ
.S printf
æĮ¯ åĬ¨
ĠB lo
li o
Ġ×ŀ ×Ķ
n m
ĠáĢ¡ áĢŀ
Hel per
Ġcomp ound
Ġap artment
æīĭ æĮĩ
Æ°á» Ľ
åĲ »
Ġjud ge
H ost
æĭ ĺ
it ti
Ac tive
Ġgu idelines
Ġepis ode
éļĶ ç¦»
éĤ® ä»¶
é¤Ĳ åİħ
è´µ çļĦ
áĢŃáĢ¯ áĢĢáĢºáĢ
Ġc raft
Ð¾Ñ ŀ
ĠÑģÑĤ ÑĢÐ°Ð½
- specific
ç© Ĩ
æĺ¥ èĬĤ
Ġuns afe
åŀĭ åı·
qu is
ç²¾ ç¡®
à¶» à·Ĭ
P ress
ann y
äº§çĶŁ äºĨ
ick ed
ĠM useum
alm az
Ġinnov ative
è© ķ
, -
Ġincreasing ly
çļĦ å£°éŁ³
Ġstrong er
Ġfight ing
Ġconven ient
à¤ķ à¥Ģ
ä¸į åıĹ
çļĦ æķĻèĤ²
é«ĺ è¾¾
Æ° Æ¡
æĥ Ł
çļ ±
çļĦ å¤ļ
æĺ Ń
ti de
à¬ ª
ĠÎ¼ ÎµÏĦ
l ice
mod els
à¤¾à¤¨ à¥Ģ
ĠA uthor
Ġund ers
åĩº ç§Ł
Ġab andon
Ġfac ing
Ġexplan ation
Ġmus ical
çĹħ ä¾ĭ
Ġn acional
áĢ¬áĢ¸áĢ ľ
Ġà¸ģ à¸²à¸£
âĢ¯áł ²
Ġprof es
}) $$
# if
êµ ¬
çļĦ ç»ıæµİ
×ŀ ×©
çģµ éŃĤ
$ .
( string
Ġmount ain
à³įà² ®
ĠC ustom
ĠB iz
ĠA B
as in
at is
Ġtr en
å¤ı å¤©
å±Ĥ éĿ¢
f riend
Ġidentific ation
áī¶ áĪĿ
form ance
Õ¸ÖĤÕ©ÕµÕ¸ÖĤÕ¶ Õ¨
æ·± æ·±
ĠáĬ¥áĬķ áĭ°
ĠAr c
Î¿Î½ ÏĦÎ±Î¹
Ġshum Ã«
é¹ ı
T im
G F
ç¾İ å¥½çļĦ
ro pe
ĠC up
Ġpl t
Ġkis im
Ġbott le
àª Ł
çıŃ ä¸»ä»»
æµ· åįĹ
Ð ĸ
Ġà¦ķ à§°
èĪ Ī
Ð°ÑĤ ÑĭÐ½
Ġku wa
ed en
. type
ach er
Ġaz o
ÑĥÐ» ÑĮ
Ã¡n ÃŃ
áĥĲáĥ Ĺ
raz il
Ġde leg
og ether
Ġà¸Ī à¸°
ĠC oll
Ġfl ags
ol is
à·Ĵ à¶§
Ġton ight
åħ¬ äº¤
ĠW rite
Ġfound ation
Ġl on
Ġupd ates
Ġdis appoint
å¾Ĺ å¾Ī
Ġdist r
åĵ ĭ
ãĢĤãĢĤ ãĢĤ
à½ģ à¾±
æłĩ è®°
ac ent
Ġdatas et
Ð¾ÑĢ Ð¸
ĠÄį e
arg in
t os
ç¿ Ķ
áł¢áł¶ áłłáł¨
çĥ ·
Ġenh anced
RE F
Ġst up
Ġland scape
àº» àº§
Ġoldu ÄŁ
PO ST
RE D
Ġflow ers
ak ap
Ġ ere
áĢĢ áĢ¬
J ehov
ÐµÑ ļ
Ã© z
Ġprop ag
ç»ı è´¹
ĠE w
å¹¶ åıĳ
Ġ Ìĥ
Ġá Ĳ
L ike
ĠáĬ¥ áī²
Ġoper ate
Ġtal ent
" +
ĠT or
ro Å¡
à½º à½£
å»º éĢł
h ira
# endif
L ock
ĠMex ico
ãĢĭ ï¼Ī
åĭ ĺ
è¶Ĭ å¤§
b ell
åŃĺåľ¨ çĿĢ
è°ĥ çĶ¨
) |
à½ģ à¾²
è¿Ļ æ®µ
w indow
l angle
Ġmov ies
Ġá» ĭ
}\ \
.to String
ur ers
æµıè§Ī åĻ¨
Ġst orm
çļĦ æķĻåŃ¦
áŀĸ áŁĴáŀļ
ç²¾ åĬĽ
Ġdescrib es
. begin
Ġo ma
ä¸ĸçķĮ çļĦ
éĽĸ çĦ¶
ç¬¬ ä¸ĥ
Ġbe am
Ġcarry ing
pro ject
åĢ¼ çļĦ
Ùħ ÙĬ
ak w
à©Ģ à¨Ĥ
áĸ ħ
çĪ ¾
çķĻ åľ¨
Ġshould ers
ĠF ROM
à¸² à¸Ļ
Ġà¤¬ à¤¨
P at
×ĵ ×¨
ĠÐ½ Ð¾Ð²
àºģ àº²àºĻ
Ġsa h
íķ ł
M ulti
æ´» è·ĥ
it os
Ġhead s
áīµ áĬķ
lo Å¾
Ġex ha
lar ini
Ġp anta
Ġop tical
à®¿à® Ł
ÓĻ Ñģ
åħ¶ ä½Ļ
ĠÒ» ÓĻÐ¼
_ trans
à¸± à¹ī
åħ» æĪĲ
Ġship ping
Ġsum mary
ĠAd v
tri angle
Ð´Ñĭ ÒĽ
.st yle
çĥŃ çĪ±
ĠáĬĲ áĭį
f irm
Ø´ Ø±
ĠÚ ª
ç« ĸ
æĬ¤ å£«
v Ã©
Ġs ht
d h
Ð» Ð°ÑģÑĤ
u wa
Ġres on
ä¸Ģ å¤§
_m essage
è¿ĩ å¤ļ
ĠL ook
is or
çį İ
Ġconsequ ences
ç«ĭ åľº
Ġem br
Ġcal m
Ġre venue
at Äĥ
à§ ĥ
j ava
éĤ£ å°±æĺ¯
æŃ §
äºº äºĭ
åıĺ æį¢
Ġle af
éĢļ é£İ
ç² ¥
ong an
ĠS end
ĠgÄ§and hom
ç´§ æĢ¥
å¹¶ å°Ĩ
Ġdifficult y
V M
à¦¾à¦ ľ
ä½ĵ éĩį
è¿ľ ç¨ĭ
ï¼ī ï¼ļ
çļĦ æĦıæĢĿ
Ġext reme
áĢ· áĢºáĢ
ä¸Ģ åĿĹ
ÉĶ wo
Ġt ayo
æª ¢
Ġcharacter ized
åŁºç¡Ģ è®¾æĸ½
N F
èµ° åĪ°
Ġt ube
Ġtek n
ak ers
èĥĮ åĲİ
Ġhard ware
. new
ä¾Ŀ çħ§
èŃ¦ å¯Ł
Ġon i
Ø¬ ÛĮ
Ú© Ø§
Log in
Ġshould n
è¡ ·
Ġperman ent
ë ħ
éĻķ è¥¿
Ġf og
ut er
Ġsw im
Ġper o
ä¸Ĭ çº§
Par ent
Ġcomm ission
Ġmaint ained
å·² çŁ¥
åĲĮ æĻĤ
ĠPort ug
Ġb ent
ÐĿ Ð°
ĠD C
RE E
Ġá»į má»į
éĢĻ äºĽ
ol t
à¤° à¤¾
ek si
Ġtem po
å±ħ çĦ¶
ĠMan ager
éģĵ çļĦ
ĠØ§ ÛĮØ±
áŀŁ áŀĺ
çļĦéĩįè¦ģ æĢ§
å¸Ĥåľº ä¸Ĭ
áĥĶáĥĳ áĥĺ
Õ¥Õ¬ Õ¸ÖĤ
åĴĮ ç®¡çĲĨ
Ã¼ Ã¼
ÏĮ Î½
èµĦ è´¨
ĠP D
. awt
Ã¡ ban
ĠF amily
áīł áĪ¨
Ġen um
R oot
Ġreport ing
çīĪ æĿĥ
æ¼Ķ åĩº
ÉĶ ÉĶ
Ġà¤¯ à¤¹
it im
}^{ *
zy me
Ġrun time
åĢĭ äºº
ĠPre z
ç²¾ å¿ĥ
Ġp ens
Ġk aka
Ġbi ological
å¤§ åľ°
åĴ ¸
Ġ Òĵ
Ġàº Ļ
åĪĿ æľŁ
Ġac ting
ĠÐº Ò¯
Ġlos ing
åĨ ĩ
O UR
æĪĳ çŁ¥éģĵ
Ġeng age
Ġo or
Ġt so
Ġà¸Ĺà¸µ à¹Ī
it ting
Ġà´ İ
Ġ$ .
è®² è¿°
Ġb os
Ġlib er
sh ips
Ġconcer ning
ÅĨ Äĵm
åĩĨ åĪĻ
EN G
Ġàª ¯
\ &
Par se
ĠS D
n il
èĤº çĤİ
ä¸Ģ æ¬¾
Ġphen omen
ag ent
Ġáŀ ĳ
Ġ{ "
è¿Ŀ çº¦
Ġpol ÃŃ
Ġinsp ired
S pr
ĠM ir
ĠEx p
Â ²
Ġdeb ug
ĠÐ¼ Ð°
ĠT own
l ife
Ġt ags
(" \
Ġen e
å¸Ī èĮĥ
Ġinter vention
Ġacqu is
éľ ŀ
iv el
å¼ Ĭ
ĠáĮ ¥
è´Ł åĢº
ĠN ia
Ġappreci ate
.sh ape
åĸ ĺ
ĠÐ¼ Ð¸Ð½
Ġs ala
P G
pl a
() ));
ani i
fl ag
å¦Ĥ åĲĮ
æĽ´ å¤§çļĦ
- (
åľ¨ ä»ĸ
ĠJer usalem
ãĥ Ń
Ġper mission
áŀĹ áŀ¶áŀĸ
Ġg ew
æıĲåĩº çļĦ
Õ«Õ ´
ä¸Ģä¸ª æľĪ
àº· àºŃ
om u
Ġexec ution
è® Ģ
çĲĨ è´¢
æ°¨ åŁº
à¨¿à¨ ¸
Ġáł² áł£áł
çĽ¸å½ĵ äºİ
æĢ ĸ
ĠP ass
iment o
ak si
ĠI sa
un ge
èĪŀ è¹Ī
Ġw aves
Ġf ed
et en
Ġì Ħ
Ġnear by
ç¡ Ŀ
ak it
Ġr ural
ĠB ir
áĢľ áĢ¬
ĠC OM
st s
ĠáĢ ¯
Ġappar ently
Ġb asket
Ñħ Ð°
å½ķ åıĸ
wh ite
uc i
Ġsum mar
áĭ ľ
Ġcr iminal
u el
é¸¡ èĽĭ
ĠF our
Ġd aha
à±įà° ¤
é«ĺ è¡Ģåİĭ
S eg
Ġop ts
Ġload ed
à²Ĺ à³Ĩ
å¤įæĿĤ çļĦ
ĠkÃ¶ vet
åİ¨ æĪ¿
åľ° æĿ¿
äºĨ å¾Īå¤ļ
Ġko z
Ġx o
Ġma ibÃ©
in ated
æ£ ļ
áŀ¶áŀĵ áŁĭ
è² ¨
ĠM b
çİ ²
éĴ ¥
åıĳ çĶµ
Ġdis order
log in
ĠÐ¸ ÑĢ
Ġ ÑĸÐ½
è¾¹ çķĮ
t le
éľĢè¦ģ æ³¨æĦı
æīĵ çł´
áŁĤ áŀĦ
èª ²
Ġfor got
is ters
çĭ Ĳ
èĿ ¶
n Ã«
à½¢à¾ £
Ã® y
Ġconsider able
Ġestim ates
áŀĽ áŁĦáŀĢ
Ġk we
Ġch art
Ġáĥ £áĥ
ãĤĪ ãģĨ
Ġma ar
Ûķ ÙĬ
Ġgu est
ĠNz ambe
Ġc av
Õ¡Õ¶ Õ¤
æİĴ åĪĹ
ch or
åĽŃ åĮº
åı£ æľį
ath y
Ġultim ately
ĠEur Ã³
Ġkab ili
Ġgi he
Ġrepl acement
Ġofficial s
æĸ° æĬĢæľ¯
s ite
Ġp ec
Ġadvant ages
èİ İ
ĠB on
Ġmatch ing
kt op
Ġpr ist
à¤°à¥įà¤ ®
Ġl ob
åħ¬ æŃ£
est yle
Ġsurpr ising
å¿ĥ æĢģ
Ġpredic ted
Ġte ars
Ġd els
æĶ Ģ
Ġch ip
ä¸į å¿ħ
Ġku z
Ġap parent
åįİ ä¸º
ĠP S
Ab out
åıĳ æĢ§
éĴ ©
Ġgreat ly
ĠPh ilip
art y
Ġ ],
N ames
è¨ Ĭ
Ġdest r
Ġinst ant
rec ord
âĢ ķ
ä¼ļ åĩºçİ°
O d
)) );
à²ķ à³įà²ķ
Ġlaun ched
è¡ Ķ
P or
Ġcoeff icient
×Ļ× Ľ
ÙĨ ÙĬ
u q
à¨ ĩ
åĪ© çļĦ
èı Ĭ
åħ ¹
åĩ ¹
æķ´ æĶ¹
ĠI g
å½± åĥı
_ block
Ġpe er
Î³ Îº
E st
Ġy ari
Ġà¹ĥ à¸«
' o
æĺ¯åĲ¦ æľī
à½ Ļ
Ó £
ĠÑĥ Ð»
ov Ã¡
Ġd ai
áĥĶáĥ Ĺ
d im
Ġrep ly
ul ator
iy on
çļĦ æłĩåĩĨ
ĠS em
Ġguid ance
å¿ĥ å¾Ĺ
ĠÑī Ðµ
ĠÕ ª
ĠØ§ ï»
iv at
Ġà¬ ¦
æ°Ķ ç®¡
ra Å¡
er de
ovi Äĩ
ĠÐº Ð¸
Äĵ c
Ġet ter
Ġorigin ally
çİ© æ³ķ
æĹł æķĪ
æłĩ è¯Ĩ
fol io
M ove
Ġs op
IV E
è´¦ åı·
ĠAdd itionally
Ø§Ø ¶
~~ ~~
è£ Ļ
à¹Ī à¸ĩ
} '
ig ration
Ġlic ense
æ³¨æĦı äºĭé¡¹
çĶµ ç£ģ
à·Ĵ à¶±à·Ĭ
om on
Ġà¦ı à¦ķ
C ustom
_s mithy
Ġcook ing
ĠÕ ®
Ġeng agement
is in
_ output
Ġ" ";
Ġsk ulle
ĠáĪĺ áĬķ
´ áłł
Ġdri ven
éĵ Ń
Ġinitial ly
è¯Ħ åĪĨ
Ġf iber
Ġf etch
Ġlah ko
Ġbak al
Ġid x
b ay
å¥¶ å¥¶
æ±ĩ æĬ¥
éĥ½ éľĢè¦ģ
az zjonijiet
Ġya a
è¯¾ ä»¶
ĠU I
áĥ ¬
Ġe ast
Ġàªª àª£
áĥĿáĥ ¡
Ġtab ata
Ġáŀ ĩ
/ T
ĠWilli ams
al in
Ńáł¤áł ¯
Ġrec ording
Ġ Ã¡l
Ġover w
åľ¨ æĸ°
è³ £
èĩ º
reat ment
- form
éĺ² çģ«
æľī åºı
Ùħ Ø§ÙĦ
æĦŁ åħ´è¶£
iz ab
.c ore
æĬ« éľ²
ĠPl us
ĠÐ² ÑĢÐµÐ¼
è¡ Ľ
_ end
Ġf asc
_ array
áģ ¢
å¤§ æķ°æį®
éĶĢ éĩı
Ġtheore tical
áģ¿ áĢķ
æŁ Ħ
ä¹¡ éķĩ
Ġnh á»¯ng
uk h
ìĺ Ģ
Ġv ot
Ġhead ers
ĠJ oe
ç¼ ł
che me
Ġaccess ible
Ġim plements
âĢ¦ âĢĿ
_ A
fl u
à¯ģà® Ł
éĻ ½
áĪ ½
Ġd ili
Ġign ore
ĠÐ¶ Ð¸Ð²
èº ģ
Ġdi versity
Ġpair s
}- $
Ġperform ing
Ã¶ k
Cl oud
Ġserv es
Ġje ho
Ġpop ulations
ar ga
áĢĨ áĢŃáĢ¯
Ġv od
Ġlog ging
ne g
ĠÙħ ÙĤ
ĠSup port
forc ement
Û µ
let on
Ġr á»į
æĿ¿ åĿĹ
Ġpar as
Ġfall ing
áĢ¸áĢ ľ
Ġb um
ÐŁ ÑĢ
à¥ĭ à¤ķ
Ġpre z
ĠàªĨ àªª
æ¸ Ĭ
Text ure
ãĥ³ ãĥ
ĠUp date
Ġplatform s
, s
Ð» ÑĭÒĽ
Ġust an
ap ing
Ġab use
Ġag es
æµ ĳ
Ġlj udi
f on
äººå·¥ æĻºèĥ½
é ı
è¥¿ åĮĹ
æĿĥ éĻĲ
Ġà¤ħ à¤§
iment al
á» Į
W in
Ġku v
çĶ¨ äºº
áŀ Ĩ
à»ģàº ¡à»Ī
m ake
æīĢ å±ŀ
åĸĦ äºİ
b ang
_ offset
Ġson ra
ĠS elect
à»į àº²àº
Ġc razy
Ġhydro gen
Ġter ror
( len
æĢ» é¢Ŀ
ĠktÃ³ ry
ec ho
ĠH ttp
å¥½ å¤Ħ
å½¢å¼ı çļĦ
Ġstatistic al
x e
ĠH ence
Ġsel le
Ġpred stav
ie ties
is wa
om p
- ass
çĶŁäº§ çļĦ
áį ĭ
Ġsa u
ä¸Ģå®ļ ä¼ļ
Ġout er
çĶµ ç¼Ĩ
p al
ĠØ§ÙĦ Ø¬
ĠÐºÓ© ÑĢ
æ¿Ģ æ´»
èĨ¨ èĥĢ
ľ Ðµ
ch u
Óķ Ð»
ident e
ÄĹ tÅ³
Ġo ss
ĠÙĪ ÚĨ
è¿Ľè¡Į çļĦ
Event Listener
ĠM ic
iz on
Ã Ģ
Ġiss ued
éŃ ļ
Cont act
is ht
åĩº åĶ®
Ġman ual
Ġh au
Add r
à«ĭ àªķ
is y
os k
é»ĺ è®¤
Ġn ti
ish ment
á¸ ¥
' ab
og ram
P H
return s
ä¸º äºº
ens ed
æ½ľ åĬĽ
Ġf older
Ġsuffer ing
ĠYou ng
ä½ł è¯´
ĠSpr ing
ĠÐ¿ÑĢ Ð¾ÑĤ
å¯ «
Ġcandid ates
ĠTh ank
og bo
Ġdepos it
Ġbes ide
in st
e ova
-Kum missjoni
Ġd w
Ø³ Ø¨
çļĦåīį æıĲ
à¦ ¥
Ġzd rav
Ðº Ð°Ð½
ĠT ri
çĻ Ĥ
U nder
C G
ĠÙĨ Ùĩ
( re
çļĦ åĪĨ
æĹł éľĢ
Ġtr ends
à½ĸà¾± à½¦
Ġs que
. O
ç¼ĸ ç¨ĭ
é ®
ĠÃ ī
Ġinterpret ation
Ġag encies
åĮ Ĩ
Ġenth usi
åĿ Ŀ
çģ ¶
ĠS pe
æ±¡ æ°´
ĠIt alian
Ġham utuk
åĩº è¡Į
Ð°Ðº ÑĤ
Ġpar ser
æ¶ Ľ
Ġdef e
ĠÄĳ i
viron ments
ell en
Ġav ailability
æĿ¡ä»¶ çļĦ
eng ine
äº¤ äºĴ
Ãłn h
æľª èĥ½
Ġà¹Ģà¸ Ĥ
åĮĸ å¦Ĩ
è½¬ åĲĳ
ĠÕ¶ ÖĢ
(n ull
ov ie
æŃ£å¸¸ çļĦ
Ġ×ĳ ×¢
æĦı å¤§åĪ©
}^{ -
äºº èº«
ĠÐ¾ÑĢ Ð³Ð°Ð½
æĺ¯ä¸Ģ æ¬¾
Ùİ Ø§
ĠN Y
ol ly
Ð² Ð¸
×Ļ× ¤
Ġk red
âĢı Úº
Ġzg od
ä¸ĩ åĲ¨
Ġat it
h ot
- le
g il
Log ger
Ð² ÐµÑĢ
áł¦áł Ń
ĠAng eles
ang wa
urr ency
. iter
rib ution
Ðº Ð¾Ð½
à¥Ĥ à¤ª
æĬ¥ è¡¨
Ġany more
ãģ ¿
j ÄĻ
æĬ¥ èŃ¦
D atabase
, S
Ġh tml
à»Ħ àºĽ
à¥įà¤ ¦
Ð» Ð¾Ð²
ach i
Ġh uk
- is
å¾ĹåĪ° çļĦ
Ġs ok
Ġcom plicated
ĠCom mand
åĬł æ²¹
Ġt ac
ĠJos eph
Î¯ Î¿Ïħ
Ġ( -
ä¸Ģ éģĵ
Ġtrans lation
Ġcan cel
Ġdiagnos tic
åĮĹäº¬ å¸Ĥ
Ġmen gh
Ġwhe never
åĮĸ åĴĮ
ĠáĢĢ áĢ»
Ïģ Î·
Ġbl ow
... )
Ġc ro
ack er
C ap
å¥ ł
éķ Ģ
Ġsti r
oc ial
à°¿à° ¨
ĠInd ex
à¤¾à¤ ·
èĳ ī
Ġbed room
çĨ Ļ
Ġsubstan tial
Ġass et
Ġi e
åįģ ä¹Ŀ
çłĶç©¶ çļĦ
ķ Į
èĹ ¥
ä¿¡ å¿µ
Ġexec utive
è¥¿ åįĹ
æ¯« ç±³
Ã³ t
Ú¾ Ø§
s econd
m us
ah r
Ġcons erv
m el
ÑĪ Ñĭ
Ġpr ay
çļĦ æĥħ
F ont
Ø² Ø§Ø±
atch ing
Ġnut r
èĬ ¦
ĠS on
åī§ æĥħ
ãĤ ¨
Ġnd o
ä¸º ä½ķ
ÃŃ ch
ĠSt ore
æ°´å¹³ çļĦ
Ġo y
Ġp ocket
à¹ Ĥ
å®¡ ç¾İ
/ w
ï¼ ĳ
Ġhe la
åĿĩ ä¸º
ĠMark et
ê ´
Ġma a
çŃī å¥ĸ
< ?
æķĻ å®¤
åĵ¥ åĵ¥
Ġi ye
Ġentre prene
çĦ¦ èĻĳ
æľĢ æĹ©
å®ŀ çļĦ
em Äĵ
Ġlist s
Ġbene ath
Ġna f
Ġmus cles
å¹´ åīį
à¦ ı
Ver tex
ĠC ast
C ategory
t oken
ç¥ ¸
ĠÃ ¦
åĭ ¿
Ð¸ÑĤ Ð¾
( item
ç§ĺ ä¹¦
åĹ İ
Ġnd Ã«r
ĠA ff
Ġb Ãª
Ġà¤¸ à¤¬
çļĦ æ²»çĸĹ
ĠS anta
) ?
Ġod gov
Ġres et
Ġregul ations
è´µ å·ŀ
àº²àº ļ
Th anks
é£ ¯
Ġko Ê»
èĢģ åħ¬
à° ¡
Ġfa a
Ġbe er
èģĮ åĬ¡
_t able
Ġd raft
å°ı ç±³
B i
Ġcount y
Ġown ed
Ð¼ ÐµÑĤ
Ġreg ulation
éļ ¶
ĠK or
à¹ĩ à¸Ļ
å·® ä¸įå¤ļ
æķħ æĦı
Ġs tic
_add ress
ook ie
Ġconstruc ted
à»ī àºŃàºĩàº
åŃķ å¦ĩ
in line
æĺ¯ æĪĳä»¬
Å¡ Äį
ä¸º æŃ¢
éļĲ èĹı
ĠR oyal
un ing
ar na
à¦¤ à§ĩ
duc ing
ĠáĪ į
l ich
Ġinj uries
å¹´è½» äºº
Ġpen al
çį ¨
åĮ ł
vo z
æł¸ ç®Ĺ
Ġsur faces
Ġv ibr
ĠR ight
å·© åĽº
ho z
ri fic
æĪĳä»¬ å°Ĩ
ak al
Ġà¨¸ à©Ģ
Î¹ ÏĥÏĦ
éļ¾ é¢ĺ
Ġn ama
Ġint ens
ä¼ł æŁĵ
os ity
àº» àºļ
ĠØ§ Ø¦
ĠC lient
Ġfr act
åĿļ åĨ³
u ing
Ð½Ñĭ Ð¼
Ġcon version
è¾Ľ èĭ¦
Ġapp lying
P op
éĩĩ è®¿
ĠT re
ãĥ ¬
å»ºè®¾ çļĦ
ÑĤ Óķ
T ab
Ġserious ly
v c
Ġorgan ized
Ä¼ u
ĠÙĤ Ø±
Ġim aging
Ġlow est
æ²Ļ çĻ¼
å½± éŁ¿
Õ¡Õ´ Õ¢
Ð¾Ð´ Ð°
Ġdrink ing
? '
ä½ľ æĪĺ
Ġu Äį
conn ection
Ġf Ã¨
Ġb ile
b ot
D el
è¦ģ æĥ³
æ² ¸
(j ava
Ġpe aks
at ura
é£ ²
^{ +
Ġst yles
bu ilder
æ± ª
ĠÎ £
æĤ¨ åı¯ä»¥
Äĵ rt
am er
Ð¸Ñ ī
r ick
Re port
Ġprogr ama
ne q
Ġnatur ally
æĹ¨ åľ¨
ur en
Ġdi pl
ti ge
ä¸į ä¸Ģæł·
åīĤ éĩı
Ġhop ing
ĠN E
Ġak t
Ð°Ð½ Ðµ
âĹ ı
æ³ķ äºº
." )
Ġmonth ly
ÐµÐ³ ÐµÐ½
og i
Ãº r
Ye ah
ah on
Ġc ere
am ar
å¢ŀ å¤ļ
k ub
Ãµ t
Ġsil ence
åĲĥ äºĨ
ĠEn vironment
éĺ² èĮĥ
ÛĪ Ù¾
ĠØª Ø¹
Ø¯ Ø©
hold ers
áģ ī
Ġen abled
ĠCont ent
Ġpro pri
åĿļ å®ļ
B it
ĠGe org
áĢ¸ áĢĢ
Ø§Ùħ ÛĮ
Z a
à¦ ģ
Ġcorrect ly
ä¾¿ æį·
A h
åĻ¨ å®ĺ
Ġsearch ing
Ġr ice
l ings
Ò± Ð»
çµ ķ
Ãİ n
âĢ¯áł ¬
. To
Ġrequire ment
ĠÐ½ Ð°Ð²
æľ¬ æĸĩæ¡£
æ¯Ľ æ³½
Ð°Ð½ ÑĤ
as il
Ġs ip
Ġt á»
éĹ´ æİ¥
G S
áĥĵ áĥĲ
à®¿à® ¤
åįł æľī
! )
Ã¨h Ã³
ues tion
æĹ¥ åīį
ĠBe ach
èħ ¦
ĠCh ris
Ñı Ð·
Ġt ired
Ġj ou
Ġbacter ia
Ġlabor atory
ä»ĭ è´¨
O m
è¾ĵ éĢģ
ÏĢÎ¿ Î¹
æĮ £
Ġon going
p red
et an
Ġsatisf action
Ġàª ĸ
pro duct
àµ Ĥ
äººä»¬ çļĦ
Ġdis pos
åĨ¬ åŃ£
Ġl il
es o
Ïģ Ïĩ
s w
_ params
å¿½ çķ¥
åľ° åŁŁ
g ate
éĨ Ľ
Ġbi om
ĠV a
é İ
W orld
In ternal
éĥ½ å¸Ĥ
Ġz ad
Ġsynt hesis
Äħ z
Ġlov ely
Ġà¤ª à¥Ĥ
ĠE nergy
Ġover ride
.annot ation
æĦŁ åĨĴ
Ð°Ð· Ð°ÒĽ
ĠÃ² Ì£
ani ya
ĠE conom
ÏĦ Î®
æ³ķå¾ĭ æ³ķè§Ħ
Ġy esterday
Ġà¤ Ŀ
ĠÑĥ ÑĢ
P lan
Ġpi Ã¹
Ġk pÉĶ
Select ed
Ġn ach
áĥĿáĥ ľ
Ġi Äģ
ĠKrist u
å¼Ģ æĭĵ
ĠSo ft
Ġcap ac
- $
. ).
æŁ ¯
å®¶ å±ħ
Ġradi us
Ð½ Ð¾Ð¼
Ġker ana
Ġad mit
re tt
ax is
' r
Ġsym met
ĠÙĨ Ø¸
åĲĳ åīį
y ÉĻ
ĠCent re
B M
Ġel ig
m os
Ġequ ally
æĩ Ĵ
Ġfant astic
àºģàº ±àºļ
ä¹¦ éĿ¢
Ġzb og
Ġt aw
éĥ¨ éķ¿
Ġamih anan
à¬ ĻàŃįà¬ķ
in ction
ä½į çļĦ
Ġun iver
P ane
o vers
ĠIn put
èģª æĺİ
< sub
å¤ļå°ĳ éĴ±
Ġint ellect
ia is
Ġku y
å¤ļ ä¹Ī
äºº å¿ĥ
áł¡áł ¬
Ġë Ĥ
å®Įæķ´ çļĦ
ĠN av
Ġun us
å®ŀè·µ ä¸Ń
Ġà¤ī à¤ª
D raw
éĥ½ æ²¡
Ġbr ands
ä¸įæĸŃ åľ°
ĠÐ¿Ð¾ Ñĩ
Ġpain ting
] =
Ġl ady
Ġt uri
ĠCh apter
Ġbl ind
ut ch
H L
Ġfore ver
é©¬åħĭæĢĿ ä¸»ä¹ī
éĬ ·
Ġg ebru
Ġh ir
ç½ĳ åĿĢ
IT E
æĹ¶éĹ´ åĨħ
è¯¸ å¤ļ
æĪĳ å¾Ī
Ġm L
D U
æ¯Ľæ³½ ä¸ľ
Ġe er
éĻ· åħ¥
iddle ware
ĠSp irit
Ġì ĭ
ab els
Õ Ĩ
Ġfind s
åĨħ å¤ĸ
ç»Ħ çļĦ
ĠÐ §
Ġst uck
ĠJ ones
% ï¼Ľ
ap or
Ä© k
pos itory
ĠáŀĬ áŁĤáŀĽ
V O
Ġh ors
Ø± Øª
áĢ¸áĢ ħ
éĵ ħ
ĠN ik
áł¡áł ·áłŃ
Ġáł ´
Ġemo tions
è¿Ĳ ç®Ĺ
un ning
Ã¨hÃ³ fÃł
Ġexpl o
exp ress
áĢĻáĢ» áĢ¬áĢ¸áĢ
å°ı å§Ĳ
Ġà¶ ĩ
çİ¯å¢ĥ çļĦ
_form ula
olog ic
åįļçī© é¦Ĩ
m em
Ġr outer
Ġcon struct
out es
åº ¸
Ġcont emporary
à¥įà¤ ļ
æĽ´ å¤§
_ se
ĠM ich
éĿ¢ æĿ¿
P erm
à©Ģ à¨Ĩà¨Ĥ
Ġproduc ing
Ġst ake
ib ration
é£ Ľ
å°ģ éĹŃ
Ġmy st
è¯Ń éŁ³
x is
Ñı Ð½
el ih
Ġsur ve
è´Ł èį·
å¤« äºº
ar at
ÏĦ Î¿
æŃ£ å¦Ĥ
è¡¨çİ° åĩº
ä¸¤ ä¾§
å¿« æį·
_ e
ĠE g
ä¸º åŁºç¡Ģ
Ġsign ature
s ource
A uthor
Ð´ ÓĻ
Ġneut ral
- cent
ä¸Ģ å¥Ĺ
¶ áłĭ
Ġdynam ics
à¸ ĵ
çĸĹ æķĪ
Ġj Ã©Ì£
ç¼´ çº³
ĠA ward
àª Ń
ÙĨ Ø§Ùħ
Ġà¦¸ à¦®
t otal
Ġnje gov
Ġch icken
ä¼ł è¯´
Ġp is
Ġvon atkoz
Ġm ant
ĠE p
Ġsepar ated
ick er
- eff
ack ed
åĨħ æ¶µ
æģĲ æĢĸ
V I
Ġza Äį
Ġworld wide
çŁ¥è¯Ĩ äº§æĿĥ
Ġd iri
_ max
à»ĦàºĶ à»īàº
ĠS C
Ġfurn iture
Ġsh ares
åĻª å£°
Ġo Äį
ih ova
Ġeng aged
Ġuser name
/ l
p op
ç· ¨
Ġj kun
Ġàº Ī
èģļ éĽĨ
å¤ļ ä¹ħ
Ġhabag atan
Ġmin ist
ĠÕ´ Õ«
Ġac ute
ÑĢÑĥ Ð¿
çłĶç©¶ æīĢ
ym o
Ġprov en
ĠJ eff
éĢŁ çİĩ
Ð² Ð¾
d ar
ĠÕ°Õ¡Õ´ Õ¡ÖĢ
Ġc en
ĠAb out
àºĻ à»Ģàº
(n ode
n amespace
Ġst ared
Ġdur ante
çļĦ é£İéĻ©
è¾¾ åĪ°äºĨ
åıĳ çĥŃ
ĠÑĤ ÐµÑĢ
Ġ áĥĲáĥ
è¿ĲåĬ¨ åĳĺ
AR D
à»Īàº ½
Ġregist ration
æĹ ¬
ĠO K
Ġdis cre
ĠL ibrary
èĥİ åĦ¿
ä¸Ģ æĬĬ
Ġscen ario
ÙĬ Ùĩ
ow y
ï¼ī ï¼Ľ
çĪ ²
} "
z em
.w idth
ard an
áĥĶáĥ łáĥ
Ġnew ly
Ġterm inal
àª¾àª ľ
Ġm apping
ol en
ĠØ§ÙĦ Ø³
B el
çļĦ åı¯
Ġreve al
j Ã«
Ġm Ã©s
ß ²
çķ °
ogg le
á±ļ á±
æĦŁ æģ©
Ġqil ish
Ġsustain able
Ġcul tiv
à¬¿à¬ ¬
Ġrob ust
Ġele g
h ome
ĠHot el
çŁŃ ä¿¡
Ġk az
è¿ĺ ä¸į
K ristu
ĠH an
Ò ·
Ġi yi
Ġà¤² à¤Ĺ
èĽ ®
Ġhy brid
à²µ à³ģ
à°¿à° ķ
ang ular
àº» àº¡
Ġmeet ings
aps ed
ĠW in
Ġher o
Ġà¤Ĩ à¤ª
Ġsec ara
å½ĵ å¤©
çŁ¥è¯Ĩ çļĦ
, n
ch od
. string
Ġwar ning
En um
éĺ¿ éĩĮ
à¦ ¼
Ġch ap
éļ »
Î´ Î¹
ĠL ib
è¡Ģ ç³ĸ
al p
Ġy ard
Ġj á»į
be le
ĠP ak
Ġà¤ħ à¤ī
æ¯« æĹł
elij ke
Ġfl av
Ġiden tical
iv ity
d as
Ġtr ab
l ights
Ġartik lan
Be an
åį ¿
Pro gram
F ull
åľ į
åĥ §
Ã¡ st
ust ed
èĢģ å©Ĩ
l ob
ock er
an on
ere ka
Ã¥ d
åľ¨ äºĨ
è² ł
çĪ µ
äº² èĩª
j ec
à¸ Ħà¸
Ġve Äį
à½¦à¾Ĵ à¾²
ĠL at
ĠáĪ ĭ
èĲ½ åľ°
âĢĿ ï¼Ī
å½ Ń
F loat
Ġàº ¥
com fort
Ġà¬ ħ
ä¼ĺç§Ģ çļĦ
Ö ²
Ġmak s
L ook
t g
ĠÙħ Øª
Ġnew sp
M ag
ĠÐ¿ Ð°ÑĢ
æĮĩ åįĹ
ÎŃ ÏĢ
ä½ľ é£İ
Ġle ge
çļĦ é£Łçī©
Det ail
Ġappe al
Ġche cks
ĠÐ´ Ð·
Ð¸Ð¼ Ð¸
çĲ ³
æĺ¯ æĢİä¹Ī
li Äį
ĠL abor
Ġinput s
Ġà¨ ļ
Ġhe nde
ĠÎ ļ
clud es
Ġcomple ment
$$ =
ammat ory
å®ŀ ä¾ĭ
pro d
Ġfil ename
Ġw ali
ĠC urrent
_ par
Ġs ib
æİĴ æ°´
Õ¸Õ ¬
Ġh Ã¤n
ä¿¡ ä»°
we et
R oute
åľº åľ°
Ġpriv acy
å¤§ èĦĳ
æ³ ¼
p ot
t w
Ð°Ò Ń
ç¨³å®ļ çļĦ
ĠChild ren
à§ĩà¦ ĩ
Ġr ating
_N AME
ä¿¡çĶ¨ åį¡
ĠSpan ish
Ġm eth
Ġatt empts
Ġhead ed
{ d
r imin
ĠD E
ìŀ ¥
âĢľ .
Ġàª ļ
à¯įà® ²
Ã¡c ie
å®Įæķ´ æĢ§
ĠS QL
Ġcheck ing
Ġflex ible
åİ» åģļ
àºĦ àº§àº²àº¡
ç»ĦæĪĲ éĥ¨åĪĨ
[ index
ik as
è£ ¹
çº³ ç±³
Ġappro val
D uring
çħ§ æĺİ
Ġev il
à²¤à³įà²¤ à³ģ
è¾ Ł
ĠAcadem y
a uto
op ed
ĠB all
rou te
ĠK o
çļĦ æĢģåº¦
áĬķ áĭµ
è¯Ĺ äºº
V R
å¸ Ĩ
Ġde eper
à¦¾à¦ ¹
æŁĵ èī²
pe yan
æµª æ¼«
Ã¶r t
Ġpass age
pro perty
g age
Ġà¸ ģà¸
ĠÐ´ ÐµÐ»
áº¹ Ìģ
æĲº å¸¦
Ġcre w
æĮĩå¯¼ ä¸ĭ
ĠÑĢ Ð°Ð±Ð¾ÑĤ
å¥ī çĮ®
l al
åĿ ª
ĠÐ¶ÑĭÐ» Ñĭ
Ġinc hes
Ġsequ ences
éĿ Ī
Ġsp o
à±ģà° ²
ad to
çļĦ å°±æĺ¯
å¯¼ æ¼Ķ
àª¤ à«ĩ
Ġod s
Ġanal og
áĥ ĳ
ĠD elete
Ġintro duce
æ¨ ĵ
² áŁĴáŀĻ
Ġbath room
Ġo ts
ä»² è£ģ
Ġinc ub
å±Ģ éĿ¢
ÏĨ Î¿Ïģ
Def inition
(t est
åĲİ èĢħ
int s
P ublic
b ing
_ ,
åĨį çĶŁ
ç¬¬äºĮ å¤©
ĠLou is
ĠInd ones
Ġzv in
Ġu di
ih i
Ġm Ãµ
çļĦä¸Ģ éĥ¨åĪĨ
Ġmes h
ĠS ep
ĠL im
as tern
ÙĦ Ùĥ
ç¾İä¸½ çļĦ
p ay
ĠÐ³ Ñį
ÒĽ Ð°
Ġf s
Ġcap abilities
nb sp
Ġdeb ate
ĠáĢĻ áĢ¼
R ob
Ġclass ification
Ġpl at
Ġëĵ ¤
æī ģ
Ġil ÉĻ
åįł æ¯Ķ
åĸľ çĪ±
ĠP eng
Ġtr ick
Ġv á»Ľi
åĴĮ æľįåĬ¡
Ã¡n ak
Ġmet adata
ä»¿ çľŁ
ĠAg ain
Ġch ampion
æĬµ æĬ¼
á ¼
ì ¤
Ġsn ap
line ar
ST R
ĠTr ump
lig het
à® ĩ
Ġstr engthen
less ly
à¤ Ĭ
l ip
ord en
áĢĶáĢºáĢ Ļ
å½ĵ ä½ł
à®¾à® Ł
Ġcomplex ity
Ġnuc lear
à¤¸ à¥įà¤¥
ĠDo es
.p op
, ãĢĬ
S end
æ° Ł
åľº çļĦ
ÙĦ ÛķØ±
Ġh ook
Ġstat istics
Ġvers ions
d in
Ð´ Ð°Ð¹
Ġrepe at
è°ĥ æİ§
ä¾ į
.prot otype
Go ogle
Ġz aw
å¤ª å¹³
ä¸Ń æ¯Ĵ
Ġl ymph
S chema
åį Ķ
le e
Ġdirection s
Ġgr und
ĠáĢľ áĢ°
ĠØ¨ ÙĨ
Ġint ention
Ġm aps
éĻ ³
åı£ æĦŁ
om al
è¯¢ éĹ®
Ġa ce
åĩı å°ı
Ġpriv ile
ĠM D
ģ áĢ²áĢ·
n ja
ĠIn g
. key
áº ·
çıį æĥľ
Ġv ig
olog ist
Ġh osi
Ġta o
Ġum o
è½¬ åĬ¨
is ip
Ġsl uÅ¾
Ġd oloÄį
Ġ{} ",
éĢĤå½ĵ çļĦ
Ġinvest ors
Ġt Å©
Ġ[ ];
Ġi ku
à² ļ
éĿĴ å²Ľ
èĴ ľ
- pl
entif ier
ĠF ull
ĠE F
ÒĽ Ð°Ð½
ĠF ederal
Ġrot ation
ä¸į åŃĺåľ¨
ÉĶ e
æī© æķ£
éĴ ¾
Im ana
çļĦ ä¸Ĭ
ins on
Ġd la
ĠÙħ Ø³
æĸ¯ çī¹
Ġch lor
åĬ© åĬĽ
è£ ľ
Ġáł ¢
æĪĲ æķĪ
le p
Ġs ocket
Ġny onso
h it
Ġà¤¤ à¥ĭ
Ġsas kaÅĨÄģ
èĮ İ
æĪ Ī
_st atus
_ out
è·¯ çĶ±
H i
Ġj uni
æĬ¥ ä»·
Ġapplic able
áĢģ áĢºáĢ
Å¼ a
ä¸º ä¸Ģ
Ġco at
áŀļáŀ Ĭ
a Ã§Ã£o
ĠW alk
ç¦ ®
ĠMin ister
Ġfor g
åļ Ł
áŁĴáŀ Ħ
et ta
H D
ä¸» è§Ĵ
Ġsh i
ç´ł åħ»
Ġinst ances
A X
Ġreturn ing
çī© æĸĻ
Ġphys i
Ġtong ue
à¦Ł à¦¿
mer ce
Ġg ev
D ocument
Ġre ar
ÑĮ ÒŃ
Ġr ay
lim its
Vis ible
çļĦ ä¸ī
ĠÐ½ ÑĮ
à½¢à¾Ĵà¾± à½´
ç¤¼ çī©
æģĭ çĪ±
áĥĶáĥ ķ
Ġam pl
ĠĠĠĠĠĠĠĠĠĠĠĠĠĠĠĠ ĠĠĠĠĠĠĠĠ
Ġbe i
çļĦ ä¸ĸçķĮ
ov at
Ġk ati
åī© ä½Ļ
áĢĻ áĢ½áĢ¬
ĠCom mon
éĺŁ åĳĺ
ä¹ĭ ä¸Ĭ
åĬ ĩ
ĠM om
æĸ° çĸĨ
H ave
×§ ×¨
Ġà´ ¤
ä¸º ä½ł
D ay
Ġinter ven
Ġd Ã¼ÅŁ
å¹ħ åº¦
Ġcoun sel
ĠáĢ¡ áĢģáĢ»
k oj
ãĤ ¸
áĢ¬ áĢĶ
Ġdeterm in
ĠtÃ« nÃ«
ĠÚ¯ ÙģØª
Ġmy ndig
ģ áĢ¼
åºĹ éĵº
Ġd ess
åİĤ åķĨ
iz za
Ġáī £
Ġkont roll
ort s
åĶ® åĲİ
é¾Ļ å¤´
Ġban ks
Ġw rap
éĶĪ éĴ¢
áĢŀ áĢ±áĢ¬
Ġbir ds
ĠJ ava
Ġcogn itive
èĬĤ æĹ¥
Ġd ent
Ġs ke
ĠAn alysis
çĸ² åĬ³
çľģ çº§
ä¼ĺ èī¯
ang ers
Õ¡Õ½ Õ¿
ä»İ æŃ¤
ĠK en
" ],
Ġh ÉĻ
ra it
çĸ ®
Ø¯Ùī ØºØ§ÙĨ
ĠM ur
àªµ àª¾àª¨
Ġì ľ
l ow
_c ol
ä¸į æĩĤ
ang kan
åĹ ½
ild i
çĽ ¼
æľī æĿĥ
åıĺ æĪĲäºĨ
Äĳ e
à½¢à¾ Ł
ĠÑĩ Ð°ÑģÑĤ
è¦ģæ±Ĥ çļĦ
co in
æĹ ±
åħ¶ä»ĸ çļĦ
åŁİ åĮº
Ġtrack ing
Ĥ àºŃàºĩ
âĢ¦âĢ¦ âĢ¦âĢ¦
åİŁ åĳĬ
al er
åįĹ æĸ¹
ä»İ å°ı
- Un
ĠÐ¿ÑĢÐµ Ð·
è¿ľ è¿ľ
Ġbare ly
ĠPro duct
éĬ Ģ
H ar
Øµ ÙĦ
ç¥ĸ åĽ½
Ġá¹ Ń
é¢ĳ ç¹ģ
Ġm t
æĭ¿ åĪ°
éĢ Ľ
è®¡ éĩı
Ġfrequ ent
çķĻ åŃ¦
çļĦ æł¸å¿ĥ
Ġn est
id al
Ġm ÉĽ
Þ¨ Þ
Åĳ s
ĠPer haps
Ù ¡
Ġpre val
éĢĢ åĩº
Ġr ising
is as
Ã¢ w
ĠK risti
pl er
ath a
ä¸ĵ ç§ĳ
ĠÐ´ Ð¾Ð»
ĠE li
áłłáł ©
ĠáĪĿ áĪµ
ĠT urn
Ġacqu ired
ĠáŀĶ áŀ¶áŀĵ
ĠI eova
áĢ¸áĢ Ľ
Ġstrateg ic
ĠIt aly
ĠÃ© rt
re land
æĪĳ å¯¹
Ġm Ãº
à¶ °
Ġpress ed
ec urity
. i
éī´ åĪ«
Ġb iex
ÙĤ ÛĮ
à¸ Ľ
g ical
Ø¯ ÙĨ
à®¾à®° à¯į
ç¿ ħ
Ġnt ango
äºĭä¸ļ åįķä½į
çĪĨ çĤ¸
Ġt ama
(m ap
éĢĤ å®ľ
Ġb ili
ç»Ī æŃ¢
Ġabsor ption
ĠResult s
æķ°åŃĹ åĮĸ
Ġparticip ation
Ġmil le
Ã¤ v
çļĦ åĬĽéĩı
Ġp ale
çļĦ è¯Ħä»·
ain hira
( ex
ĠÕ¯ Õ¨
.c lear
å½± è§Ĩ
áŀ¶áŀŁ áŁĭ
.ap ache
ĠC opy
Ġregard less
æ³¨ åħ¥
y z
ub u
æĦŁ çŁ¥
Ġk asi
ad el
åĩº å¸Ń
Ġre vers
Ġpro min
Ġdri vers
ar am
r Ã«
Ġ Ð°Ð³
g as
ail ure
ĠáĬĵ áĭŃ
T ube
Ġh ij
ĠÎ¿ ÏĢÎ¿
ojn Ã«
Ġu i
ä¸ĢçĽ´ åľ¨
t ok
Ð¾Ð² Ðµ
ãĥ ķ
áĢ» áĢģ
Ġpa ÅĦst
Ġstead y
Ġrepresent ative
ĠÐ ¯
: ?
Ġuk w
V P
áłłáł ¬
ist ence
Ġr us
ĠW as
Ð¸Ð½ Ð³
Ø§ Ú¾
Ð¸Ñģ Ñı
Ġà¬ ¹
Ġep id
åıĺ éĿ©
Ġs ind
Ġy ay
_s ub
- or
Ġap ost
ä¸Ģ æī¹
Ġ< -
áŁĴáŀ ħ
Ġcho osing
> {
ä¸ĭ éĿ¢çļĦ
æ¿Ģ æĥħ
æĦŁ åĬ¨
Ġrecept or
è¾ ±
å» ł
he der
Ġà² °
eg in
ç¬¬äºĮ æ¬¡
Ġde y
ĠH ard
æº¶ è§£
id os
B L
åıª éľĢ
Us ers
Ġn Ã©
Ð Ń
àª¿ àª¤
ĠAustral ian
éķ¿ æ±Ł
à´¿à´ °
ĠgÄ§and u
å¥¥ è¿Ĳ
ĠÉĸ ÉĶ
anc ial
æĩī è©²
Ġun expected
t k
áĥĶáĥ ĵ
Ġdi ad
åĪ¶éĢł ä¸ļ
Ġt rop
ĠÂ ¿
åı Ľ
Ġ×Ľ ×ľ
ĠA tua
åħĥ ä»¶
ploye e
Ġnerv ous
D isc
V S
Ġzu en
od en
Ġcl im
CP U
ost ream
D ele
çĳ °
ÑĸÐ½ Ðµ
åĲĮæ¯Ķ å¢ŀéķ¿
ĠIm ana
S ervlet
è¢« ç§°ä¸º
ĠG all
åºĶçĶ¨ ç¨ĭåºı
c ss
l ade
ĠÒ ¡
ĠI R
åį Ĵ
Ú «
è¿Ľ äºĨ
å¤§ äºĨ
äº ŀ
ĠM id
âĢ ŀ
ogen ic
.t est
ÙĦÙī Ø¯Ûĩ
Øª Ûķ
Ġà¨ Ń
Ġc ursor
r um
ĠØ³ ÙĪ
è¾ĥ å¥½
Ġen ables
ä¸ĢèĪ¬ çļĦ
se en
Ġj ih
ĠKomis ija
b ÃŃ
ĠáĪµ áĪĪ
Ġvalid ation
O U
T erm
Ø§ Úº
at on
c ence
áĥĿáĥ ĵ
Ġà¤ľ à¤¾à¤¤
å¹² é¢Ħ
Ġbreak ing
ens i
Ġte hn
å¿½ çĦ¶
à§ĩà¦ ¶
H ello
Ġf Ã¼r
op es
ç¿ °
Ġpublic ation
æī® æ¼Ķ
ag raph
Ġ Ð°Ð¿
Ġwork er
- aw
Ġà² Ĺ
Ġpath s
Ġm ont
ä»¥ åħ¶
for ward
àª ļ
ç§» æ°ĳ
ĠJack son
Ġs Ã¼
å®Į äºĨ
èĢģå¸Ī çļĦ
v ia
å·¥ ä¼ļ
Ġk ue
ĠÙĩ Ø§
C opy
å¼Ģ åı£
V a
S ur
Ø¯ ÙĪ
çļĦ æĸĩæ¡£
çļĦ çĬ¶æĢģ
Ġle ver
ĠÐ¼ Ð¸
ä¸į è¶ħè¿ĩ
n ji
Ġo cean
/ kg
Ġstre ets
Ġhe aling
ĠWe ek
à¯įà® µ
è½½ ä½ĵ
Ġsp rem
Ð¾ÑĤ Ð¾ÑĢ
riend ly
id x
, (
åĬ ĥ
çļĦ æ¦Ĥå¿µ
å¦ Ĭ
Ġun defined
Ġexec ute
Ġatt itude
Ġdec ade
è¿ĩç¨ĭ ä¸ŃçļĦ
ab lo
ä¸» è§Ĥ
ang ka
Ã ĩ
ĠáĢ ¬
Ġáłª áł¦áł
æĢ» éĥ¨
Ġprov ision
Ġà¤µ à¥įà¤¯
ol at
lo op
Ġà² ľ
ins a
Ġemo tion
å¯Į æľī
ĠØ ¶
Ġw ara
à®¿à® ķà¯įà®ķ
Ġreach ing
P i
Ġcl imb
. event
Ġgen u
Øª ÙĤ
Ġsh irt
or de
Ġk ri
B R
( Q
in io
Ġmir ror
ç³»ç»Ł ä¸Ń
ĠC ross
ĠÐ° Ñĥ
: n
ĠCong ress
Ġsup pose
ath u
ÙĦ Ø§ÙĨ
åĪ° æĿ¥
éĻ¢ éķ¿
ĠCl in
ä¿ĥ ä½¿
Ġche ese
Ġm ÃŃa
Ġsc ream
anc hes
àŃĭ à¬
um en
ĠÐ² ÑĢ
Ç Ķ
Ġmo on
.p ost
ìĹ Ī
Ġpr en
Ġt ension
ĠS in
Ġáĥ¡ áĥĲáĥ
Ġper k
äºĮ æīĭ
èĩªæ²» åĮº
è®° ä½ı
´áł¢áł ¯
Ġdis h
Óķ Ñħ
à½¦ à½´
Ġret ro
á¹ Ń
Ġl oro
Õ¡Õ¶ Öģ
Ġpack et
old s
Ġtr im
çĻ¼ çı¾
ĠÐ ¦
Ġmb eni
ĠÚ© Ø´
Ġpay ments
Ġf is
Ġáł£áł ·áł
Ġout door
Ġir r
èĵ ¬
Ñı Ð¼
çŃī éĹ®é¢ĺ
Ä± ÄŁÄ±
an ne
×ĺ ×¨
Ùĩ Ùħ
ä»ĵ åºĵ
S igma
n oj
å¾Ī é«ĺ
Ġ×ŀ ×Ĳ
Ġpri e
è§Ĩ éĩİ
Ġsam t
ä¼ļ å¯¼èĩ´
æĮĳ éĢī
à¤¸ à¥Ģ
ĠS ab
er k
Ġwas h
Ġreal iz
ag nos
äºĨ ä¸ĢäºĽ
ç§į ç§į
S u
ÉĶ m
è¾ĥ å¥½çļĦ
Ġeg gs
Ġcollabor ation
_m at
à° Ł
Ġsem ua
Ġle ct
c ur
æĦı çļĦ
yb ÄĹs
Ð°Ð» Ñĸ
ĠÄį as
ti o
è½¦ éĹ´
èĢģå¹´ äºº
Ġess entially
K on
ĠM ak
ĠÃº Äį
ĠB ow
an ana
Ġan ni
Ïħ Î½
ç»Ļ äºº
ë Ĳ
ier a
Õ¾ Õ¸ÖĤÕ´
ŀ àº·à»ĪàºŃ
Ġam er
à§įà¦ ¥
ul at
ä¸º ä¸Ńå¿ĥ
Ġkom p
æķĻ ç»ĥ
Ø§ Ûĭ
I AL
ç¼ĸ åı·
Ġmin ister
ip er
mas Ä±
áĢ¬áĢ¸áĢ Ľ
Ġs yst
ĠSer ies
è®¤ åĲĮ
áŀĳ áŀ¸
æŀ¶ æŀĦ
ib il
_ u
Ġb anyak
à¤Ĥ à¤¡
tific ial
ter ed
Ġneg ara
åľ¨ ä½¿çĶ¨
Ġattack s
Ġt ara
Ġany á»ĭ
ĠP iala
Ġpen y
$ ,
Ġwor ried
æĨ ¾
Å¼ joni
à²Ĥ à²¡
è°Ī åĪ¤
ĠÃ ª
Ġd ates
äº« æľī
an ka
ä¾Ŀ æ¬¡
å§ ¨
Ô µ
= self
Ġn Äĥm
Ġsh ower
à²¾à² ¯
x ml
Ġe w
çĪĨ åıĳ
ĠÒĽ Ð°Ð»
Ł à«ĩ
ä¸į åºĶ
' est
áĮ »
F il
ÆĴ o
èģ ĸ
áŀĵ áŀ¹áŀĦ
ç³ Ł
ĠÐ¿ Ð¾Ð·
ĠY er
A ST
ä¸įéĶĻ çļĦ
st op
Ġà¦ ĩ
å¤ĸ çķĮ
çļĦ ç¡®
åĩ ĳ
è´ ¼
ä¸»è¦ģ åĮħæĭ¬
Ġd ic
ĠÐ´ ÐµÐ¿
Äĳ en
ĠAr m
Ġdeep ly
áŀĺ áŀ·áŀĵ
z zjoni
ÉĻl ÉĻr
N G
Ġb ana
Ġg ov
æģ Ń
à¯Īà® ķ
ì °
Ġcontrib utions
Ġman agers
Ġsh adow
ĠvÃ½ rob
èĳĹ åĲįçļĦ
Ġman aging
. User
us tice
æĮī æĳ©
àµģà´ ķ
be j
: ãĢĬ
ä½ł å¯¹
ĠÚ¯ Ø±
Ġà¨ķ à©Ģ
Ġc ov
è½ ©
Ġmem ories
Ġb ena
æĿ¥ è®²
Ð°Ð½ Ð¸Ñı
Å¼ e
ĠMedic ine
Ġsatisf ied
à¦ ·
Ġhe ating
Ġbul k
ok at
rup ted
ĠÄ §
áŀ» áŀĵ
Ġ× ĺ
å¹¶ å¯¹
hy th
åį ĳ
ĠAp plication
are st
col lect
åĮĹ æĸ¹
ÑĦ Ð¾ÑĢÐ¼
æıĲ èµ·
el de
à§ĩà¦ ĵ
Ġsem i
Ġkon kur
Ġens uring
Ġa iz
ä¸Ģ éĥ¨
ĠS v
c ion
Ġperson ality
ĠÐº ÑĬ
å¤ļ äºº
çľŁ ç©º
è§Ħ ç«ł
åĳĬ çŁ¥
Ġm M
è¶ħ å¸Ĥ
Ġther ap
Ã± o
ä½ı éĻ¢
åĪĩ éĻ¤
ou g
Ġe e
_ val
Ð°Ò Ł
Ġdem ands
il st
et r
ĠSome times
lj iv
and en
äºĨ èµ·æĿ¥
b ow
Ġh w
Ġdis orders
m ol
Õ Ģ
çĻ¾ å¹´
Ð¸ÑĨ Ð¸
j sk
z on
å¥½ åıĭ
_w idth
Ã«n Ã«
ĠD u
Ġrepresent ing
Ġple ased
_id s
Ä« gi
ĠÐ¿ Ð»
è¿ĩ æ¸¡
] ))
Ġcompos ed
. height
æĪĳ æľī
ĠJ a
æŃ ĩ
æī¶ è´«
å¦ ĥ
èµ· ä¾Ĩ
ĠT our
ĠCons ider
Ġattr active
æķ´ æ²»
Ġcry stal
Ġà¤Ń à¤¾à¤°
Ð¾ÑĢ ÑĤ
çģ« çģ¾
ĠÑĢ Ð°Ð´
Ġà·Ģ à·Ĵ
å¦Ĥ æľī
Ġb ars
itud es
ÑĢÐµ Ð±
Ġch ocolate
æµģ çļĦ
Ġroz por
Ġstro ke
C r
Ġhe eft
uns igned
mes ri
Ġn kh
che m
è¶³å¤Ł çļĦ
Ġl anguages
ĠÐ½ ÐµÐ¼
ec ess
ĠA sh
ä¹Ĳ è¶£
Ġpay load
Ã ģ
å¸Ĥ å§Ķ
×Ļ× ¦
é¥ ¿
Ġmove ments
Ġb ands
å°± è¡Į
æĸ° å»º
à§ĭ à¦ķ
Ġrequest ed
å¿« éĢĴ
Ġre fr
ĠB ud
ĠDes pite
æĪĳ éĥ½
Ġod p
ĠL ittle
Ġch ol
Ġclaim ed
ul ties
he ast
ä¸Ģ æ¨£
Ġqu ar
Ġpre l
ub i
A rea
Ġoku ti
Ġup rav
Ġi ba
Ġrecommend ations
ĠØ§ÙĦ Ø¨
èģĶ èµĽ
Ġinj ection
/p kg
Ġm Ã´
Ġmaint aining
C ho
è¶ ģ
à»Ī àº²àº
àº± àºģ
ĠÐ¿ÑĢ Ð¾Ð´
à´ ¦
on th
Ġpregn ancy
çĶŁ æ¶¯
b ru
Ġpo inter
Ġ áĢº
ĠÐ³ Ð¾Ð»
åĴ³ åĹ½
n ice
ut us
¡ à¦¼
Õ¥Õ¬ Õ«
Ġrad ical
. un
ä»ĸä»¬ åľ¨
æŀ £
æĬķ è¯ī
à«įàª¯ à«ĭ
åĢŁ éī´
ĠÄįlÃ¡n ku
é¾ Ł
Not Found
áĥ£áĥ ļ
or er
ĠÐ¼Ð¾Ð¶ Ðµ
mar shal
à»Ģàº ¥
ÛĪ Ø²
à¤¢ à¤¼
Ġcamp us
Ð´ ÑĭÑĢ
ĠB ern
ĠK al
æŀģ ä¸º
j ali
çī¹æ®Ĭ çļĦ
ĠT ok
èĪ ī
æ½ ĺ
p H
åĪ ¹
up h
a uth
ä»ĭç»į äºĨ
Ġan u
Ġod nos
åľº ä¸Ĭ
_ arg
ä¿Ŀ æ¸©
c ite
Ġincred ible
izab eth
è¿ĺ æ¬¾
_ int
áŀĺ áŀĢ
Ò ļ
ĠK now
Ġpod at
ĠR us
æ³ķ æ²»
. time
äºĶ ä¸ª
oc o
Ġass embly
áĬ »
Ġhard ly
à¯ģà® ®
Ġab o
Ġsus pect
åį ¦
Ġto ga
comp any
qu er
ĠC ase
po ch
LO G
åĥ ħ
Ġbor row
Ġsup plies
å¹¶ æľª
ĠÙĨ Ø§Ùħ
Ġreput ation
ĠÐ± Ñĥ
Ġm int
å¸Ŀ åĽ½
Ġd ua
Ġ- =
ex pect
Ġp ace
B uf
Ġáł¬ áłłáł®
ĠB ased
set t
è¡Į æĥħ
ĠK im
Ġsuggest ing
ke zd
Ġcent ers
çĤ¹ å¤´
L ayer
ä¸Ģ çº¿
Ġsepar ation
add r
çŃĶ é¢ĺ
èĸ ¯
ĠD eb
ar is
Ġen vironments
ly mp
Ùħ Ûĩ
j am
equ al
Õ ®
g ÉĶ
Ġm ali
Ġol geta
ĠKing dom
ĠNz ambi
åĩĿ èģļ
ĠSt an
ä¿® æŃ£
×ł ×Ļ×Ŀ
Ġput s
ing an
Ġáł ±
object s
c il
åıĮ æīĭ
åľ¨ è¿Ļç§į
Ġtem porary
Ġv iet
åĥı æĺ¯
è¯Ŀ é¢ĺ
ĠA C
å¨ ĩ
å¼ı ä¸Ń
ĠÐ² Ð¸Ð´
à¦¬ à¦Ĥ
ro f
yn n
h ok
åį« æĺŁ
Ġak ong
åĪĨ è¾¨
äºĨ åĲĹ
Ġbirth day
ä¼Ł å¤§
j ung
Ġign ored
åĩı èĤ¥
Ġprocess ed
h ir
om atic
ape utic
up er
ĠS A
Ġexpl ains
ele l
ĠáĢ Ŀ
B T
ĠJ ob
Ø¨ ÛĮ
epend ency
Ġwar rant
æĹł åħ³
à¨° à©Ģ
miss ie
Ġr av
éħ °
_T YPE
Ġconstr aints
ç§ģ äºº
ĠÕ¥ ÖĤ
çĴ° å¢ĥ
çī¹ åĪ¥
ti ble
Ġac et
ĠJew ish
æĿ ł
çĪ· çĪ·
B ir
k ab
Ø± Ø§Øª
æľ¬ åıĳæĺİ
áŁĤ áŀĢ
ĠI F
åĩŃ è¯ģ
àºĶàº į
à®µ à®°
Ġex clusive
Ġloss es
Ġsk ont
o Äį
Ġà¦ª à¦°
Ġen a
àªµ àª¾àª
åıĸ ä»£
éĥ¨éĹ¨ çļĦ
Ġauthor ities
fo ot
å¨ ł
Î¹Îº ÏĮ
Ġde grad
Ġ, $
ä»İ ä¸Ń
ê² ½
ĠC u
Ġsome how
Ġd Ã³
Ġu ko
ÛĲ ØªÙī
om m
áĢ ī
åĩº åı°
Ġsubstr ate
ber ry
è¾ĥ å°ı
man ager
ĠP or
Ø¦ Ø±
Ġ\ {\
è² ¼
ilib rium
.h as
ë¬ ¸
anc ement
set minus
áł¡áł °
à´¿à´ ļàµįà´ļ
éĤ£ ä¸Ģ
ÑĪ Ñĸ
Ġap plies
Ġkon tr
inn ed
çº¿ ä¸ĭ
æŃ ·
Ġang er
å¾ģ æĶ¶
os it
Ġar my
çĶµåŃĲ åķĨåĬ¡
æ¿Ģ çĥĪ
ĠdrÅ¾ av
ç¼ĵ æħ¢
æļ´ éľ²
Ġdre ams
ĠÙ ±
à½ §
áģ Ĩ
, and
Ġà¤¹ à¥Ģ
éª Ħ
Ø§Ùħ ÙĦ
Ġins ight
[ k
åħ¬åĬ¡ åĳĺ
å¤ı åŃ£
C ore
ĠS her
å±ķ è§Ī
ĠÙĪ Ø±
Ġord inary
æķĻå¸Ī çļĦ
Äĭ Äĭ
ä»Ģä¹Ī æĹ¶åĢĻ
Ùī ÙĤ
è¾ĥ å°ĳ
( url
Fl ag
èĩª èĢĥ
Ä« v
b ors
Ġprof essor
ĠInst agram
.h pp
é ¨
ä½ĵçİ° äºĨ
ut f
èµĦ è®¯
OR E
ec a
w it
æĻ ĥ
Ġm oto
çļĦ ç»ĵæŀĦ
Ġ' ''
ÙĨ Øª
tim o
åħ¬ ä¸»
ial s
al ang
Ġne v
Ì Ī
Ġz al
Ġas c
à§ģ à¦²
Ø§Ø³ ÛĮ
æł ĭ
Ġmembers hip
è°¨ æħİ
Ø ¡
Ġed ition
} }$$
.cont ent
åľ° éĵģ
ug ins
em per
É© É©
ç° §
ar te
Ġwrit ers
å¥ĩ æĢª
Ġ íķľ
} `
ç»Ļ å¤§å®¶
ç©¿ çĿĢ
ets a
ĠP ed
Ġà¸¡ à¸µ
Ġk ale
on n
ĠW at
Ġàª¤à«ĩ àª®
Ð°Ð¶ ÓĻ
Ġdeterm ination
. +
à¥ģ à¤¸
Ġstrugg le
èĢĮ æĪĲ
Þ° Þ
- he
Ġvari ations
à¦¾à¦ ª
og at
irt ual
H et
Ġlif estyle
Ġshoot ing
_ json
ä¸Ĭ ç½ĳ
Ġs ought
å¦Ĭ å¨ł
ĠÐº ÓķÐ½
up un
ÑĢÐµ ÑĤ
à½ĵ à½Ħ
R ate
åľ¨ åħ¶
à½ĺ à½Ĳ
Ġm ia
éĽ Ģ
Ġf en
ÙĨ ÛĮÙĨ
ow ego
åįģ ä¸ĥ
æĮ ½
on te
. google
è° ¦
Ġprogram ming
Ġb aba
áŀģ áŁĴáŀĽ
pro t
è¯ģ å®ŀ
Ġorient ation
ä¸į å®¹æĺĵ
ap ons
Ġgod ina
àª¹ à«ĩ
Ġd ne
Ġmod es
ÏĢ Î±
Ġhard er
Ġáŀ Ľ
åľĨ å½¢
ĠP ri
Ġeks port
å®Į æ¯ķ
l iv
áĢĦáĢ¹ áĢ·
at ile
Ġre tire
m id
Ġkar o
Ã³ Ã²
ull a
Ġr ats
b tn
åĲĮ æł·çļĦ
áŁĴáŀ ī
æĢ ľ
Ġvo z
Ġáĥ ŀ
on zi
ag h
Ġde als
iy or
Ġsi y
ess o
ìĿ Į
iz able
ç§¯æŀģ æĢ§
éķľ å¤´
áĥ Ļ
ä»·åĢ¼ çļĦ
Ġsh it
hov ah
Ġkw ambiri
ç»ĵæĿŁ åĲİ
ä¸Ń æľĢ
Ġint ense
cle ar
bl ack
n ica
ĠÙħ ÙĦ
Õ Ħ
z ik
à¤¾à¤ ¡
Ð¼ Óķ
æĦı åĽ¾
iy an
Ġsh out
à§ ¦
ç¦ ħ
Ġk ain
èĪ Ĩ
Ġal pha
Ġbox es
w Ã©
ĠP as
Ġsam pling
Am ount
Ġoverw hel
åĨ ¶
à«ĩàª ĵ
is he
äºº åĿĩ
Ä«b val
ox id
ĠD I
å¯¹çħ§ ç»Ħ
ĠL esa
Ġj in
Ġj as
è¡¨ æł¼
ä¸ª åĪ«
Ġexc it
Ġpil ot
Ġlimit ations
Ġres c
à»Ī àº²àº§
åĥ µ
Ġal ap
é® ®
ĠB E
Ùİ ÙĦ
Ġc odes
æĹ¶ä»£ çļĦ
à¤ª à¥įà¤°
è¯ķ çĤ¹
áº§ u
éł Ī
àª Ī
æ¯ ¯
Ġutil ity
ä¾ĽåºĶ éĵ¾
ĠUn it
Ġaff ili
Ġgb ÉĶ
Ġm ÄĽ
eta an
t emp
Ġcommit tee
ĠO x
Ġcl othing
sk y
à¨¤ à¨¾
å¯¼èĩ´ çļĦ
al q
M O
ĠH im
p assword
éĹ ¸
all oc
Î³ ÏģÎ±
áĢ±áĢ¬ áĢ·
Ġas ks
b est
( root
å°ı åŀĭ
ĠÕ¥ÖĢÕ ¯
æĪĸ åħ¶ä»ĸ
àµģà´ Ł
Ġy am
' an
èµĭ äºĪ
åĨ° ç®±
ä¸ĭ æĿ¥çļĦ
ĠÑĩ Ð°Ñģ
Ú Ī
åĩĢ åĮĸ
Ġfit ness
od els
Ġdocument ation
å¤§ èµĽ
Ġad mitted
çļĦ ä¸¤
ĠCh ief
âĢ¯áłª áłłáł·
Ġappoint ment
Ġbl ir
ÓĻ Ð»
Õ¥Õ ´
çĶ¨ åľ°
à¯ģà®¤ à¯įà®¤
Ġfe at
ut ta
åīį åĪĹ
Ġpow ers
ä¸Ń å±±
Ġill ust
ova Å¥
àºĻàºµ à»ī
Ġvis iting
ĠR NA
l ij
âĦ ¢
Ġì Ĥ¬
ad zi
og s
ĠØ¯ ÛĲ
Ġstay ed
Ġoptim ization
å®½ åº¦
Ġjudg ment
æ¯ı åĳ¨
s plit
x B
Ñı ÑĢ
st ack
Ġgot ten
Ġ' \
_ item
ĠSt atus
ä¹¦ ç±į
d al
åºķ éĥ¨
es tim
Ġhypothes is
ä»İ ä¸ļ
à½¦à¾ ¡
åĨ¬ å¤©
rie ve
d ek
Ġle v
ĠĠĠĠĠĠĠĠĠĠĠĠĠĠĠĠĠĠĠĠĠĠĠĠĠĠĠĠĠĠĠĠ ĠĠĠĠĠĠĠĠĠĠĠĠĠĠĠ
D iv
åĽŀ é¡¾
ĠAn ti
ĠEuro p
ĠÑĤ Ð°ÑĢ
ec z
in cluding
Ġper lu
å¤§ äºº
àº± à»ī
ĠS atan
ĠInd eed
ĠneÊ¼ ebÃ©
G T
ê± °
Ġfin ite
Ġclos ing
- u
Ġac ids
ĠS rb
åĪĨ åī²
Ġeffec tiveness
ar tifact
à¤¾à¤ §
è¿Ļ ä¹Ł
ä¸Ģæ®µ æĹ¶éĹ´
åı¸ æľº
_ and
ĠC amb
è² ¬
ĠJ Ã©s
Ġcan vas
-d imensional
áģ Ī
ĠÄį len
ip un
Ġcons ent
ĠÅµ ak
Ġspec tra
à¸ģ à¸²à¸£
åĪ¶ çº¦
Ġw ong
ear s
Ġsm oke
ĠK as
ç§» æ¤į
ĠÐ¼ ÐµÑĤ
Ġassess ed
o ir
åĤ ·
Ġp atch
æľī ä¸ĢäºĽ
Ġreg ression
å¥ ¢
Õ¡Õ¾ Õ¸ÖĢ
Ġarri ve
å¯¹ ä½ł
_ no
è¿Ļ åı¥è¯Ŀ
Ġcomp ute
èĭ¥ æĺ¯
æĪĳä»¬ å°±
åĨ³ å¿ĥ
Ġaccom pan
ug os
ä½ľä¸º ä¸Ģä¸ª
u un
ĠÑĥ Ð±
Õ¡ÖĢÕ ¿
Ġent ries
Ġ" <
ĠW atch
ĠÏĢÎ± ÏģÎ±
ä¸į éĶĪéĴ¢
Ð¸ÑĨ Ð°
k em
çĻ¾ ä¸ĩ
ÓĻ Ðº
Ġprogram me
èı ĩ
ĠÐ² Ð°
Ġàº Ń
Ġro ots
ĠC ore
æ´Ĺ è¡£
ari ant
Âł Ø¨
it led
Ġde ploy
Ġra Å¾
Ð°Ò ©
æĺ¯ éĢļè¿ĩ
Ã¨ r
å¦Ĥæŀľ æ²¡æľī
àª¾àª° à«ĩ
Ġku j
Ġrespec tive
äº¤ ä»ĺ
ĠÐ· Ð±
he z
áĢľ áĢ¯áĢķáĢºáĢ
Ġsched uled
ĠÙĨ Ûģ
od ec
ah kan
æİ§ èĤ¡
N P
Ġt ack
Ã¼ y
ä¸į å½ĵ
pro v
åĳĬè¯ī æĪĳ
Ã« nd
Ġevery day
W ord
ãģĦ ãģŁ
å¯¹ ç§°
err ors
p are
çĶ² çĬ¶
ĠStud ies
à½Ĥ à½ı
Ġal b
ÑĢÐµ Ð·
áł¤áł ®
Ðº Ð¾Ð²
à· Ĥ
æİ¥ å¾ħ
Ġà¤¸ à¥įà¤µ
èĤĮ èĤ¤
Ġy Ã¢
Ġg Ã¼
ĠT y
à«įàª¯ àª¾
æĥ³ èµ·
èĩ³ åħ³
Î¹ Î½
æľī ä¸Ģå®ļçļĦ
Ġmort ality
çİ «
ab out
ched ule
à§įà¦ ¯à¦
Ġcon ce
ĠPr int
æī Ķ
åŃĲ ä¸Ĭ
æĬµ æĬĹ
æĸ ©
åİī å®³
- ,
ĠCom missie
ä¸ĢèĪ¬ æĿ¥è¯´
åĨ³ èµĽ
aj Äģ
ÐµÑĢ ÐµÐº
Ġqu ote
q ip
éħį ä»¶
Ä± lÄ±
ap ela
ä¿ ±ä¹Ĳ
æĹ¶ æľº
Ġg aran
à¤µ à¤¨
éĤĦ æĺ¯
Ð»Ñİ Ñĩ
ĠÐ³ Ð¸
pa q
Ã¤ na
, âĢĺ
Ġlik es
èĥ ļ
ĠÐ¶ ÐµÑĢ
áŁ Ī
- gr
áĥ£áĥ ł
Ġà¸Ħà¸ §à¸²à¸¡
çŃī æĸ¹å¼ı
Ġscre ening
Ġc ikk
æĹ© å°±
ow ed
Û ¸
çļĦ æľīæķĪ
çļĦ è§Ĵåº¦
ĠY ang
æĲŃ å»º
Ġf atin
ĠCan adian
Ġaddress ed
Ð¼ Ð°ÑĤ
ĠVirgin ia
Ġentr ance
èĤ¡ å¸Ĥ
t ong
b ud
çĶ¨ å¿ĥ
Ġinte ger
h á»į
à¥ģ à¤¦
åħ¬ æĸ¤
æıı åĨĻ
çĦ °
Des c
ant is
Ġpred iction
Al so
æ±ī è¯Ń
Ð¾ Ð¸ÑĤ
Ġw Ã³
æĪĲ åĵģ
ç©º ä¸Ń
Ġserv isu
æ¾³ éĹ¨
Ġs aving
å¥½ çľĭ
Ġdes per
åĨħ åľ¨
ĠS ta
äºĨ ä¸ª
Ġn da
ĠÕ¶ Õ¡
áł¡áł ¯áł
Ġy ab
æ²¡ æĥ³åĪ°
åĴĮ æĪĳ
Ġ Äģ
ob il
bu at
àª Ĩ
Ç İ
ĠTh ough
l ass
åĪ° ä½į
ĠJ Ã¨hÃ³fÃł
Ġintellig ence
ÙĤÙī Ø±Ùī
èµ· çĤ¹
Ġà®ĩ à®°
Ġpropos al
Ġref ers
å¹³ è¡Į
tt es
ÉĶ a
Ġmag azine
áĪ ²
is d
ĠfÃ¶r ordning
Ġd ual
ri ent
ĠD un
æĪª æŃ¢
Å¡ Ä·
èĳ£äºĭ éķ¿
å£° æĺİ
ä¸Ń ä»ĭ
æľª ç»ı
èĲĿ åįľ
( cl
clos ure
çĲĥ è¿·
Ġz ip
ti ga
b ols
Ġsel v
Ġguaran te
Ò ½
Ġarri val
ä¸į æ¸ħ
Ġmig r
åĪĩ æį¢
Ġz as
à¤ª à¤°
åĩł æ¬¡
Ġc ik
_ read
áī ¦
Ġáŀ ģ
Ġ" +
æľ¬ ç«ł
Ġpag s
Ġm f
S pace
ĠC at
çŁ «
z É©
é« ®
ly n
ç¡¬ çĽĺ
Ġbow l
Ã« l
æ¦Ĥ æĭ¬
áŀ¼ áŀľ
Ġom f
en j
Ġstr ukt
è¡¡ éĩı
ĠÐ¸Ð¼ Ð°
Ġar ts
ĠS till
Ġfact ory
Ġse es
çĽ ¯
( V
è¿Ļ åľº
éĴ¢ çŃĭ
as ic
Ġcomple tion
è½¬åĮĸ ä¸º
ÓĻ ÑĤ
Ã¦ g
ç»Ļ æĪĳä»¬
Ġtransport ation
ĠSe a
IM E
( I
äºĨ ä»ĸ
çĶµ ä¿¡
Ġn ost
Ġb Ä§
åįł æį®
Ġdisc overy
ä½ĵ æ£Ģ
ans as
Ġe u
ß¬ ß
áĢĿ áĢº
Ġg ri
çº§ åĪ«
éģŃ éģĩ
æĢ» ç»Ł
Ġáĭ¨ áī°
æ°´ åĪ©
Ġk ernel
ĠØ¨ ÙĦ
ĠÏĮ ÏĦÎ¹
åħ¨ å¹´
é Ĳ
Ġbet a
åĬ³åĬ¨ èĢħ
à² ·
Ġ' <
Ġtrans actions
ĠR eb
Ġb old
over rightarrow
ï¼Ī ï¼ī
akh ala
de bug
-t op
Ġfol ks
ĠD ebug
Ġcomp rom
em en
é¢ ¤
ĠJ ose
Ġcom pliance
Ġàº ļ
è¯Ĺ æŃĮ
éĤ® ç®±
ĠÐ½ Ð¾
Ġw sp
Ġs s
å¸® æĪĳ
P ass
æĹ¥ æĬ¥
Ġchild hood
ĠB razil
is ch
ĠE mp
ĠÕ´ Õ¡Õ½
ä¸į åĪ©
up e
ĠS ek
Ġf ia
Ã¤ vÃ¤
Ġeg g
ĠStand ard
Ġch ur
Ġsp or
áº¹ ÌĢ
Ġpos itiv
åĽŀ åºĶ
Î´ Î¿
Ġp asi
ĠÕ ±
ĠÑģÐ» ÐµÐ´
Ġth irty
Ġre ly
Ġsett led
ĠB os
æĪĲ çĤº
C s
áĬ Ĵ
r ak
Ġà¸ ĸ
à¸µ à¹Ī
ÃŃ l
U na
Ġun w
ith i
ed o
éħ ¿
Ġab stract
ĠM oh
çŃĽ éĢī
Ġest r
æĿ ı
éģĹ äº§
èµ° åĬ¿
ai an
Ġm ing
Ġach ie
å®ĥä»¬ çļĦ
ig g
Ġ& [
q ay
Ġtrack s
Ġm ene
Ġ×ĳ ×©
ĠN ic
åģļ ä»Ģä¹Ī
. web
Ġcover ing
ç»Ł çŃ¹
ap im
Ġfac ed
U ST
Ã¤n Ã¤
åħ¬ åħĥ
è¦ģ çĤ¹
ag n
Ġroll ed
ĠS O
åĳ ķ
el ve
ĠK ong
fun a
Ġdel icious
IN D
ĠS M
ĠProf essor
Ġalgorith ms
é¡ ½
à¤°à¥įà¤ ¨
. âĢľ
ä¸» å¯¼
è¯ µ
Ġs unt
æ©¡ èĥ¶
Ġmar ks
ĠRes ource
Ġk Ã¡
åĤ¨ å¤ĩ
çŃī åĽłç´ł
Ġst yl
Ġa Ã°
èº« å¿ĥ
Ġconst itu
ĠØ§ÛĮØ± Ø§ÙĨ
Ġdoc tors
åĩł åįģ
ĠÐºÐ¾Ð¼ Ð¿
áĢ± áĢŀáĢ¬
ä»ĸ å°±
àª ĸ
åĨį åĬłä¸Ĭ
åĴĮ æĬĢæľ¯
up p
op las
à«ĩàª ¶
è¿Ĳ è½¬
Ġc ot
à®² à¯į
è¿Ļæĺ¯ ä¸Ģä¸ª
g Ã¥
ä¾Ŀ æīĺ
ç¾ ŀ
Ġp ek
éĿł è¿ĳ
Ġgr ace
æĳĦ åĥı
, ,
äºº äºº
Ġse p
Ġb omb
Ġv art
Ġacknow led
.s c
Ġs ine
à¤¿à¤ ¶
Ġb reat
Ġm ild
ession al
Ġsl ice
ä¼¼ çļĦ
Ġmor is
é¢Ĩ åıĸ
æĤ¨ å¥½
ÐµÐ½ Ðµ
ÐµÑĤ Ð°
å¢ĥ çķĮ
ç»ĦæĪĲ çļĦ
st ers
Ġb ari
èµĽ äºĭ
Ġcor on
ï¼ Ŀ
æ¶² åİĭ
/ M
Ġstudy ing
Ġcl ip
ĠL oad
Ġàº ģàº
ici ents
Ġtem pu
Ġàªľ à«ĩ
Î¼ ÏĨ
Ġtick et
å°ĳ å¥³
oc ytes
l ap
è®© èĩªå·±
Ġáł¬ áł¥áł
äºº ä¹ĭ
åıĹ çĽĬ
ci um
å®¿ èĪį
äºĨ åĲ§
Ġj anu
ç§ ī
ĠØª ÙĨ
ĠN ick
Ġd ug
Ġper me
.t arget
æĸ¯ åĿ¦
ĠF ather
èĤł éģĵ
ç²¾ åĵģ
ä¸įæĸŃ çļĦ
èĬĤ çľģ
r Ã¡
Ġtiss ues
á± ¤
åĩº çı¾
Ġmen nes
g re
ie i
ard i
è¼ ī
_ client
Ġed il
çĥŃ æ°´
åĲĪ ä¼Ļ
Ã¥ l
ĠH D
çŃī åĪ°
Û ´
ĠÐ¾ Ð²
å¤ļ å¹´çļĦ
an ner
å¾® çĶŁçī©
Ġb oss
Ġlife time
Ġà® Ĵ
Ã«t Ã«
è¾ ²
ä¸į å®ī
è¢« äºº
Ú¯ ÛķÙĨ
èģļ çĦ¦
Ġl ying
åħ¨ ç¨ĭ
est roy
ĠáĢ ¼
ĠÑį ÑĤ
ĠS eb
Ġà¦Ĩ à¦®
ig s
ĠI reland
Äį ke
çº¦ ä¸º
ij al
åĲĦ å¤§
Ġà¦ı à¦¬à¦Ĥ
ib h
Ġ-- -
çļĦ ä¸ĢäºĽ
å¡ĳ éĢł
rv ats
ĠAm ong
Ġp d
åī¯ ä¸»ä»»
åı¯ åĪĨä¸º
æīĭ ä¸Ń
Ġm k
Ð´ Ð¶
èµĦæľ¬ ä¸»ä¹ī
or ous
as ks
Reg ister
Ġn ic
T x
l ayout
back ground
ç®Ģ çĽ´
ä¾ £
á»ĩ n
ÃŃt Ã¡s
åĬŀ åŃ¦
Ð± Ðµ
Ġk any
æłĩåĩĨ çļĦ
emp re
Ùī ÚŃ
Ġentertain ment
çģ¾ å®³
å®īåħ¨ æĢ§
Ġbe kezd
Ġáį į
: \
åºĶ åľ¨
âĢ¯ áłłáł
ra el
çĸ«æĥħ éĺ²æİ§
è°ĥ è§£
ĠWh ich
Ġk ÉĶ
Ġcur ves
S erial
ĠØ§ÙĦ ÙĨ
Ġt orn
ĠH al
EF A
m Ã«
( args
Ġimpress ive
m az
Ġj ul
Ġafford able
çīĻ é½¿
æŃ ²
Ġh osp
ĠÐ´ ÐµÐºÐ°
ê³ Ħ
Ġcolle agues
Ġnh Æ°
or ne
à»Ģàº® àº»
Ġcult ures
ìļ Ķ
Ġz ast
Ġá ½
. **
èĭı èģĶ
çĶŁ åĬ¨
ĠÐ± Ð»
Sc ale
Ġáł ¥áł
áŁģ áŀī
N H
å®ŀ åľ°
SE LECT
æĹģ è¾¹
Ġa in
Ġin com
åī Ľ
sh me
ĠK h
ĠV en
çĩ Ī
Ġenter prise
IG N
Ġrec all
Ġsm ell
æĬ½ è±¡
ç¬¬äºĮ ä¸ª
åį³ ä¾¿
æĢ§ åĪ«
it age
ile y
åĩł ä½ķ
Ġmak ambo
à¬° àŃįà¬
Ġt eng
ĠK n
ç»ĺ çĶ»
Ġbas ically
ĠØ¯ ÙĬ
Ġder es
g el
ati ents
Ġf ool
Ġten ke
ĠÑģ Ð°Ð»
âĶ Ģ
Ġsil ent
ĠØ¯ ÙĪØ±
é¤ ¨
n ici
åı¯ä»¥ æł¹æį®
à¤¨à¥įà¤ ¦
å¦Ĥæŀľ æľī
åĽºå®ļ èµĦäº§
áŀı áŁĤ
Ġ×Ķ ×¨
Ġcommunic ate
ul is
Ġà¤¸ à¤°
up an
Ġm oun
åĪĨ æīĭ
ĠnÃł y
ä¹ĭ ä¸º
à½¦à¾ ²
æĮ ª
ix els
çĽ¸ æľº
Ġprof iles
oc s
è§£åĨ³ éĹ®é¢ĺ
ĠÕ Ģ
ĠK ir
Ġob serve
iz ations
Ġsp ark
Ġk ek
Ġor th
ãĤ «
Ġp se
æĹ¥ åĨħ
áĬ ©
×ĳ ×¢
Ġme er
ÐµÐ» Ð¸
Ġv ictory
Ġb wa
ĠCont act
âĳ £
ä¹Ĳ è§Ĥ
ÑģÐº Ð°ÑĤÐ°
éĺ´ éģĵ
Ġk re
ĠEuro pa
ä¹ĭ åľ°
Ġproduc es
ĠÎ ĳ
Ġc ake
Õ ¦
N T
çľŁ çļĦæĺ¯
à» Ĩ
å·² æĪĲä¸º
áģ į
çļĦ æĸ¹åĲĳ
ĠL ive
Ġp ink
. php
Ġmill ions
åĪļ æīį
æĩ Ī
is se
Ġ uri
èµ· è¯ī
ĠPh ot
ĠC apt
ĠIt em
we ek
Ġl ill
AR Y
Ġon o
æ¶Īè´¹ èĢħçļĦ
ä½Ĩ ä»ĸ
rup tion
çĿĢ ä¸Ģ
Ġnt chito
×© ×Ķ
Ġz ir
ev i
ÙĦ Ùħ
ĠN S
l ook
ĠØ§ Ù¾
Ġmed ian
Ġinv ited
Ġwat ers
Ġb Ã¸r
ä¹ĥ èĩ³
Ġá Ĥ
ĠÐ¸ Ð³
be an
w ho
ĠÎºÎ±ÏĦ Î¬
Ġwa ited
Ġde but
ĠJ u
ĠCarol ina
Ġ__ _
Ġf ali
áĢ¬áĢ¸áĢ Ĳ
H ome
Ġa Ã§
. array
åĪĨ çļĦ
Ġpr act
Ġac tor
æĵ Ĭ
è¸ ¢
ÉĻ ri
Ġhead ing
ìĤ¬ ëŀĮ
Ġsc ar
Ġd ining
am it
àºĤ àºŃàºĩàº
è¯Ń åı¥
å·¥ä½ľ èĢħ
áŀĽ áŀ¾
à¶» à·Ķ
valid ate
f w
Ġ ê°
Ġb ra
Ġevery where
Trans form
. at
åĪĨ å·¥
Ġhe b
ä½Ļ é¢Ŀ
Ġsc hem
enti ve
Ġt res
ci Ã³n
ãģ °
Ġc ig
ĠT al
Ġá»Į l
k á»į
in ue
ä½Ĩ ä¸į
S al
Ġgl anced
Ġk j
è¯ķ ç®¡
ĠPart y
Ġroz hod
è¿ Ń
Ġlov es
olog ists
æīĢè°ĵ çļĦ
( E
in te
è¡ «
ĠKe ep
Ġnust at
Ðº ÐµÐ½
Ġrestaur ants
= \
Ġimport ante
åıĹ ä¼¤
ya i
o je
un al
çļĦ æ´»åĬ¨
Ġcon structor
äºº æł¼
Ġg ali
åıĤ çħ§
Ġà° ¤
ĠH on
ĠE L
å¹³ å¸¸
uss ion
éĢļ éģİ
è®¤è¯Ĩ åĪ°
çļĦ èĬ±
áĢĻ áĢ¾áĢ¯
Ġl ift
ç¼ĸ åĨĻ
* )
Ġne at
éĹ´ éļĶ
ĠÐ°Ð´ Ð°Ð¼
Ġd aw
Ħ àº§àº²àº¡
ä¸Ģ çľ¼
, m
ĠEx pl
çĩĥ æĸĻ
Ġfin ance
Ġmagn itude
à¨¿ à©°
Ġluck y
Ġkan ilang
- class
ang el
-ind uced
H igh
Ġun n
ÙĬ Øª
ĠT oken
ĠÐ¿ÑĢ Ð¸Ð½
éļı ä¾¿
ÙĦÙī ÙĨÙī
til ity
Ġrob ot
à¤Ĺ à¤°
ÐµÑĪ Ðµ
.d isplay
( error
ä½ľ çī©
çĥ «
éĢī æīĭ
Ġcalc ulation
Ġf rem
ver e
Ġaw esome
S upport
Ġsch olar
Ġm ib
áĢ ¥
or ption
å¤ĸ ç§ĳ
Ġt ast
è§£ è¯»
æĺ¥ å¤©
vol v
Ġmark er
éĩį ç»Ħ
Õ¡ÖĢÕ ±
Ġkun ne
à½ĺ à½ºà½ĳ
Ġrare ly
à´¾à´ £
Ġc able
æīĵ çĶµè¯Ŀ
ĠØ¬ ÙĨ
å®¢æĪ· ç«¯
èľ ¡
áº ±
ĠN ru
ĠÎ´ ÎµÎ½
åħ¨ æĸ¹ä½į
å» ³
ang al
or at
olog i
crib ed
Ġan tig
ĠH z
è¡Įä¸º çļĦ
æľĢ æĸ°çļĦ
d p
åĭ ī
.c ol
ĠAr ts
Ġbir d
Ġdel le
ĠF air
L en
elih ood
Ġ$ [
æłĩåĩĨ åĮĸ
éĽ¶ ä»¶
ere za
Ġfl ux
Ġen orm
è¶Ĭ é«ĺ
ĠL atin
Ġch ik
æī¾ åĩº
Ġadequ ate
æ½ Ķ
Ġst ats
æ²ī æ·Ģ
ic it
Ġn ÉĻ
ĠÐ Ń
Ġal arm
ä¸Ĭ å¸Ŀ
Ġn ay
å§ ļ
Ġth y
Ġk las
æĶ¶ åıĸ
æºĲ äºİ
åıĳ éħµ
åĬŁèĥ½ çļĦ
Ġà¤¸ à¥įà¤¥
ä¹Ł å°Ĩ
ä¸Ģ éĺµ
Ġpi emÄĵ
.m essage
æłĳ èĦĤ
Ġfun ny
éĤ£ æĹ¶
ĠV I
èµ¶ ç´§
Ġáį £
æ°ĳ ä¼Ĺ
Ä« m
k ri
ĠĠĠĠĠĠĠĠĠĠĠĠĠĠĠĠ ĠĠĠĠĠĠ
ad enia
Ġover come
ĠAnd rew
Ġcon form
Ġar Ä«
áŀ¼ áŀħ
éĢı éľ²
èµ Ĳ
Ch anged
Ñĭ Ð±
/ json
ĠÕ¯ Õ¡ÖĢ
Ġwer den
å¸ ĸ
Ġwin ner
åıĹ çĲĨ
æĺŁ åº§
é¢Ŀ å¤ĸ
ĠÅ Ļ
Ġearn ed
âĢ Ĳ
- sp
ĠL ady
æĢİ æł·çļĦ
ÙĪ ÙĪ
ĠV ideo
åıª å¥½
Ġ×Ļ ×©
Ġs á»±
Ġev a
Ġs ut
çĽ ¡
èģ ŀ
è¯ķ åĽ¾
à²¾à² µ
Ġp ont
Ġsche ma
Ġch amber
éĻ¶ çĵ·
_ line
Ġáłłáł µáł¢áł¯
Ġs oph
Ä¼ a
Ġassum ption
str ong
Ġkan Ã«
Ó ĳ
ĠÑ ļ
åı£ æ°Ķ
æĽ´ é«ĺçļĦ
ak ah
Ġmanufact urer
Us ing
Ġgrab bed
Ã© hovah
Ġang ry
ĠI C
Ñĥ ÑģÑĤ
èµ° åĩº
Ġvonatkoz Ã³
< &
ĠR ose
Ġpul se
ple t
åĨħå®¹ çļĦ
æİī äºĨ
Ġan no
áº§ n
æīĭ å·¥
åħ« åŃĹ
iel ik
end ers
g it
åı° çģ£
el come
ĠJ ihova
áĥ ª
Ġem e
uh ul
Ġdist urb
id ential
eng i
ĠU t
æ¸ħ åįķ
æ¨¡ åħ·
íĺ ¸
an ira
ĠÙĤ Ø§Øª
Õ¾ Õ¥Õ¬
Fig ure
- id
ĠP red
è² ¡
S ave
id ades
Ġàª ī
Ġse eds
åı¯ çĪ±
ĠÐ¿ ÑĸÐ´
Ġà¤Ĩ à¤£
æŃ ī
âĢ¯áł ¨
à¬® àŃįà¬
æ£Ģ ç´¢
çļĦäºº åĳĺ
eri od
Ġad m
çļĦ éĥ¨åĪĨ
Õ«Õ ¬
Ġà² Ĵ
= [
åİŁ æĿĲæĸĻ
u ÅŁ
Ġs oci
áŀĺ áŀ½áŀĻ
ĠÃ¼Ã§ Ã¼n
çĹħ çĲĨ
ĠÃ ĩ
ĠÐ¾ Ðº
Ġ' .
Ġprint ed
Ġimpl ies
ç´ Ģ
¢àº¹ à»Ī
å¦ ®
Ġà¤ľ à¥Ģ
É ²
Ġv iv
çļĦ æĢ»
åĽ½ äº§
é»ĳ æļĹ
Ûķ ÙĤ
ĠJehov ah
Ġsur gical
Ġs ada
In tern
Ġmer ch
åı¯ æĥľ
ual s
èĭı å·ŀ
Ġpop ul
çļĦ åŃ©åŃĲ
Ġsub stance
Ġh ala
Cl one
ä¸į åİ»
Ġfew er
Ġaddress es
Ġbenefic ial
_ request
à¸£ à¸´
Ġr Ã¨Ì£
ĠCol umb
ĠTay lor
Ġultim ate
Ġop tional
h m
åķĨ åºĹ
ĠCon ference
å¾Ĺ å¤ļ
Ġì ĺ
l it
çļĦ åħ¬åı¸
Ġwr apped
áĢĻ áĤĪ
æ¯ĶèµĽ ä¸Ń
Ġfl our
×ķ Ö¹
Sc ore
ĠB ond
åħ¨ æĸ°çļĦ
Ġdel ta
Ġ" );
ë¶ Ħ
Ġp ian
yp ad
é«ĺ æīĭ
qu al
( index
.d raw
åĲİ åĨį
áĪŃ áĪµ
ij ai
Ġscient ists
ĠMc C
Ke ys
ä¾Ľ çĶµ
ĠH R
Ġremember ed
ÑģÑĤÐ² ÐµÐ½
ç»Łè®¡ åŃ¦
on ly
å¯¼ èĪª
å¤ ·
ĠL ew
Ġlif ted
áŀĴ áŁĴáŀľáŀ¾
æ¿Ģ åĬ¨
lu Å¡
Ùħ Ø±
Ġam ino
Ġnam an
à³ Ī
Ġhas n
ell ular
ĠØª ÛķØ±
ë© °
us o
y c
\ #
çľŁ è¯ļ
ĠÕ¸ÖĤ Õ¶
ol Ã³
áłłáł ²
Ġver t
.A pp
Ġgr ate
, B
en es
j Å³
ĠDig ital
åĩº äºİ
Ġmedic ation
é¡ į
K odi
Ġ ìĿĢ
æĺ Ķ
Ġz ve
Ð´ Ð°Ð³
str ap
Ad min
áĢĬáĢ· áĢºáĢ
Ġcomm ands
Ġd rew
à¤¾à¤ ī
or wa
ç»Ļ åĩº
S ocket
ep th
adi um
Ġà¬ ı
ä½ľ äºĨ
AM P
, C
G od
Ġins ights
Ġman e
ĠT ool
Å¾ ÃŃ
Ġsv ak
Ú¯ Ø§Ùĩ
and ed
as se
ĠOption al
Ġless ons
Ġh its
gorith m
Ñģ Ðµ
ĠG iven
.c o
ĠD O
ĠGre ek
Ġáł¤ áł¯
Ġpref ix
] +
âĢĶ âĢĿ
op o
æĶ¿åºľ çļĦ
d isplay
å¤ ¢
Ġbur yo
Ä ķ
. Com
è¦ģ æĬĬ
ĠEw rope
Ġm ash
à¨ ļ
ĠPl ayer
^{ (
à´¿à´ ¨
Ã® r
Îµ Î»
Ġk Ã¼
Ġres pir
U k
æ¯Ķ éĩį
ĠL ED
èĮ Ħ
Ġinter es
ĠM aterial
ĠR od
Ġdec k
æŃ£ å¥½
Ġfall s
Ġpolit ics
E k
Ġm ile
à©±à¨ ķ
Ġdirek tiv
ĠR og
ĠÐ¼ÐµÐ½ ÐµÐ½
L imit
Ġindust ries
åıĺ ä¸º
Ð°Ò »
Ġà¤¯ à¤¾
áĥ£áĥ ļáĥĺ
ĠF estival
çļĦ çŁ¥è¯Ĩ
ä¸Ģ å¼Ģå§ĭ
Ġke h
æī¹ åıĳ
èª ĵ
Ġat s
Ïĩ ÎµÎ¹
if ter
k ich
( event
D ist
Ġnum s
ĠÐ¿ÑĢ Ð¾Ð²
Ġ áĢºáĢ
.R eg
(m ut
ent es
Ġcommunic ations
ÙĦÙī ÙĤÙī
á»¥ rá»¥
By te
Ġsk all
rit ten
Ġg ard
Ġb ou
æĦıè¯Ĩ åĪ°
Ġk ec
áŀĺáŁĴáŀ Ķ
æĺ¯ çĶ¨
è» Ł
æ²¡æľī ä»»ä½ķ
Ġanaly ze
Back ground
Ġk ategor
Ġà¨ ¯
Ġb ok
Ġv se
Ġk uli
å® °
à¬¿à¬ ²
Ġc ara
- ray
.w idget
áŀ· áŀħ
Ø§ Ø¬
æĪ ļ
æ²¡ ä»Ģä¹Ī
ĠÐ´ Ð¸
Ð¸ÑĤ ÐµÐ»ÑĮ
Ġpre ds
let es
áŁĴáŀ Ĭ
ĠSh ould
Ã© re
ĠP A
æ£ µ
é¥± åĴĮ
Ġwith draw
Ġ ular
Ïĥ Î±
Ġwonder ed
Ġprec is
Ġphilos ophy
Ġlight ing
Ġ×Ķ ×ķ×Ĳ
ĠØ¯ Ø³Øª
ĠW a
ak y
æľī åĬĽ
å¼ ĵ
Ġsp raw
ĠDiv ision
çĽ¸ å¤Ħ
Ġlet ting
ĠkÃ¤ s
çļĦ éķ¿
m L
êµ Ń
, _
w ami
çĶŁæĢģ çİ¯å¢ĥ
æ°Ķ æ°Ľ
ĠSh ort
ç² ¹
Ð°Ð· Ð°
Ġo ven
Ġo shir
Ä§ Ä§
éĮ Ħ
it ik
åĬł æĭ¿
Ġfeature d
ning ar
ĠáĪĭ áĭŃ
ĠCl oud
å±Ģ éķ¿
Ġg ained
ĠÚ© ÙĨØ¯
. run
Ġì §
æĪĳ è®¤ä¸º
. Ex
áĢ½ áĢĶáĢºáĢ
áŀı áŁĴáŀļáŀ¼áŀľ
²áłł áł¢
åĬ³åĬ¨ åĬĽ
con v
Ġn Ã¤r
à§ģ à¦°
ĠR M
åĨĴ éĻ©
æľºæŀĦ çļĦ
Ġg ently
Ġy Ãª
Ġb ob
Ġlock ed
Ġel der
à½¢à¾ Ĺ
Ġs ync
Ġmist ake
ĠS eg
å¸ ĺ
/ A
æī¿ è½½
éĺĲ è¿°
ĠLe vel
à¦¨ à¦¾
áģ ĩ
Ġaccord ance
áłłáł· áł¢áł
è°ĥ åĬ¨
Ġsam peyan
Ġà²® à²¤à³įà²¤à³ģ
Ð° Òĵ
ob ra
çĶµ æŀģ
r ange
Ġ& '
à¥ĭ à¤²
M ember
ĠRuss ian
æĪĳ æł¡
é¹ °
. \
Ġter r
Ġya ÅŁ
ol an
æ¸¸ æ³³
Ġkw ak
. equals
i Å¡
è¡Ģ æ¸ħ
Ġgluc ose
Ġb arn
ÙħÙī Ø²
Ġcz ÅĤ
ç§ĳæĬĢ æľīéĻĲåħ¬åı¸
UN D
çī º
ĠØ§ ÙĨØ¯
ä¸Ģ å¸¦
Ġt awo
Ġsur ge
æ «
Ùħ Ø©
ĠT ask
ĠH un
Ġà¨ī à¨¸
å¹´ åĪĿ
gress ive
( config
ÏĢ ÏĦ
æİ¥ åĪ°
let ter
test ing
ç¬¬ åħ«
å»¶ ç»Ń
çļĦ çľ¼
Ġwe ights
Ġcor rection
Ġty re
áŁģ áŀħ
- end
Ġpubl ish
ĠÐ½ ÐµÐº
å¿ĹæĦ¿ èĢħ
g d
çĳ Ł
å¹¿ä¸ľ çľģ
ly s
Ev ents
S R
S ection
il ton
ac les
Ġthere by
àº» àºĩàº
Ġal o
Ġb ags
Ġàªµ àª¿àª
Ã Ī
Ġr ik
ĠSou thern
Ó© Ð³
à´ ¹
ir ts
Ġperson ally
åĨľ äº§åĵģ
View ById
à»Ģàº Ń
ÑĤ Ð°Ð»
ĠØ¨ ÛĮØ±
áŀŁ áŁĴáŀŁ
å½ĵ åĪĿ
ac tic
oc he
ĠPr ime
çĸĳ éĹ®
ov anje
äºĮ äºº
ä¼ļ å¯¹
.c heck
ç®¡çĲĨ åĴĮ
ĠÑħ ÑĬ
Ġn erve
Ġconf ident
ç¨ĭåº¦ çļĦ
Ãł y
å¸ §
ĠSp ace
in ÄĹ
ÙĨ Ø¬
ĠQue en
è®© å¥¹
Ġ} ).
æīĭ æ¸¸
éĥ Ĭ
_ height
ag aran
re ÅĽ
ä½ł æĥ³
Ġà¤ ł
éª¨ æĬĺ
Ġtick ets
Ġgr ay
Ġà¤µ à¤°à¥įà¤
áĥ ¨áĥĺ
P al
éĺ³ æĢ§
s ign
Ġlo ans
ä¹¦ æ³ķ
ape a
çº§ çļĦ
ĠPl ace
Ġle ather
å¤ļ åĲĥ
çĶ²çĬ¶ èħº
Ġfac ulty
aw at
Ġsv et
Ġà¦ Ľ
Ġgut pela
ip eline
ĠÅ¡ ta
Ġcon cluded
èį Ĩ
ĠS olution
áĮĪ áĪŃ
é¢ ł
Ġbroad cast
T M
ĠEngine ering
Ġ×ľ ×¢
Ġco al
B et
æĪĳ è¿ĺ
l ara
.cont ains
å¯¹è¯Ŀ æ¡Ĩ
Ġx ml
Ġpo ve
Ã³ ÅĤ
éĽ ²
æľīä¸Ģ å¤©
Ġp m
In v
th rop
Ġev ident
\% ;
leg es
áŀĦ áŁĭ
à½ĳ à½Ķ
åĪĩ åī²
è¡Į ä½¿
Ø¨ Ø§ÙĨ
ÑģÐº Ðµ
å¼ķ çĶ¨
æĦī å¿«
ĠM att
åľ¨ å¤ĸ
ß Į
Ġà¤² à¥ĭà¤Ĺ
ĠĠĠĠĠĠĠĠĠĠĠĠĠĠĠĠĠĠĠĠĠĠĠĠĠĠĠĠĠĠĠĠ ĠĠĠĠĠĠĠĠĠĠĠĠĠĠĠĠĠĠĠĠĠĠĠĠĠĠĠĠĠĠĠĠ
Ġins an
tial Eq
Ġà¨¹ à¨¨
æĳ Ķ
Ġexp enses
ĠÐ´ ÐµÐ¹
Ð½ Ð°Ñĩ
param eter
ãĤī ãĤĮ
ìļ ©
Ġto l
Ġ×Ķ ×¡
áŀĳ áŀ¶áŁĨáŀĦ
Ġà¤ī à¤¨
O UT
Ġn ÄĽ
ĠWith out
ves tig
à¤¹à¤° à¥Ĥ
ĠY ezu
Ð¸Ð» ÑĮ
Ġi est
åĽĽ å¤§
ÐµÑ Ľ
Ġiv yo
b ank
åĤ¨ åŃĺ
Ġw ider
à³įà² µ
r ÃŃ
áŀĵ áŀ»
Ġstay ing
Ġc ub
S creen
áŁĴáŀ Ĳ
Ġgr ain
P RO
Ġgi ant
for Each
ä¹ĭ åĨħ
Ġhor izontal
Ġuk uthi
å°ģ å»º
åģļ äºĭ
àª° à«Ģ
Ġy ards
men u
t ain
Ġà¬ ¯
. Value
Ġsynd rome
-s cale
à¨ ¡
Ġh il
[...]
