{
  "<｜start▁of▁sentence｜>": 0,
  "<｜end▁of▁sentence｜>": 1,
  "<｜▁pad▁｜>": 2,
  "<think>": 3,
  "</think>": 4,
  "<unk>": 5,
  "<｜start▁of▁text｜>": 6,
  "<｜end▁of▁text｜>": 7,
  "<User>": 8,
  "<System>": 9,
  "<Bot>": 10,
  "<｜fim▁begin｜>": 11,
  "<｜fim▁hole｜>": 12,
  "<｜fim▁end｜>": 13,
  "!": 14,
  "\"": 15,
  "#": 16,
  "$": 17,
  "%": 18,
  "&": 19,
  "'": 20,
  "(": 21,
  ")": 22,
  "*": 23,
  "+": 24,
  ",": 25,
  "-": 26,
  ".": 27,
  "/": 28,
  "0": 29,
  "1": 30,
  "2": 31,
  "3": 32,
  "4": 33,
  "5": 34,
  "6": 35,
  "7": 36,
  "8": 37,
  "9": 38,
  ":": 39,
  ";": 40,
  "<": 41,
  "=": 42,
  ">": 43,
  "?": 44,
  "@": 45,
  "A": 46,
  "B": 47,
  "C": 48,
  "D": 49,
  "E": 50,
  "F": 51,
  "G": 52,
  "H": 53,
  "I": 54,
  "J": 55,
  "K": 56,
  "L": 57,
  "M": 58,
  "N": 59,
  "O": 60,
  "P": 61,
  "Q": 62,
  "R": 63,
  "S": 64,
  "T": 65,
  "U": 66,
  "V": 67,
  "W": 68,
  "X": 69,
  "Y": 70,
  "Z": 71,
  "[": 72,
  "\\": 73,
  "]": 74,
  "^": 75,
  "_": 76,
  "`": 77,
  "a": 78,
  "b": 79,
  "c": 80,
  "d": 81,
  "e": 82,
  "f": 83,
  "g": 84,
  "h": 85,
  "i": 86,
  "j": 87,
  "k": 88,
  "l": 89,
  "m": 90,
  "n": 91,
  "o": 92,
  "p": 93,
  "q": 94,
  "r": 95,
  "s": 96,
  "t": 97,
  "u": 98,
  "v": 99,
  "w": 100,
  "x": 101,
  "y": 102,
  "z": 103,
  "{": 104,
  "|": 105,
  "}": 106,
  "~": 107,
  "¡": 108,
  "¢": 109,
  "£": 110,
  "¤": 111,
  "¥": 112,
  "¦": 113,
  "§": 114,
  "¨": 115,
  "©": 116,
  "ª": 117,
  "«": 118,
  "¬": 119,
  "®": 120,
  "¯": 121,
  "°": 122,
  "±": 123,
  "²": 124,
  "³": 125,
  "´": 126,
  "µ": 127,
  "¶": 128,
  "·": 129,
  "¸": 130,
  "¹": 131,
  "º": 132,
  "»": 133,
  "¼": 134,
  "½": 135,
  "¾": 136,
  "¿": 137,
  "Â": 138,
  "Ã": 139,
  "Ä": 140,
  "Å": 141,
  "Æ": 142,
  "Ç": 143,
  "È": 144,
  "É": 145,
  "Ê": 146,
  "Ë": 147,
  "Ì": 148,
  "Í": 149,
  "Î": 150,
  "Ï": 151,
  "Ð": 152,
  "Ñ": 153,
  "Ò": 154,
  "Ó": 155,
  "Ô": 156,
  "Õ": 157,
  "Ö": 158,
  "×": 159,
  "Ø": 160,
  "Ù": 161,
  "Ú": 162,
  "Û": 163,
  "Ü": 164,
  "Ý": 165,
  "Þ": 166,
  "ß": 167,
  "à": 168,
  "á": 169,
  "â": 170,
  "ã": 171,
  "ä": 172,
  "å": 173,
  "æ": 174,
  "ç": 175,
  "è": 176,
  "é": 177,
  "ê": 178,
  "ë": 179,
  "ì": 180,
  "í": 181,
  "î": 182,
  "ï": 183,
  "ð": 184,
  "ñ": 185,
  "ò": 186,
  "ó": 187,
  "ô": 188,
  "Ā": 189,
  "ā": 190,
  "Ă": 191,
  "ă": 192,
  "Ą": 193,
  "ą": 194,
  "ć": 195,
  "Ĉ": 196,
  "ĉ": 197,
  "Ċ": 198,
  "ċ": 199,
  "Č": 200,
  "č": 201,
  "Ď": 202,
  "ď": 203,
  "Đ": 204,
  "đ": 205,
  "Ē": 206,
  "ē": 207,
  "Ĕ": 208,
  "ĕ": 209,
  "Ė": 210,
  "ė": 211,
  "Ę": 212,
  "ę": 213,
  "Ě": 214,
  "ě": 215,
  "Ĝ": 216,
  "ĝ": 217,
  "Ğ": 218,
  "ğ": 219,
  "Ġ": 220,
  "ġ": 221,
  "Ģ": 222,
  "ģ": 223,
  "Ĥ": 224,
  "ĥ": 225,
  "Ħ": 226,
  "ħ": 227,
  "Ĩ": 228,
  "ĩ": 229,
  "Ī": 230,
  "ī": 231,
  "Ĭ": 232,
  "ĭ": 233,
  "Į": 234,
  "į": 235,
  "İ": 236,
  "ı": 237,
  "Ĳ": 238,
  "ĳ": 239,
  "Ĵ": 240,
  "ĵ": 241,
  "Ķ": 242,
  "ķ": 243,
  "ĸ": 244,
  "Ĺ": 245,
  "ĺ": 246,
  "Ļ": 247,
  "ļ": 248,
  "Ľ": 249,
  "ľ": 250,
  "Ŀ": 251,
  "ŀ": 252,
  "Ł": 253,
  "ł": 254,
  "Ń": 255,
  "ĠĠ": 256,
  "Ġt": 257,
  "in": 258,
  "Ġa": 259,
  "ĠĠĠĠ": 260,
  "er": 261,
  "ä¸": 262,
  "on": 263,
  "he": 264,
  "Ġs": 265,
  "en": 266,
  "an": 267,
  "re": 268,
  "at": 269,
  "ï¼": 270,
  "or": 271,
  "ãĢ": 272,
  "Ġp": 273,
  "çļ": 274,
  "Ġthe": 275,
  "çļĦ": 276,
  "is": 277,
  "es": 278,
  "Ġm": 279,
  "ï¼Į": 280,
  "Ġc": 281,
  "it": 282,
  "al": 283,
  "Ġo": 284,
  "Ġw": 285,
  "Ġd": 286,
  "Ġb": 287,
  "ar": 288,
  "Ġf": 289,
  "ed": 290,
  "äº": 291,
  "Ġn": 292,
  "ĠĠĠ": 293,
  "à¤": 294,
  "ing": 295,
  "áĢ": 296,
  "le": 297,
  "as": 298,
  "ou": 299,
  "Ġan": 300,
  "âĢ": 301,
  "ãĢĤ": 302,
  "åı": 303,
  "Ġin": 304,
  "Ġh": 305,
  "æľ": 306,
  "ti": 307,
  "ä»": 308,
  "ĠĠĠĠĠĠĠĠ": 309,
  "ro": 310,
  "el": 311,
  "Ġto": 312,
  "et": 313,
  "Ġof": 314,
  "åħ": 315,
  "Ġl": 316,
  "Ġand": 317,
  "ic": 318,
  "Ð°": 319,
  "Ġk": 320,
  "å¤": 321,
  "il": 322,
  "om": 323,
  "åĪ": 324,
  "st": 325,
  "am": 326,
  "ent": 327,
  "å®": 328,
  "ä½": 329,
  "è¿": 330,
  "Ġth": 331,
  "ĠÐ": 332,
  "Ġre": 333,
  "åĲ": 334,
  "Ġe": 335,
  "æĺ": 336,
  "çĶ": 337,
  "Ġg": 338,
  "ac": 339,
  "un": 340,
  "åľ": 341,
  "id": 342,
  "im": 343,
  "ion": 344,
  "ad": 345,
  "áł": 346,
  "Ġv": 347,
  "æĪ": 348,
  "ur": 349,
  "Ġà": 350,
  "ãĢģ": 351,
  "us": 352,
  "ut": 353,
  "åĬ": 354,
  "ol": 355,
  "ä¹": 356,
  "áŀ": 357,
  "ç»": 358,
  "Ġy": 359,
  "àº": 360,
  "ĠĠĠĠĠĠĠ": 361,
  "ä¸Ģ": 362,
  "ec": 363,
  "ot": 364,
  "æĺ¯": 365,
  "æĸ": 366,
  "ig": 367,
  "è¯": 368,
  "å°": 369,
  "ir": 370,
  "ak": 371,
  "ul": 372,
  "ĠI": 373,
  "à½": 374,
  "ay": 375,
  "ĠT": 376,
  "ve": 377,
  "ĠS": 378,
  "Ø§": 379,
  "åŃ": 380,
  "åĽ": 381,
  "os": 382,
  "æĹ": 383,
  "em": 384,
  "Ðµ": 385,
  "ag": 386,
  "Ð¾": 387,
  "Ġi": 388,
  "è®": 389,
  "Ġis": 390,
  "ow": 391,
  "od": 392,
  "ä¸į": 393,
  "æľī": 394,
  "ä¼": 395,
  "Ġfor": 396,
  "åľ¨": 397,
  "å¹": 398,
  "Ġst": 399,
  "Ð½": 400,
  "ĠA": 401,
  "um": 402,
  "Ð¸": 403,
  "Ġ(": 404,
  "ation": 405,
  "åį": 406,
  "æĿ": 407,
  "ÑĤ": 408,
  "ab": 409,
  "Ġon": 410,
  "ÑĢ": 411,
  "æī": 412,
  "ly": 413,
  "éĩ": 414,
  "åº": 415,
  "ch": 416,
  "Ġbe": 417,
  "à¥": 418,
  "ap": 419,
  "å·": 420,
  "Ġà¤": 421,
  "Ġ=": 422,
  "ĠC": 423,
  "äºĨ": 424,
  "ter": 425,
  "äºº": 426,
  "è¡": 427,
  "å¾": 428,
  "Ġr": 429,
  "å¼": 430,
  "éĢ": 431,
  "èĢ": 432,
  "ĠØ": 433,
  "ver": 434,
  "tion": 435,
  "æķ": 436,
  "áĥ": 437,
  "ith": 438,
  "å¯": 439,
  "ce": 440,
  "å¸": 441,
  "åĩ": 442,
  "åĨ": 443,
  "ĠM": 444,
  "ĥ½": 445,
  "ik": 446,
  "åĴ": 447,
  "âĢĻ": 448,
  "à¦": 449,
  "æĢ": 450,
  "ri": 451,
  "th": 452,
  "çĽ": 453,
  "Ġyou": 454,
  "Ġthat": 455,
  "Ġal": 456,
  "ä¸Ń": 457,
  "Ġj": 458,
  "åĮ": 459,
  "se": 460,
  "Ñģ": 461,
  "ĠĠĠĠĠĠĠĠĠĠĠ": 462,
  "Ġas": 463,
  "åĴĮ": 464,
  "Ġcon": 465,
  "è§": 466,
  "Ġde": 467,
  "ate": 468,
  "Ġpro": 469,
  "ĠP": 470,
  "àª": 471,
  "ä¸º": 472,
  "âĢľ": 473,
  "--": 474,
  "æł": 475,
  "âĢĿ": 476,
  "and": 477,
  "Ġwith": 478,
  "ang": 479,
  "qu": 480,
  "å¥": 481,
  "ere": 482,
  "ist": 483,
  "ĠB": 484,
  "est": 485,
  "ä»¥": 486,
  "æĬ": 487,
  "Ġit": 488,
  "Ð»": 489,
  "Ġu": 490,
  "è´": 491,
  "è¦": 492,
  "çİ": 493,
  "ç§": 494,
  "à²": 495,
  ");": 496,
  "ers": 497,
  "æĪĳ": 498,
  "Ġwh": 499,
  "å¤§": 500,
  "çī": 501,
  "à¸": 502,
  "Ġne": 503,
  "çĶ¨": 504,
  "è¦ģ": 505,
  "Ġhe": 506,
  "op": 507,
  "èµ": 508,
  "å¿": 509,
  "end": 510,
  "Ġat": 511,
  "res": 512,
  "ĠÙ": 513,
  "Ġ{": 514,
  "//": 515,
  "ess": 516,
  "æŃ": 517,
  "Ġ\"": 518,
  "æ°": 519,
  "ä¸ª": 520,
  "å±": 521,
  "æ³": 522,
  "éĹ": 523,
  "æĶ": 524,
  "çĶŁ": 525,
  "te": 526,
  "ä¸Ĭ": 527,
  "å½": 528,
  "èĩ": 529,
  "oc": 530,
  "ain": 531,
  "åİ": 532,
  "ĠD": 533,
  "Ġse": 534,
  "ok": 535,
  "ud": 536,
  "æŀ": 537,
  "éĿ": 538,
  "à®": 539,
  "åı¯": 540,
  "ĠH": 541,
  "Ø±": 542,
  "èĥ½": 543,
  "ht": 544,
  "éĻ": 545,
  "æĹ¶": 546,
  "Ġá": 547,
  "ie": 548,
  "og": 549,
  "ä¿": 550,
  "Ñĭ": 551,
  "è¿Ļ": 552,
  "Ġor": 553,
  "av": 554,
  "ÙĨ": 555,
  "if": 556,
  "Ġle": 557,
  "ub": 558,
  "æİ": 559,
  "Ñĥ": 560,
  "Ð°Ð": 561,
  "åŃ¦": 562,
  "ort": 563,
  "çº": 564,
  "Ġcom": 565,
  "ĠE": 566,
  "nd": 567,
  "ÙĦ": 568,
  "åĳ": 569,
  "ĠN": 570,
  "iz": 571,
  "Ġwas": 572,
  "ant": 573,
  "ĠR": 574,
  "Ġex": 575,
  "Ġ$": 576,
  "à¼": 577,
  "Ġ}": 578,
  "çŃ": 579,
  "çĲ": 580,
  "ore": 581,
  "æ²": 582,
  "ĠF": 583,
  "ÛĮ": 584,
  "Ã¡": 585,
  "å¯¹": 586,
  "ia": 587,
  "åĪ°": 588,
  "ill": 589,
  "æµ": 590,
  "ld": 591,
  "ä½ľ": 592,
  "ãģ": 593,
  "rom": 594,
  "pl": 595,
  "Ã©": 596,
  "è¡Į": 597,
  "æĥ": 598,
  "Ġare": 599,
  "uc": 600,
  "à¼ĭ": 601,
  "ä¼ļ": 602,
  "ĠL": 603,
  "Ġun": 604,
  "à¨": 605,
  "çľ": 606,
  "ĠW": 607,
  "ity": 608,
  "Ġch": 609,
  "æ¯": 610,
  "é¢": 611,
  "è¾": 612,
  "Ġz": 613,
  "ĠThe": 614,
  "åĩº": 615,
  "åıĳ": 616,
  "æĪĲ": 617,
  "å¹´": 618,
  "ÙĪ": 619,
  "Ġtr": 620,
  "åĵ": 621,
  "Ð´": 622,
  "iv": 623,
  "æĿ¥": 624,
  "tr": 625,
  "åĪĨ": 626,
  "æĮ": 627,
  "æĦ": 628,
  "ĠG": 629,
  "å¦": 630,
  "ment": 631,
  "Ġ×": 632,
  "è½": 633,
  "áĪ": 634,
  "æĸ¹": 635,
  "äºİ": 636,
  "ect": 637,
  "áŁ": 638,
  "ave": 639,
  "ov": 640,
  "à¤¾": 641,
  "ä¸ļ": 642,
  "Ġsh": 643,
  "æĭ": 644,
  "Ġus": 645,
  "Ġ\\": 646,
  "ä¸ĭ": 647,
  "Ġen": 648,
  "åĽ½": 649,
  "ip": 650,
  "åľ°": 651,
  "Ġna": 652,
  "çĲĨ": 653,
  "éģ": 654,
  "ä¾": 655,
  "Ùī": 656,
  "å·¥": 657,
  "ame": 658,
  "Ġthis": 659,
  "_{": 660,
  "å°±": 661,
  "ure": 662,
  "()": 663,
  "ib": 664,
  "all": 665,
  "Ġby": 666,
  "ust": 667,
  "ell": 668,
  "èĤ": 669,
  "å¤ļ": 670,
  "èĩª": 671,
  "ind": 672,
  "ine": 673,
  "ï¼ļ": 674,
  "åī": 675,
  "ç®": 676,
  "ong": 677,
  "Ġsa": 678,
  "Ġwe": 679,
  "åŁ": 680,
  "ue": 681,
  "Ã¤": 682,
  "ĠĠĠĠĠĠĠĠĠĠĠĠĠĠĠ": 683,
  "ä»ĸ": 684,
  "up": 685,
  "ight": 686,
  "è¿ĩ": 687,
  "Ã«": 688,
  "ç«": 689,
  "Ġif": 690,
  "ost": 691,
  "Ġfrom": 692,
  "åĬ¨": 693,
  "ä¹Ł": 694,
  "ä»¬": 695,
  "Ð¾Ð": 696,
  "Õ¡": 697,
  "ra": 698,
  "åĲİ": 699,
  "art": 700,
  "æĢ§": 701,
  "Ġnot": 702,
  "éĺ": 703,
  "ĠO": 704,
  "å®ļ": 705,
  "Ġ-": 706,
  "çĤ": 707,
  "port": 708,
  "é«": 709,
  "pe": 710,
  "int": 711,
  "age": 712,
  "Ġme": 713,
  "ard": 714,
  "æ±": 715,
  "åĢ": 716,
  "Øª": 717,
  "ÃŃ": 718,
  "ies": 719,
  "ĠJ": 720,
  "å®¶": 721,
  "uk": 722,
  "à´": 723,
  "æ³ķ": 724,
  "ĠK": 725,
  "è¿Ľ": 726,
  "ah": 727,
  "Ġac": 728,
  "ç¨": 729,
  "ne": 730,
  "Ðº": 731,
  "out": 732,
  "ack": 733,
  "æ¸": 734,
  "æ¬": 735,
  "æ´": 736,
  "Ġar": 737,
  "çİ°": 738,
  "Ø¯": 739,
  "é«ĺ": 740,
  "ä½ĵ": 741,
  "å¥½": 742,
  "éĿ¢": 743,
  "to": 744,
  "åĲĮ": 745,
  "cl": 746,
  "per": 747,
  "::": 748,
  "Ġab": 749,
  "ç½": 750,
  "urn": 751,
  "Ñĸ": 752,
  "à·": 753,
  "à»": 754,
  "æı": 755,
  "å¦Ĥ": 756,
  "orm": 757,
  "æľ¬": 758,
  "åģ": 759,
  "Ġhave": 760,
  "ff": 761,
  "Ġim": 762,
  "åŃĲ": 763,
  "Ġcan": 764,
  "áĢº": 765,
  "ould": 766,
  "ome": 767,
  "ä¹ĭ": 768,
  "our": 769,
  "çŃī": 770,
  "èĢĮ": 771,
  "are": 772,
  "xt": 773,
  "á»": 774,
  "ä¸İ": 775,
  "å®ŀ": 776,
  "åĬĽ": 777,
  "ĠÃ": 778,
  "ace": 779,
  "..": 780,
  "åĲĪ": 781,
  "ans": 782,
  "åĮĸ": 783,
  "tic": 784,
  "ata": 785,
  "à§": 786,
  "ass": 787,
  "----": 788,
  "Ùħ": 789,
  "à«": 790,
  "ast": 791,
  "ek": 792,
  "Ġdo": 793,
  "ĠÕ": 794,
  "Ġ//": 795,
  "æīĢ": 796,
  "Ġsp": 797,
  "é¡": 798,
  "å¾Ĺ": 799,
  "æĽ": 800,
  "ç»ı": 801,
  "åħ¶": 802,
  "çŁ": 803,
  "Ġpl": 804,
  "ide": 805,
  "éĥ": 806,
  "åħ¬": 807,
  "Ġad": 808,
  "ug": 809,
  "der": 810,
  "à¯": 811,
  "ll": 812,
  "åº¦": 813,
  "Ġres": 814,
  "ĠÎ": 815,
  "ial": 816,
  "ç¬": 817,
  "ive": 818,
  "ä½ł": 819,
  "ep": 820,
  "Ġ.": 821,
  "ich": 822,
  "ä¸»": 823,
  "ult": 824,
  "ile": 825,
  "Õ¡Õ": 826,
  "ob": 827,
  "Ġ,": 828,
  "Å¡": 829,
  "à¤¾à¤": 830,
  "å°ı": 831,
  "äº§": 832,
  "å¿ĥ": 833,
  "elf": 834,
  "æį": 835,
  "éĥ½": 836,
  "è·": 837,
  "éķ": 838,
  "able": 839,
  "ij": 840,
  "one": 841,
  "è°": 842,
  "ĠáĢ": 843,
  "aw": 844,
  "æĸĩ": 845,
  "Ġpr": 846,
  "Ġall": 847,
  "Ð¼": 848,
  "à¶": 849,
  "Ġap": 850,
  "åħ¨": 851,
  "å¼Ģ": 852,
  ").": 853,
  "æĻ": 854,
  "çĿ": 855,
  "æľº": 856,
  "à³": 857,
  "ire": 858,
  "Ġ'": 859,
  "ase": 860,
  "ated": 861,
  "Ã³": 862,
  "Ġret": 863,
  "èĢħ": 864,
  "éĽ": 865,
  "åºĶ": 866,
  "ç¤": 867,
  "Ġcl": 868,
  "ĠØ§": 869,
  "ÙĬ": 870,
  "áī": 871,
  "hen": 872,
  "æĸ°": 873,
  "éĥ¨": 874,
  "rou": 875,
  "Ġyour": 876,
  "åħ³": 877,
  "ga": 878,
  "ç³": 879,
  "ĠU": 880,
  "à°": 881,
  "Ġwor": 882,
  "ach": 883,
  "Ùĩ": 884,
  "éĩı": 885,
  "åĬł": 886,
  "çĦ": 887,
  "è¯´": 888,
  "ge": 889,
  "Ġàª": 890,
  "å»": 891,
  "è¶": 892,
  "Ġqu": 893,
  "nt": 894,
  "éĢļ": 895,
  "Ġso": 896,
  "ens": 897,
  "Äį": 898,
  "éļ": 899,
  "éĩį": 900,
  "Ġ*": 901,
  "åĪ¶": 902,
  "ç§į": 903,
  "à¥į": 904,
  "Ġ|": 905,
  "ath": 906,
  "ĠÑ": 907,
  "ice": 908,
  "Ġper": 909,
  "åĿ": 910,
  "éĹ´": 911,
  "ĠâĢľ": 912,
  "get": 913,
  "é£": 914,
  "áĢºáĢ": 915,
  "äºĭ": 916,
  "æıĲ": 917,
  "áĭ": 918,
  "åĨħ": 919,
  "æķ°": 920,
  "à¥ĩ": 921,
  "Ġcomp": 922,
  "),": 923,
  "åīį": 924,
  "áĬ": 925,
  "ite": 926,
  "az": 927,
  "éĤ": 928,
  "çĤ¹": 929,
  "ally": 930,
  "Ġpre": 931,
  "aj": 932,
  "ake": 933,
  "à¬": 934,
  "åı¯ä»¥": 935,
  "åĽł": 936,
  "èī": 937,
  "ĠÑģ": 938,
  "Ġhis": 939,
  "à¥įà¤": 940,
  "Ġpar": 941,
  "Ð²": 942,
  "æŁ": 943,
  "ç©": 944,
  "åĵģ": 945,
  "çĽ¸": 946,
  "ÏĦ": 947,
  "Ġreturn": 948,
  "Ġup": 949,
  "Ġte": 950,
  "çī©": 951,
  "èģ": 952,
  "åıĬ": 953,
  "ĠĊ": 954,
  "æ°´": 955,
  "Î±": 956,
  "Ä±": 957,
  "æľĢ": 958,
  "çĶµ": 959,
  "å¤©": 960,
  "Ġbut": 961,
  "æĥħ": 962,
  "çĻ": 963,
  "ĠTh": 964,
  "Ġà¦": 965,
  "ct": 966,
  "×Ļ": 967,
  "ç´": 968,
  "Ġwill": 969,
  "èĬ": 970,
  "Ġout": 971,
  "ime": 972,
  "å¢": 973,
  "Ġher": 974,
  "ĠĠĠĠĠĠĠĠĠĠĠĠĠĠĠĠ": 975,
  "Ûķ": 976,
  "ĠâĢ": 977,
  "æ¶": 978,
  "è¿ĺ": 979,
  "we": 980,
  "éľ": 981,
  "de": 982,
  "Ġno": 983,
  "form": 984,
  "ç¾": 985,
  "ç¨ĭ": 986,
  "Ø³": 987,
  "act": 988,
  "Î¿": 989,
  "Ġgo": 990,
  "fer": 991,
  "è®¾": 992,
  "Ð°Ð½": 993,
  "ĠIn": 994,
  "ous": 995,
  "ç³»": 996,
  "Ġman": 997,
  "æĹ¥": 998,
  "çķ": 999,
  "æĦı": 1000,
  "ition": 1001,
  "æŀľ": 1002,
  "str": 1003,
  "è¡¨": 1004,
  "ence": 1005,
  "×ķ": 1006,
  "ign": 1007,
  "éģĵ": 1008,
  "Ġstr": 1009,
  "ther": 1010,
  "Ġmy": 1011,
  "ĠY": 1012,
  "Ġam": 1013,
  "çł": 1014,
  "å¸Ĥ": 1015,
  "çĹ": 1016,
  "éħ": 1017,
  "Ġáł": 1018,
  "æķĻ": 1019,
  "ĠV": 1020,
  "ç®¡": 1021,
  "æĪĸ": 1022,
  "so": 1023,
  "ä¸Ģä¸ª": 1024,
  "ance": 1025,
  "ä¿Ŀ": 1026,
  "çĦ¶": 1027,
  "éķ¿": 1028,
  "ents": 1029,
  "gh": 1030,
  "åħ¥": 1031,
  "ä¹Ī": 1032,
  "**": 1033,
  "==": 1034,
  "ari": 1035,
  "Ġ<": 1036,
  "ont": 1037,
  "ail": 1038,
  "ĠÐ¿": 1039,
  "çľĭ": 1040,
  "Ġà¨": 1041,
  "ord": 1042,
  "çĿĢ": 1043,
  "Ġhas": 1044,
  "'s": 1045,
  "The": 1046,
  "Ġla": 1047,
  "ose": 1048,
  "å¤ĸ": 1049,
  "ä½į": 1050,
  "^{": 1051,
  "ä½¿": 1052,
  "èµĦ": 1053,
  "ber": 1054,
  "åĬ¡": 1055,
  "Ġdis": 1056,
  "ook": 1057,
  "ound": 1058,
  "æģ": 1059,
  "ÖĢ": 1060,
  "å»º": 1061,
  "éĶ": 1062,
  "å±ķ": 1063,
  "ÉĻ": 1064,
  "Ġer": 1065,
  "å¼ı": 1066,
  "ç¡": 1067,
  "ress": 1068,
  "ty": 1069,
  "ction": 1070,
  "ha": 1071,
  "Ġcont": 1072,
  "Ú©": 1073,
  "å½ĵ": 1074,
  "(\"": 1075,
  "Ġro": 1076,
  "Î¹": 1077,
  "\",": 1078,
  "Ã¶": 1079,
  "æ¯Ķ": 1080,
  "erv": 1081,
  "Ġop": 1082,
  "æľŁ": 1083,
  "Ġwere": 1084,
  "æĺİ": 1085,
  "å¾Ī": 1086,
  "Ð°ÑĢ": 1087,
  "èµ·": 1088,
  "å§": 1089,
  "ä¸ī": 1090,
  "Ġhad": 1091,
  "ç¬¬": 1092,
  "ke": 1093,
  "Å¾": 1094,
  "Äģ": 1095,
  "ãĤ": 1096,
  "tim": 1097,
  "è®¡": 1098,
  "In": 1099,
  "áĢ¬": 1100,
  "pro": 1101,
  "åķ": 1102,
  "æ¡": 1103,
  "à©": 1104,
  "Ð°Ñ": 1105,
  "èĥ": 1106,
  "ary": 1107,
  "ond": 1108,
  "ations": 1109,
  "å¸¸": 1110,
  "wa": 1111,
  "å°Ĩ": 1112,
  "ç±": 1113,
  "çĽ®": 1114,
  "æĽ´": 1115,
  "áłł": 1116,
  "sp": 1117,
  "Ð³": 1118,
  "âĢĭ": 1119,
  "Ġwhich": 1120,
  "çĸ": 1121,
  "ç»ĵ": 1122,
  "ä¿¡": 1123,
  "eng": 1124,
  "å¹¶": 1125,
  "äºĽ": 1126,
  "ya": 1127,
  "è§£": 1128,
  "}$": 1129,
  "ng": 1130,
  "ä½Ĩ": 1131,
  "ĠÐ½": 1132,
  "Ġ/": 1133,
  "ä»İ": 1134,
  "Ġone": 1135,
  "Ġthey": 1136,
  "ks": 1137,
  "å¹³": 1138,
  "æ´»": 1139,
  "Ġtheir": 1140,
  "èĪ": 1141,
  "ä»¶": 1142,
  "Ġsu": 1143,
  "ï¼ī": 1144,
  "ç²": 1145,
  "à¤°": 1146,
  "æĹł": 1147,
  "åİ»": 1148,
  "ry": 1149,
  "æīĭ": 1150,
  "Ġnew": 1151,
  "Ġdi": 1152,
  "ta": 1153,
  "ç¥": 1154,
  "ï¼Ī": 1155,
  "éĩĮ": 1156,
  "æľĪ": 1157,
  "her": 1158,
  "Ġmore": 1159,
  "Õ¸": 1160,
  "èĲ": 1161,
  "æŃ¤": 1162,
  "é¢ĺ": 1163,
  "wo": 1164,
  "ike": 1165,
  "çĪ": 1166,
  "ĠØ¨": 1167,
  "ear": 1168,
  "Ñı": 1169,
  "Î½": 1170,
  "èĭ": 1171,
  "æŃ£": 1172,
  "Ĵáŀ": 1173,
  "åŁº": 1174,
  "ely": 1175,
  "çĥ": 1176,
  "æ²¡": 1177,
  "ni": 1178,
  "áĢ¸": 1179,
  "ai": 1180,
  "àµ": 1181,
  "ple": 1182,
  "Ġev": 1183,
  "ç¼": 1184,
  "æĥ³": 1185,
  "æ·": 1186,
  "éĤ£": 1187,
  "à¤¿": 1188,
  "èĦ": 1189,
  "duc": 1190,
  "åĪ©": 1191,
  "æĪĳä»¬": 1192,
  "åľº": 1193,
  "çī¹": 1194,
  "å®ī": 1195,
  "Ġob": 1196,
  "Ġel": 1197,
  "ï¼Ł": 1198,
  "éĴ": 1199,
  "Ġag": 1200,
  "ode": 1201,
  "æ¬¡": 1202,
  "æł·": 1203,
  "lo": 1204,
  "je": 1205,
  "éĹ®": 1206,
  "áĢ¯": 1207,
  "áŁĴáŀ": 1208,
  "åĸ": 1209,
  "own": 1210,
  "Ġà¸": 1211,
  "ene": 1212,
  "ÐµÐ½": 1213,
  "ical": 1214,
  "Ġem": 1215,
  "éĩĳ": 1216,
  "Ð·": 1217,
  "ors": 1218,
  "li": 1219,
  "æİ¥": 1220,
  "è£": 1221,
  "åĮº": 1222,
  "ish": 1223,
  "å·¥ä½ľ": 1224,
  "use": 1225,
  "Ġku": 1226,
  "çŁ¥": 1227,
  "éª": 1228,
  "Ġsc": 1229,
  "ĠÐº": 1230,
  "Ġinter": 1231,
  "cess": 1232,
  "×ķ×": 1233,
  "ana": 1234,
  "à¯į": 1235,
  "à¾": 1236,
  "éľĢ": 1237,
  "è¢": 1238,
  "ts": 1239,
  "io": 1240,
  "èį": 1241,
  "ize": 1242,
  "enc": 1243,
  "ãĢĭ": 1244,
  "ãĢĬ": 1245,
  "áŀ¶": 1246,
  "Ġ:": 1247,
  "Ġfe": 1248,
  "å£": 1249,
  "çĶ±": 1250,
  "æĤ": 1251,
  "æį®": 1252,
  "åŀ": 1253,
  "ĠÐ´": 1254,
  "èº": 1255,
  "äºĮ": 1256,
  "Ġmu": 1257,
  "ä»£": 1258,
  "Ġget": 1259,
  "ÑģÑĤ": 1260,
  "æĦŁ": 1261,
  "áº": 1262,
  "å·±": 1263,
  "ka": 1264,
  "è´¨": 1265,
  "ings": 1266,
  "Õ¶": 1267,
  "ater": 1268,
  "çģ": 1269,
  "áł¢": 1270,
  "com": 1271,
  "×Ļ×": 1272,
  "Ġet": 1273,
  "åı¸": 1274,
  "àº²": 1275,
  "ĠÐ¸": 1276,
  "åĳĺ": 1277,
  "Ġshe": 1278,
  "Ġtime": 1279,
  "åģļ": 1280,
  "ount": 1281,
  "ye": 1282,
  "Ã¼": 1283,
  "áĢ¹": 1284,
  "ory": 1285,
  "ĠÙħ": 1286,
  "ÉĶ": 1287,
  "èĩªå·±": 1288,
  ".âĢĿ": 1289,
  "Îµ": 1290,
  "Ġpo": 1291,
  "con": 1292,
  "æľ¯": 1293,
  "be": 1294,
  "æ°ĳ": 1295,
  "åıĺ": 1296,
  "vel": 1297,
  "ÓĻ": 1298,
  "Ġabout": 1299,
  "ark": 1300,
  "ex": 1301,
  "æ±Ĥ": 1302,
  "ĠáĬ": 1303,
  "ick": 1304,
  "ÑĮ": 1305,
  "ma": 1306,
  "Ġda": 1307,
  "ĠĠĠĠĠĠĠĠĠĠĠĠĠĠĠĠĠĠĠ": 1308,
  "ys": 1309,
  "Ġover": 1310,
  "text": 1311,
  "åĲĦ": 1312,
  "tions": 1313,
  "ç»Ł": 1314,
  "Ġdes": 1315,
  "áłłáł": 1316,
  "ild": 1317,
  "ĠÐ±": 1318,
  "Ð°Ð»": 1319,
  "ade": 1320,
  "æłĩ": 1321,
  "àºĻ": 1322,
  "Ġval": 1323,
  "Ġje": 1324,
  "na": 1325,
  "æº": 1326,
  "æĬĢ": 1327,
  "èº«": 1328,
  "åĲĳ": 1329,
  "æ¨": 1330,
  "åĲį": 1331,
  "Ġta": 1332,
  "åıª": 1333,
  "Ġ&": 1334,
  "row": 1335,
  "Ġ+": 1336,
  "tiv": 1337,
  "gr": 1338,
  "è¿Ľè¡Į": 1339,
  "Ø´": 1340,
  "å½¢": 1341,
  "ç½ĳ": 1342,
  "ï¼ģ": 1343,
  "Õ¥": 1344,
  "åİŁ": 1345,
  "ree": 1346,
  "Ġany": 1347,
  "ink": 1348,
  "áĢ±": 1349,
  "ç»Ħ": 1350,
  "æµģ": 1351,
  "Ð°ÑĤ": 1352,
  "æ»": 1353,
  "åħ·": 1354,
  "áĢŃ": 1355,
  "é¦": 1356,
  "Ġsome": 1357,
  "ft": 1358,
  "à½¦": 1359,
  "Ġbeen": 1360,
  "áł¤": 1361,
  "à¤¨": 1362,
  "ning": 1363,
  "ays": 1364,
  "ç¾İ": 1365,
  "æľį": 1366,
  "--------": 1367,
  "ç¦": 1368,
  "àª¾": 1369,
  "ï¼Ľ": 1370,
  "ubl": 1371,
  "yst": 1372,
  "áŀ¶áŀ": 1373,
  "ock": 1374,
  "è§Ħ": 1375,
  "Ġwho": 1376,
  "Ġver": 1377,
  "æķĪ": 1378,
  "oll": 1379,
  "pt": 1380,
  "à¥Ģ": 1381,
  "åįķ": 1382,
  "è½¦": 1383,
  "ject": 1384,
  "ĠÐ²": 1385,
  "eth": 1386,
  ".s": 1387,
  "anc": 1388,
  "ä¸¤": 1389,
  "æĶ¿": 1390,
  "Ø§ÙĨ": 1391,
  "Ġfun": 1392,
  "ove": 1393,
  "Õ«": 1394,
  "iss": 1395,
  "hed": 1396,
  "oj": 1397,
  "Ġour": 1398,
  "áĢĦ": 1399,
  "å¤Ħ": 1400,
  "Ġma": 1401,
  "Ġthere": 1402,
  "put": 1403,
  "è¢«": 1404,
  "Ð¿": 1405,
  "ÙĤ": 1406,
  "éĵ": 1407,
  "Ïģ": 1408,
  "();": 1409,
  "áģ": 1410,
  "åħ¬åı¸": 1411,
  "ati": 1412,
  "Ġself": 1413,
  "Ġgr": 1414,
  "reat": 1415,
  "åħĥ": 1416,
  "Ïĥ": 1417,
  "Ġng": 1418,
  "Ġà¤ķ": 1419,
  "val": 1420,
  "Ġthem": 1421,
  "ual": 1422,
  "__": 1423,
  "ĠÑĤ": 1424,
  "Ġalso": 1425,
  "é»": 1426,
  "Ø¨": 1427,
  "Ġaf": 1428,
  "ĠIt": 1429,
  "Ġwhen": 1430,
  "å¼º": 1431,
  "å¯¼": 1432,
  "ert": 1433,
  "äº¤": 1434,
  "ih": 1435,
  "Ġother": 1436,
  "ä»»": 1437,
  "á»į": 1438,
  "åŀĭ": 1439,
  "æĶ¶": 1440,
  "éĢī": 1441,
  "enti": 1442,
  "æ°Ķ": 1443,
  "åĻ": 1444,
  "Ã¥": 1445,
  "Ġke": 1446,
  "ull": 1447,
  "à¦¾": 1448,
  "æĮĩ": 1449,
  "par": 1450,
  "Ġpe": 1451,
  "å·²": 1452,
  "pr": 1453,
  "èĻ": 1454,
  "Ġint": 1455,
  "Ġkn": 1456,
  "Ġà²": 1457,
  "Ġwould": 1458,
  "ç§ĳ": 1459,
  "Ġ$\\": 1460,
  "Ġbet": 1461,
  "æĮģ": 1462,
  "èī²": 1463,
  "Ġinto": 1464,
  "ror": 1465,
  "ĠCh": 1466,
  "ç«ĭ": 1467,
  "red": 1468,
  "æ®": 1469,
  "ung": 1470,
  "áĢĢ": 1471,
  "èĢĥ": 1472,
  "çº¿": 1473,
  "áĥĲ": 1474,
  "åĽŀ": 1475,
  "ä»·": 1476,
  "erm": 1477,
  "ise": 1478,
  "Ġass": 1479,
  "iew": 1480,
  "åıĹ": 1481,
  "æł¼": 1482,
  "Ð¸Ñ": 1483,
  "è¿Ĳ": 1484,
  "Ãł": 1485,
  "è·¯": 1486,
  "pon": 1487,
  "å°ĳ": 1488,
  "Ġthan": 1489,
  "sh": 1490,
  "ĠÐ¾": 1491,
  "Ġpos": 1492,
  "åĪ«": 1493,
  "à¤¿à¤": 1494,
  "ener": 1495,
  "Ġ[": 1496,
  "ç±»": 1497,
  "ç¤¾": 1498,
  "Ġind": 1499,
  "åı£": 1500,
  "ÖĤ": 1501,
  "rit": 1502,
  "app": 1503,
  "é©": 1504,
  "Ġwork": 1505,
  "ä¼ł": 1506,
  "clud": 1507,
  "amb": 1508,
  "å®¹": 1509,
  "irst": 1510,
  "Ġbu": 1511,
  "iel": 1512,
  "ps": 1513,
  "la": 1514,
  "ç¤º": 1515,
  "æ²¡æľī": 1516,
  "æ£": 1517,
  "å¸Ī": 1518,
  "ÐµÑĢ": 1519,
  "èĢģ": 1520,
  "Ãº": 1521,
  "çĽ´": 1522,
  "çłĶ": 1523,
  "ss": 1524,
  "ystem": 1525,
  "é¡¹": 1526,
  "è¨": 1527,
  "è°ĥ": 1528,
  "eg": 1529,
  "åĻ¨": 1530,
  "ĠSt": 1531,
  "ĠØ¯": 1532,
  "è¾ĥ": 1533,
  "Ð±": 1534,
  "ÏĢ": 1535,
  "ç»Ļ": 1536,
  "old": 1537,
  "Ġbo": 1538,
  "å®Į": 1539,
  "åıĸ": 1540,
  "åįģ": 1541,
  "é£İ": 1542,
  "æ¯ı": 1543,
  "ç¡®": 1544,
  "self": 1545,
  "Ġdif": 1546,
  "Ġav": 1547,
  "åĽ¾": 1548,
  "ãĥ": 1549,
  "Ġlike": 1550,
  "ian": 1551,
  "åķĨ": 1552,
  "Ġlet": 1553,
  "å½±": 1554,
  "ä¼ģ": 1555,
  "æĶ¾": 1556,
  "Ġbl": 1557,
  "Ġmod": 1558,
  "ype": 1559,
  "Ġreg": 1560,
  "æ²»": 1561,
  "åıĳå±ķ": 1562,
  "çĹħ": 1563,
  "Ġmay": 1564,
  "çľŁ": 1565,
  "St": 1566,
  "ange": 1567,
  "Ġwhat": 1568,
  "ĠHe": 1569,
  "Ġdet": 1570,
  "ash": 1571,
  "Ġes": 1572,
  "çĬ": 1573,
  "å¢ŀ": 1574,
  "áł¢áł": 1575,
  "åħĪ": 1576,
  "ala": 1577,
  "è®©": 1578,
  "è±": 1579,
  "ĠÚ©": 1580,
  "è¯ģ": 1581,
  "igh": 1582,
  "ä»Ģ": 1583,
  "Ġhim": 1584,
  "ira": 1585,
  "fr": 1586,
  "ÑĪ": 1587,
  "Ġsup": 1588,
  "èĮ": 1589,
  "Ġka": 1590,
  "ĠÐ¼": 1591,
  "Ġak": 1592,
  "Ġset": 1593,
  "ale": 1594,
  "æĬĬ": 1595,
  "ÅŁ": 1596,
  "ja": 1597,
  "âĢĶ": 1598,
  "ho": 1599,
  "éĹ¨": 1600,
  "åĮħ": 1601,
  "éĢł": 1602,
  "åĶ": 1603,
  "ÏĤ": 1604,
  "ĠÄ": 1605,
  "Ġbec": 1606,
  "ates": 1607,
  "è®¤": 1608,
  "æĸĻ": 1609,
  "rib": 1610,
  "Ġcomm": 1611,
  "æĢ»": 1612,
  "Ġadd": 1613,
  "áł¡": 1614,
  "Ġ#": 1615,
  "Ġco": 1616,
  "æ³¨": 1617,
  "Ø²": 1618,
  "pos": 1619,
  "èĤ²": 1620,
  "ĠÙĪ": 1621,
  "ä¸ĵ": 1622,
  "àª¾àª": 1623,
  "Ġmed": 1624,
  "very": 1625,
  "Ġcons": 1626,
  "Ġdef": 1627,
  "çº§": 1628,
  "ting": 1629,
  "æķ´": 1630,
  "Ġrec": 1631,
  "me": 1632,
  "Ġneed": 1633,
  "è¥": 1634,
  "å®ĥ": 1635,
  "éĹ®é¢ĺ": 1636,
  "æŀĦ": 1637,
  "ada": 1638,
  "æīĵ": 1639,
  "å¤ĩ": 1640,
  "Ġsk": 1641,
  "ali": 1642,
  "no": 1643,
  "ç®¡çĲĨ": 1644,
  "Î·": 1645,
  "è®º": 1646,
  "áĢ¸áĢ": 1647,
  "Ġfl": 1648,
  "å¥¹": 1649,
  "èĬĤ": 1650,
  "èĩ³": 1651,
  "Ġà®": 1652,
  "æĬ¥": 1653,
  "Ø§Ø±": 1654,
  "å¤´": 1655,
  "Ġyear": 1656,
  "Ġph": 1657,
  "Ð¹": 1658,
  "Ġà¹": 1659,
  "à½²": 1660,
  "è¯¥": 1661,
  "Ð¾Ð²": 1662,
  "Ġmin": 1663,
  "æģ¯": 1664,
  "ä¾Ľ": 1665,
  "åħī": 1666,
  "Ġáĥ": 1667,
  "tive": 1668,
  "åĢ¼": 1669,
  "à¯įà®": 1670,
  "Ġpri": 1671,
  "ph": 1672,
  "è¥¿": 1673,
  "ä¹ł": 1674,
  "Ġsi": 1675,
  "ele": 1676,
  "els": 1677,
  "any": 1678,
  "Ġoff": 1679,
  "Ġni": 1680,
  "ina": 1681,
  "æ¨¡": 1682,
  "ä»Ģä¹Ī": 1683,
  "Ġstud": 1684,
  "Ġlong": 1685,
  "ublic": 1686,
  "çİĩ": 1687,
  "ara": 1688,
  "til": 1689,
  "ä¼ģä¸ļ": 1690,
  "ful": 1691,
  "æĶ¹": 1692,
  "tu": 1693,
  "vers": 1694,
  "Ġbr": 1695,
  "und": 1696,
  "åŃĺ": 1697,
  "åĬŁ": 1698,
  "Ġonly": 1699,
  "ĠØ§ÙĦ": 1700,
  "æĿ¡": 1701,
  "ech": 1702,
  "è´¹": 1703,
  "ĠÐ·": 1704,
  "->": 1705,
  "çħ": 1706,
  "ĠØª": 1707,
  "Ġsm": 1708,
  "à¥ĭ": 1709,
  "à½Ĥ": 1710,
  "eb": 1711,
  "Th": 1712,
  "ĠThis": 1713,
  "æĪ·": 1714,
  "Ġsaid": 1715,
  "gan": 1716,
  "åĩĨ": 1717,
  "èħ": 1718,
  "à³į": 1719,
  "à§ĩ": 1720,
  "éĻ¢": 1721,
  "æŁ¥": 1722,
  "æµ·": 1723,
  "Ġà¶": 1724,
  "å¥³": 1725,
  "ied": 1726,
  "à¤ķ": 1727,
  "Ïħ": 1728,
  "Ġmak": 1729,
  "Ġuse": 1730,
  "à«ĩ": 1731,
  "è§ģ": 1732,
  "Ġsub": 1733,
  "ä¹¦": 1734,
  "åıĪ": 1735,
  "èİ": 1736,
  "×Ķ": 1737,
  "Ġhow": 1738,
  "åıį": 1739,
  "éľĢè¦ģ": 1740,
  "Ġdec": 1741,
  "è¾¾": 1742,
  "éĢļè¿ĩ": 1743,
  "æ¸ħ": 1744,
  "ten": 1745,
  "Ġback": 1746,
  "Ġya": 1747,
  "åĪĻ": 1748,
  "olog": 1749,
  "åĨį": 1750,
  "Ġcol": 1751,
  "Õ¸ÖĤ": 1752,
  "Ġunder": 1753,
  "oy": 1754,
  "ìĿ": 1755,
  "its": 1756,
  "æīį": 1757,
  "eh": 1758,
  "éĿŀ": 1759,
  "Ġang": 1760,
  "æºĲ": 1761,
  "Óķ": 1762,
  "ç½®": 1763,
  "å°±æĺ¯": 1764,
  "è½¬": 1765,
  "ci": 1766,
  "Ġcould": 1767,
  "à±": 1768,
  "mer": 1769,
  "Ġfin": 1770,
  "))": 1771,
  "éĽĨ": 1772,
  "áĥĲáĥ": 1773,
  "ba": 1774,
  "æŃ¥": 1775,
  "åĦ": 1776,
  "Ġits": 1777,
  "ble": 1778,
  "ption": 1779,
  "à½ĳ": 1780,
  "Ä«": 1781,
  "ama": 1782,
  "cre": 1783,
  "$$": 1784,
  "Ġsec": 1785,
  "ç®Ĺ": 1786,
  "éªĮ": 1787,
  "è§Ĥ": 1788,
  "ular": 1789,
  "å¦Ĥæŀľ": 1790,
  "ating": 1791,
  "æĿĥ": 1792,
  "ons": 1793,
  "ew": 1794,
  "ç´ł": 1795,
  "ç²¾": 1796,
  "çĻ½": 1797,
  "=\"": 1798,
  "oth": 1799,
  "áł¤áł": 1800,
  "æł¹": 1801,
  "åĽĽ": 1802,
  "ause": 1803,
  "ä¹ī": 1804,
  "',": 1805,
  "ä½ķ": 1806,
  "Ð¸ÑĤ": 1807,
  "ç©¶": 1808,
  "áĢĲ": 1809,
  "Ġed": 1810,
  "fore": 1811,
  "Ġx": 1812,
  "tt": 1813,
  "Ġprov": 1814,
  "à¤¤": 1815,
  "Ġid": 1816,
  "ific": 1817,
  "Ì£": 1818,
  "åĪĽ": 1819,
  "à¦¾à¦": 1820,
  "Ġtrans": 1821,
  "áĥĺ": 1822,
  "æĹ¶éĹ´": 1823,
  "à»Ī": 1824,
  "è¯Ĩ": 1825,
  "åĭ": 1826,
  "è£ħ": 1827,
  "çİ¯": 1828,
  "ä¸ľ": 1829,
  "Ã½": 1830,
  "ku": 1831,
  "Ġmen": 1832,
  "âĢ¦": 1833,
  "Ġnum": 1834,
  "Ġfirst": 1835,
  "ner": 1836,
  "Ġspec": 1837,
  "ç¥ŀ": 1838,
  "Ġjust": 1839,
  "å¸¦": 1840,
  "Ġtwo": 1841,
  "æ¼": 1842,
  "Ġknow": 1843,
  "rough": 1844,
  "atch": 1845,
  "å²": 1846,
  "æĶ¯": 1847,
  ".\"": 1848,
  "Ûĩ": 1849,
  "ç©º": 1850,
  "ev": 1851,
  "áĢŃáĢ¯": 1852,
  "Ñħ": 1853,
  "als": 1854,
  "åħ±": 1855,
  "led": 1856,
  "è¯Ŀ": 1857,
  "áĮ": 1858,
  "è¯ķ": 1859,
  "Ġwa": 1860,
  "ÒĽ": 1861,
  "les": 1862,
  "àº²àº": 1863,
  "åĮ»": 1864,
  "à³įà²": 1865,
  "urr": 1866,
  "ough": 1867,
  "('": 1868,
  "æĢĿ": 1869,
  "Ġdata": 1870,
  "ä¸ŃåĽ½": 1871,
  "åĨµ": 1872,
  "àŃ": 1873,
  "Ġrel": 1874,
  "à¹": 1875,
  "æ¢": 1876,
  "yn": 1877,
  "è®°": 1878,
  "ä½¿çĶ¨": 1879,
  "à½¼": 1880,
  "Ġfr": 1881,
  "ĠÅ": 1882,
  "Ġthese": 1883,
  "éŁ": 1884,
  "Ġexp": 1885,
  "åı°": 1886,
  "çĭ": 1887,
  "Ú¯": 1888,
  "çı": 1889,
  "å¤į": 1890,
  "àºĻàº": 1891,
  ".get": 1892,
  "å±±": 1893,
  "tring": 1894,
  "iy": 1895,
  "Ã¨": 1896,
  "Ġq": 1897,
  "Ġrequ": 1898,
  "import": 1899,
  "Ġáĭ": 1900,
  "ĠáĪ": 1901,
  "====": 1902,
  "ä¸ĸ": 1903,
  "åĨ³": 1904,
  "Ä©": 1905,
  "æ¡Ī": 1906,
  "æł¡": 1907,
  "ane": 1908,
  "bo": 1909,
  "ms": 1910,
  "Ġsom": 1911,
  "ä¸ĩ": 1912,
  "à¤Ĥ": 1913,
  "ield": 1914,
  "ER": 1915,
  "ini": 1916,
  "åĥ": 1917,
  "Ġinv": 1918,
  "Ġresult": 1919,
  "Ġche": 1920,
  "å¿«": 1921,
  "Ġdid": 1922,
  "æİ¨": 1923,
  "ä½İ": 1924,
  "æĸ½": 1925,
  "Ġpart": 1926,
  "æĺĵ": 1927,
  "Ġeff": 1928,
  "ues": 1929,
  "za": 1930,
  "Ġpa": 1931,
  "áĬķ": 1932,
  "æĬĢæľ¯": 1933,
  "Ġáŀ": 1934,
  "Ġsl": 1935,
  "èģĶ": 1936,
  "ank": 1937,
  "æ¶Ī": 1938,
  "×¨": 1939,
  "Ġlook": 1940,
  "ted": 1941,
  "å¿ħ": 1942,
  "å¼ķ": 1943,
  "ÑĢÐµ": 1944,
  "Ġele": 1945,
  "è¯Ń": 1946,
  "Ùĥ": 1947,
  "ä¸Ķ": 1948,
  "po": 1949,
  "áł¡áł": 1950,
  "Ġdiffer": 1951,
  "Ġpol": 1952,
  "Ġthrough": 1953,
  "Ġend": 1954,
  "åŃĹ": 1955,
  "ient": 1956,
  "åį³": 1957,
  "æ¸¸": 1958,
  "Ġthen": 1959,
  "Ġrem": 1960,
  "áĢĻ": 1961,
  "ä¼ĺ": 1962,
  "¯áł": 1963,
  "èĲ¥": 1964,
  "Ø¹": 1965,
  "æľįåĬ¡": 1966,
  "tern": 1967,
  "éħį": 1968,
  "åıĤ": 1969,
  "àµį": 1970,
  "ased": 1971,
  "Ġhel": 1972,
  "ork": 1973,
  "Ġpres": 1974,
  "Ġvo": 1975,
  "ople": 1976,
  "æĬķ": 1977,
  "à¤²": 1978,
  "Ġwant": 1979,
  "ä»ĸä»¬": 1980,
  "ck": 1981,
  "áĢ¼": 1982,
  "ym": 1983,
  "ments": 1984,
  "arg": 1985,
  "Ñĩ": 1986,
  "Äħ": 1987,
  "Ġmem": 1988,
  "ix": 1989,
  "è§Ĩ": 1990,
  "ility": 1991,
  "à§į": 1992,
  "}\\": 1993,
  "ĠWe": 1994,
  "ins": 1995,
  "Ġmake": 1996,
  "ĠÏĦ": 1997,
  "Ġol": 1998,
  "åŁİ": 1999,
  "æµĭ": 2000,
  "×ľ": 2001,
  "Äĥ": 2002,
  "Ġko": 2003,
  "ier": 2004,
  "ç³»ç»Ł": 2005,
  "ower": 2006,
  "åı¯èĥ½": 2007,
  "éĩĩ": 2008,
  "ÉĽ": 2009,
  "çłĶç©¶": 2010,
  "ible": 2011,
  "Re": 2012,
  "éĢŁ": 2013,
  "ann": 2014,
  "Ãª": 2015,
  "áĢķ": 2016,
  "Con": 2017,
  "æĢģ": 2018,
  "Ġmo": 2019,
  "Ġser": 2020,
  "åĦ¿": 2021,
  "çķĮ": 2022,
  "ili": 2023,
  "æ·±": 2024,
  "ative": 2025,
  "Ġmost": 2026,
  "Ġ!": 2027,
  "space": 2028,
  "Ġshould": 2029,
  "Ð¾ÑĢ": 2030,
  "Ð¾Ð»": 2031,
  "ĠÑĥ": 2032,
  "ru": 2033,
  "ĠâĢĺ": 2034,
  "Ð¸Ð½": 2035,
  "ļáŀ": 2036,
  "fun": 2037,
  "ement": 2038,
  "Ġmet": 2039,
  "Ġdel": 2040,
  "å®¢": 2041,
  "åŃ¦çĶŁ": 2042,
  "ities": 2043,
  "æİ§": 2044,
  "Ġod": 2045,
  "Ġhand": 2046,
  "hes": 2047,
  "é£Ł": 2048,
  "è¿Ļä¸ª": 2049,
  "ÑĭÐ½": 2050,
  "é¥": 2051,
  "åĩł": 2052,
  "Ġform": 2053,
  "à¦¿": 2054,
  "Ġà¤¸": 2055,
  "çĥŃ": 2056,
  "æĺ¾": 2057,
  "Ġli": 2058,
  "å¹¿": 2059,
  "æĪĺ": 2060,
  "áĢĶ": 2061,
  "Ġba": 2062,
  "é¢Ĩ": 2063,
  "ä¾ĭ": 2064,
  "à²¿": 2065,
  "åįĹ": 2066,
  "Ġwhere": 2067,
  "æĵ": 2068,
  "ika": 2069,
  "åĵį": 2070,
  "ç»Ĩ": 2071,
  "à§įà¦": 2072,
  "èĬ±": 2073,
  "Äĩ": 2074,
  "ç¤¾ä¼ļ": 2075,
  "Ġpers": 2076,
  "éĺ²": 2077,
  "Ġafter": 2078,
  "çĲĥ": 2079,
  "Ġlo": 2080,
  "_s": 2081,
  "Ġsim": 2082,
  "'t": 2083,
  "çĬ¶": 2084,
  "à½ĸ": 2085,
  "åİĭ": 2086,
  "hat": 2087,
  "çĪ±": 2088,
  "æĸŃ": 2089,
  "Ġerr": 2090,
  "da": 2091,
  "amp": 2092,
  "Ġproduc": 2093,
  "åı·": 2094,
  "Ġsur": 2095,
  "Ð°Ð¼": 2096,
  "...": 2097,
  "æĬ¤": 2098,
  "Äĵ": 2099,
  "å¢ĥ": 2100,
  "áĢ·": 2101,
  "çª": 2102,
  "Ġwell": 2103,
  "ute": 2104,
  "Ġacc": 2105,
  "è¡Ģ": 2106,
  "Ġtal": 2107,
  "Õ¡Õ¶": 2108,
  "åĬ©": 2109,
  "åĬŀ": 2110,
  "ĠâĢĵ": 2111,
  "èĳ": 2112,
  "Ð¾Ð½": 2113,
  "éĻĲ": 2114,
  "Ġ_{": 2115,
  "áĥĶ": 2116,
  "è¿ĳ": 2117,
  "è¯·": 2118,
  "ä¾¿": 2119,
  "Ġvar": 2120,
  "Ġpublic": 2121,
  "Ġfunction": 2122,
  "ven": 2123,
  "ider": 2124,
  "Ġclass": 2125,
  "Ġ==": 2126,
  "è±¡": 2127,
  "read": 2128,
  "Ġsuch": 2129,
  "éĻ¤": 2130,
  "ĠØ³": 2131,
  "let": 2132,
  "ions": 2133,
  "Ò¯": 2134,
  "ani": 2135,
  "Ã§": 2136,
  "wn": 2137,
  "Ġpeople": 2138,
  "æ£Ģ": 2139,
  "Ġtak": 2140,
  "Ġatt": 2141,
  "ood": 2142,
  "à»ī": 2143,
  "ä¸»è¦ģ": 2144,
  "æħ": 2145,
  "éĢĤ": 2146,
  "ily": 2147,
  "èı": 2148,
  "è®®": 2149,
  "å§ĭ": 2150,
  "å¸ĥ": 2151,
  "Ø§ÙĦ": 2152,
  "åĳĬ": 2153,
  "Ġinclud": 2154,
  "Ġti": 2155,
  "ĠĠĠĠĠĠĠĠĠĠĠĠĠĠĠĠĠĠĠĠĠĠĠ": 2156,
  "line": 2157,
  "Ã£": 2158,
  "Ġvan": 2159,
  "à¨¾": 2160,
  "\")": 2161,
  "oun": 2162,
  "vi": 2163,
  "au": 2164,
  "ward": 2165,
  "ÑĨ": 2166,
  "ĠØ¦": 2167,
  "Ġiz": 2168,
  "Ġway": 2169,
  "æ®µ": 2170,
  "ife": 2171,
  "åħ»": 2172,
  "Ð°Ð²": 2173,
  "Ġinform": 2174,
  "Ġused": 2175,
  "Ġsam": 2176,
  "ģàº": 2177,
  "ween": 2178,
  "ĠÐ½Ð°": 2179,
  "ä¸ŃçļĦ": 2180,
  "Ã¸": 2181,
  "Ġevery": 2182,
  "äºĶ": 2183,
  "uct": 2184,
  "Ġ×Ķ": 2185,
  "å¤ª": 2186,
  "æĥħåĨµ": 2187,
  "Ð°Ð´": 2188,
  "èĩ´": 2189,
  "ä»Ĭ": 2190,
  "arch": 2191,
  "æµİ": 2192,
  "roup": 2193,
  "ator": 2194,
  "ny": 2195,
  "æŀĲ": 2196,
  "æľª": 2197,
  "Ġ_": 2198,
  "ON": 2199,
  "àµįà´": 2200,
  "Ġimport": 2201,
  "Ä§": 2202,
  "æĳ": 2203,
  "åĢĻ": 2204,
  "ela": 2205,
  "ars": 2206,
  "Ġserv": 2207,
  "Ġloc": 2208,
  "plic": 2209,
  "Ġgl": 2210,
  "add": 2211,
  "zi": 2212,
  "Ġnd": 2213,
  "ova": 2214,
  "name": 2215,
  "è¶³": 2216,
  "ze": 2217,
  "çļĦäºº": 2218,
  "çīĩ": 2219,
  "ç¢": 2220,
  "of": 2221,
  "IN": 2222,
  "æĸ¹æ³ķ": 2223,
  "éļ¾": 2224,
  "è¶Ĭ": 2225,
  "à¤¸": 2226,
  "fig": 2227,
  "ams": 2228,
  "æ¥": 2229,
  "Ġog": 2230,
  "Ġent": 2231,
  "Ġsign": 2232,
  "Ġir": 2233,
  "af": 2234,
  "way": 2235,
  "ç§¯": 2236,
  "min": 2237,
  "Ùģ": 2238,
  "ody": 2239,
  "Ġdr": 2240,
  "å¹²": 2241,
  "yo": 2242,
  "Id": 2243,
  "éĻħ": 2244,
  "ution": 2245,
  "æĪ¿": 2246,
  "åĮĹ": 2247,
  ",âĢĿ": 2248,
  "æŀģ": 2249,
  "lar": 2250,
  "other": 2251,
  "åł": 2252,
  "ç»´": 2253,
  "-s": 2254,
  "çĸĹ": 2255,
  "Pro": 2256,
  "##": 2257,
  "Ġaut": 2258,
  "ita": 2259,
  "ton": 2260,
  "Ġsee": 2261,
  "à½¢": 2262,
  "à³ģ": 2263,
  "Ġbel": 2264,
  "lect": 2265,
  "Ġexper": 2266,
  "Ġnga": 2267,
  "æĮī": 2268,
  "åĥı": 2269,
  "****": 2270,
  "æĲ": 2271,
  "ç«Ļ": 2272,
  "Ġza": 2273,
  "Ġbetween": 2274,
  "ows": 2275,
  "åĳ¨": 2276,
  "Ġgu": 2277,
  "à¯ģ": 2278,
  "ki": 2279,
  "ä¸įåĲĮ": 2280,
  ".c": 2281,
  "atic": 2282,
  "fl": 2283,
  "æ¬¾": 2284,
  "ÐµÑĤ": 2285,
  "Ġeven": 2286,
  "Î¼": 2287,
  "áŀĢ": 2288,
  "à¥ģ": 2289,
  "æķĻèĤ²": 2290,
  "à¤®": 2291,
  "çħ§": 2292,
  "ç¦»": 2293,
  "åĳ½": 2294,
  "Ġest": 2295,
  "æĴ": 2296,
  "ret": 2297,
  "Ġsystem": 2298,
  "It": 2299,
  "å¸Ĥåľº": 2300,
  "ger": 2301,
  "äº§åĵģ": 2302,
  "ØĮ": 2303,
  "Ġdon": 2304,
  "èµ°": 2305,
  "ava": 2306,
  "æĿĲ": 2307,
  "Ãµ": 2308,
  "Ġhelp": 2309,
  "va": 2310,
  "è¨Ģ": 2311,
  "Ó©": 2312,
  "ä¸įæĺ¯": 2313,
  "Ġelse": 2314,
  "áĥĶáĥ": 2315,
  "uring": 2316,
  "vo": 2317,
  "ection": 2318,
  "èģĮ": 2319,
  "å±ŀ": 2320,
  "Ġdown": 2321,
  "èĤ¡": 2322,
  "Ġstart": 2323,
  "à¤¹": 2324,
  "å±Ĥ": 2325,
  "cc": 2326,
  "æİĴ": 2327,
  "éĺŁ": 2328,
  "ool": 2329,
  "ä¹Ĳ": 2330,
  "ature": 2331,
  "air": 2332,
  "ä¿¡æģ¯": 2333,
  "_d": 2334,
  "itt": 2335,
  "Ġtem": 2336,
  "Ġà¤®": 2337,
  "çĶŁæ´»": 2338,
  "ures": 2339,
  "áº¹": 2340,
  "Ġinst": 2341,
  "cri": 2342,
  "Ġnow": 2343,
  "velop": 2344,
  "à½Ħ": 2345,
  "å¤±": 2346,
  "rap": 2347,
  "Ġcor": 2348,
  "Ġhigh": 2349,
  "Ġcar": 2350,
  "èį¯": 2351,
  "åĽłä¸º": 2352,
  "ç»Ń": 2353,
  "go": 2354,
  "ko": 2355,
  "ÐµÐ»": 2356,
  "Ð°Ðº": 2357,
  "Ġil": 2358,
  "bu": 2359,
  "ets": 2360,
  "ç»ıæµİ": 2361,
  "æıĲä¾Ľ": 2362,
  "ĠZ": 2363,
  "ren": 2364,
  "Ġsol": 2365,
  "åįĩ": 2366,
  "è§ī": 2367,
  "å¡": 2368,
  "son": 2369,
  "Îº": 2370,
  "Ð¾Ð´": 2371,
  "Ġmon": 2372,
  "åıĭ": 2373,
  "ÖĢÕ": 2374,
  ".l": 2375,
  "Ã©s": 2376,
  "ĠPro": 2377,
  "×Ĳ": 2378,
  "×ª": 2379,
  "Ġvery": 2380,
  "ÄĹ": 2381,
  "ices": 2382,
  "æĸ¹éĿ¢": 2383,
  ".S": 2384,
  "æ´»åĬ¨": 2385,
  "ĠÙĨ": 2386,
  "ÛĲ": 2387,
  "Ġden": 2388,
  "à½´": 2389,
  "à½ĵ": 2390,
  "è¯Ħ": 2391,
  "Ġà¬": 2392,
  "åŃ¦ä¹ł": 2393,
  "à¸²": 2394,
  "Res": 2395,
  "ush": 2396,
  "æ»¡": 2397,
  "ser": 2398,
  "ever": 2399,
  "Ð¾Ð¼": 2400,
  "éļı": 2401,
  "å½±åĵį": 2402,
  "à·Ĭ": 2403,
  "gy": 2404,
  "åĪĹ": 2405,
  "Ġfil": 2406,
  "):": 2407,
  "èĮĥ": 2408,
  "ÙĦÙī": 2409,
  "àºĩ": 2410,
  "era": 2411,
  "Ã²": 2412,
  "è¯¾": 2413,
  "_c": 2414,
  "\\%": 2415,
  "à²¿à²": 2416,
  "Ġmat": 2417,
  "éĩįè¦ģ": 2418,
  "áĢ½": 2419,
  "urrent": 2420,
  "áŀĵ": 2421,
  "é¢Ħ": 2422,
  "Î»": 2423,
  "Ø¬": 2424,
  "Ġgood": 2425,
  "Ġcall": 2426,
  "ÚĨ": 2427,
  "à®¿": 2428,
  "man": 2429,
  "Ġright": 2430,
  "Ġagain": 2431,
  "Ġfind": 2432,
  "aka": 2433,
  "æļ": 2434,
  "æĭ©": 2435,
  "Ġja": 2436,
  "Ġbecause": 2437,
  "å¤Ł": 2438,
  "Ġ:=": 2439,
  "Ġeach": 2440,
  "Name": 2441,
  "uro": 2442,
  "ÛĴ": 2443,
  "Ø©": 2444,
  "AT": 2445,
  "fic": 2446,
  "è¿ŀ": 2447,
  "Ģàº": 2448,
  "æīĢä»¥": 2449,
  "ethod": 2450,
  "å±Ģ": 2451,
  "Ġdire": 2452,
  "Ġmany": 2453,
  "è´£": 2454,
  "é¦ĸ": 2455,
  "ages": 2456,
  "å¨": 2457,
  "ä¿®": 2458,
  "ĠÐ¶": 2459,
  "éĻ©": 2460,
  "yp": 2461,
  "è¶ħ": 2462,
  "è¦ģæ±Ĥ": 2463,
  ".p": 2464,
  "ç§°": 2465,
  "},": 2466,
  "Ð°Ñģ": 2467,
  "Ġcre": 2468,
  "æķ°æį®": 2469,
  "Å³": 2470,
  "Ġbefore": 2471,
  "æĢİ": 2472,
  "ĠCom": 2473,
  "Õ¥Õ": 2474,
  "åĪĩ": 2475,
  "Ġdist": 2476,
  "Ġfoll": 2477,
  "å¼ł": 2478,
  "Ġtest": 2479,
  "è¾¹": 2480,
  "Ð°Ð·": 2481,
  "åĽ¢": 2482,
  "å®īåħ¨": 2483,
  "Ġà¤ª": 2484,
  "Ġread": 2485,
  "çº¦": 2486,
  "ä¸Ģç§į": 2487,
  "çİĭ": 2488,
  "ized": 2489,
  "įàª": 2490,
  "Ġàº": 2491,
  "dd": 2492,
  "ĠtÃ«": 2493,
  "×ŀ": 2494,
  "Õ¸ÖĤÕ": 2495,
  "Î¯": 2496,
  "Ġáī": 2497,
  "à«įàª": 2498,
  "adi": 2499,
  "Ġgener": 2500,
  "Ġconst": 2501,
  "çľģ": 2502,
  "àº±": 2503,
  "oh": 2504,
  "Ġvari": 2505,
  "åĪĴ": 2506,
  "Ûģ": 2507,
  "ĠAr": 2508,
  "éĢīæĭ©": 2509,
  "ponse": 2510,
  "çľ¼": 2511,
  "ational": 2512,
  "the": 2513,
  "dot": 2514,
  "over": 2515,
  "áĢ»": 2516,
  "åĺ": 2517,
  "ĠÐ¿ÑĢ": 2518,
  "Ġbil": 2519,
  "ID": 2520,
  "ua": 2521,
  "Er": 2522,
  "})": 2523,
  "ared": 2524,
  "æľĽ": 2525,
  "çĮ": 2526,
  "éŁ³": 2527,
  "ats": 2528,
  "Ġplay": 2529,
  "ES": 2530,
  "new": 2531,
  "tor": 2532,
  "áł¦": 2533,
  "ĠAl": 2534,
  "åĤ": 2535,
  ".d": 2536,
  "å¾ĭ": 2537,
  "äººçļĦ": 2538,
  "Ġwhile": 2539,
  "å£°": 2540,
  "ãĢĤâĢĿ": 2541,
  "çĽĬ": 2542,
  "fo": 2543,
  "oni": 2544,
  "Ġvis": 2545,
  "åĿĩ": 2546,
  "à¦¿à¦": 2547,
  "ĠĠĠĠĠ": 2548,
  "å¾Ģ": 2549,
  "ument": 2550,
  "åŃ©": 2551,
  "set": 2552,
  "List": 2553,
  "ule": 2554,
  "æ¹": 2555,
  "è®¾è®¡": 2556,
  "åĨľ": 2557,
  "Ġmuch": 2558,
  "Ġà´": 2559,
  "è¿°": 2560,
  "Ġ`": 2561,
  "æĿ¿": 2562,
  "rol": 2563,
  "ray": 2564,
  "èİ·": 2565,
  "bl": 2566,
  "ĠYou": 2567,
  "ä½ı": 2568,
  "àºĶ": 2569,
  "Å¼": 2570,
  "Ġkom": 2571,
  "åĪĨæŀĲ": 2572,
  "Å©": 2573,
  "Ġins": 2574,
  "à®¿à®": 2575,
  "Ð¾Ð³": 2576,
  "æ¸©": 2577,
  "Ex": 2578,
  "Ġhere": 2579,
  "à¾±": 2580,
  ".com": 2581,
  "Ġyang": 2582,
  "Ð¶": 2583,
  "ines": 2584,
  "é©¬": 2585,
  "å¾·": 2586,
  "ern": 2587,
  "Ã¶r": 2588,
  "iti": 2589,
  "è¿ĩç¨ĭ": 2590,
  "ena": 2591,
  "à½º": 2592,
  "åĲĮæĹ¶": 2593,
  "}{": 2594,
  "áīµ": 2595,
  "ef": 2596,
  "à«Ģ": 2597,
  "àº°": 2598,
  "eni": 2599,
  "Ġ@": 2600,
  "ected": 2601,
  "----------------": 2602,
  "åĲĥ": 2603,
  "æķħ": 2604,
  "áĢĽ": 2605,
  "åŁŁ": 2606,
  "ĠÐ³": 2607,
  "Ð°Ð¹": 2608,
  "ited": 2609,
  "ĠÑĢ": 2610,
  "è¿Ļæł·": 2611,
  "ament": 2612,
  "Ġvalue": 2613,
  "ĠÂ": 2614,
  "_t": 2615,
  "åħĭ": 2616,
  "Ġprocess": 2617,
  "Ġsti": 2618,
  "Ġsin": 2619,
  "Ġyears": 2620,
  "âĢĮ": 2621,
  "ÅĤ": 2622,
  "ç»ĩ": 2623,
  "è®¸": 2624,
  "ĠIf": 2625,
  "áĥĺáĥ": 2626,
  "áĢĦáĢºáĢ": 2627,
  "æ²¹": 2628,
  "Ġperson": 2629,
  ",\"": 2630,
  "Ġlist": 2631,
  "Ġum": 2632,
  "iet": 2633,
  "çŃĶ": 2634,
  "å·®": 2635,
  "ric": 2636,
  "Éĸ": 2637,
  "é¾": 2638,
  "Ch": 2639,
  "à½ł": 2640,
  "åĬ¿": 2641,
  "Ġcase": 2642,
  "åħħ": 2643,
  "Ġnil": 2644,
  "asa": 2645,
  "æ¿": 2646,
  "åİĨ": 2647,
  "Ġusing": 2648,
  "è¿ĻäºĽ": 2649,
  "ä»¥åıĬ": 2650,
  "ä¸ĢäºĽ": 2651,
  "æĸ¯": 2652,
  "åĨĽ": 2653,
  "èĪ¬": 2654,
  "ä»ħ": 2655,
  "Ġom": 2656,
  "ved": 2657,
  "ĠAnd": 2658,
  "ery": 2659,
  "ource": 2660,
  "\");": 2661,
  "pec": 2662,
  "æĹ¶åĢĻ": 2663,
  "çĶŁäº§": 2664,
  "æł¹æį®": 2665,
  "åĽ½å®¶": 2666,
  "è§Ĵ": 2667,
  "éĶĢ": 2668,
  "Ð¾ÑĤ": 2669,
  ".,": 2670,
  "Ġbre": 2671,
  "ÑĬ": 2672,
  "Ġque": 2673,
  "æĸ¹å¼ı": 2674,
  "Ù¾": 2675,
  "áį": 2676,
  "ju": 2677,
  "áĢĬ": 2678,
  "èĩªå·±çļĦ": 2679,
  "Ġchar": 2680,
  "çŃĸ": 2681,
  "èĥ½åĬĽ": 2682,
  "Ġì": 2683,
  "Ġve": 2684,
  "åħ¶ä»ĸ": 2685,
  "Ġmade": 2686,
  "br": 2687,
  "ä¸įèĥ½": 2688,
  "Ġà¤¹": 2689,
  "itu": 2690,
  "åľŁ": 2691,
  "Ġfound": 2692,
  "eta": 2693,
  "mi": 2694,
  "Ġdevelop": 2695,
  "åĨĻ": 2696,
  "èŀ": 2697,
  "áĪĿ": 2698,
  "ä½Ĩæĺ¯": 2699,
  "alse": 2700,
  "ĠShe": 2701,
  "åħį": 2702,
  "åįİ": 2703,
  "AR": 2704,
  "Ġthose": 2705,
  "Ġter": 2706,
  "by": 2707,
  "Ġcr": 2708,
  "å¥½çļĦ": 2709,
  ".m": 2710,
  "day": 2711,
  "Ġsame": 2712,
  "ather": 2713,
  "Ñį": 2714,
  "Ġdoes": 2715,
  "frac": 2716,
  "</": 2717,
  "Ġdifferent": 2718,
  "×ĳ": 2719,
  "ä¾Ŀ": 2720,
  "alth": 2721,
  "cir": 2722,
  "åĨħå®¹": 2723,
  "que": 2724,
  "éĸ": 2725,
  "Ġ)": 2726,
  "Ġà°": 2727,
  "ç±³": 2728,
  "áĢħ": 2729,
  "atus": 2730,
  "Ġ=>": 2731,
  "ler": 2732,
  "EN": 2733,
  "ness": 2734,
  "áĤ": 2735,
  "Ġthink": 2736,
  "Ġdie": 2737,
  "iness": 2738,
  "ames": 2739,
  "èª": 2740,
  "Ġbeing": 2741,
  "ask": 2742,
  "ined": 2743,
  "ĠAn": 2744,
  "AN": 2745,
  "Ġpoint": 2746,
  "Ġfam": 2747,
  "Ġboth": 2748,
  "Ġdan": 2749,
  "Ø§Ø": 2750,
  "ey": 2751,
  "è¯»": 2752,
  "çĻ¾": 2753,
  "àª¨": 2754,
  "ength": 2755,
  "æĤ¨": 2756,
  "çº¢": 2757,
  "å¾®": 2758,
  "cent": 2759,
  "Ã¤r": 2760,
  "Ġbest": 2761,
  "asi": 2762,
  "ght": 2763,
  "çģ«": 2764,
  "é¡¹çĽ®": 2765,
  "ĠQ": 2766,
  "à§ĩà¦": 2767,
  "si": 2768,
  "por": 2769,
  "ĠÅ¡": 2770,
  "Ã¦": 2771,
  "Ġmain": 2772,
  "ä¸Ģå®ļ": 2773,
  "à»Ģàº": 2774,
  "Ġsay": 2775,
  "éĻį": 2776,
  "áĢŀ": 2777,
  "çŁ³": 2778,
  "time": 2779,
  "áŀĦ": 2780,
  "æł¸": 2781,
  "æī¿": 2782,
  "×©": 2783,
  "Ġfollow": 2784,
  "Î¿Ïħ": 2785,
  "åŁ¹": 2786,
  "Ġpost": 2787,
  "éĥ¨åĪĨ": 2788,
  "Ġbi": 2789,
  "çİ°åľ¨": 2790,
  "åħ·æľī": 2791,
  "æĻ¯": 2792,
  "Ġday": 2793,
  "çļĦæĺ¯": 2794,
  "Ġname": 2795,
  "}^{": 2796,
  "åĽ´": 2797,
  "ç¬¬ä¸Ģ": 2798,
  "ters": 2799,
  "èĲ½": 2800,
  "ÏĮ": 2801,
  "à¨¾à¨": 2802,
  "àºŃ": 2803,
  "æıĲé«ĺ": 2804,
  "Ġrun": 2805,
  "ä»½": 2806,
  "Ġreal": 2807,
  "Ġmark": 2808,
  "Ġva": 2809,
  "Ġhead": 2810,
  "ila": 2811,
  "ãģ®": 2812,
  "Ġtake": 2813,
  "arm": 2814,
  "vent": 2815,
  "isa": 2816,
  "Ġshow": 2817,
  "Ġincre": 2818,
  "uri": 2819,
  "arn": 2820,
  "å·²ç»ı": 2821,
  "_p": 2822,
  "Ġnumber": 2823,
  "ç¿": 2824,
  "ima": 2825,
  "Ø³Øª": 2826,
  "ä½ľçĶ¨": 2827,
  "ĠAs": 2828,
  "ona": 2829,
  "èĭ±": 2830,
  "ext": 2831,
  "ä¼Ĺ": 2832,
  "Ġbus": 2833,
  "Ò£": 2834,
  "è½½": 2835,
  "land": 2836,
  "Cl": 2837,
  "Ġown": 2838,
  "Ġ!=": 2839,
  "ead": 2840,
  "ants": 2841,
  "ĠFor": 2842,
  "åĲ«": 2843,
  "Ġgiv": 2844,
  "Ïī": 2845,
  "-b": 2846,
  "æĭ¬": 2847,
  "à·Ĵ": 2848,
  "åħļ": 2849,
  "den": 2850,
  "Ġfa": 2851,
  "round": 2852,
  "à¥¤": 2853,
  "ç®Ģ": 2854,
  "à½ĺ": 2855,
  "ason": 2856,
  "}(": 2857,
  "å¯¹äºİ": 2858,
  "ÙĪØ±": 2859,
  "ç»Ħç»ĩ": 2860,
  "Type": 2861,
  "_m": 2862,
  "kan": 2863,
  "ĠÙ¾": 2864,
  "å·ŀ": 2865,
  "å£«": 2866,
  "åĩı": 2867,
  "à¥įà¤¯": 2868,
  "åıĮ": 2869,
  "().": 2870,
  "Ġdem": 2871,
  "work": 2872,
  "å©": 2873,
  "gram": 2874,
  "å®Ŀ": 2875,
  "åºı": 2876,
  "Ġlife": 2877,
  ":\"": 2878,
  "Ġanal": 2879,
  "ired": 2880,
  "å¯Ĩ": 2881,
  "çĨ": 2882,
  "å§Ķ": 2883,
  "essage": 2884,
  "éº": 2885,
  "åģ¥": 2886,
  "OR": 2887,
  "ä½ľä¸º": 2888,
  "Ġappro": 2889,
  "Ã®": 2890,
  "Ġkan": 2891,
  "ism": 2892,
  "Ar": 2893,
  "Ġfact": 2894,
  "Ø§Øª": 2895,
  "à²¾": 2896,
  "String": 2897,
  "ĠÄį": 2898,
  "æī¾": 2899,
  "ouse": 2900,
  "æĤ£": 2901,
  "åĸľ": 2902,
  "çŁ¥éģĵ": 2903,
  "isk": 2904,
  "è´Ł": 2905,
  "ä¸ĢèĪ¬": 2906,
  "Ġmga": 2907,
  "Ġorgan": 2908,
  "ĠTr": 2909,
  "è´¢": 2910,
  "Ð¸Ñı": 2911,
  "Ġpot": 2912,
  "æĿĳ": 2913,
  "quest": 2914,
  "çİ¯å¢ĥ": 2915,
  "pp": 2916,
  "Ġtrue": 2917,
  "cept": 2918,
  "ç«ł": 2919,
  "ST": 2920,
  "è¿ĺæĺ¯": 2921,
  "?âĢĿ": 2922,
  "che": 2923,
  "è¿Ļç§į": 2924,
  "äºī": 2925,
  "æĭī": 2926,
  "-d": 2927,
  "Ġdisc": 2928,
  "èµĽ": 2929,
  "åĪĿ": 2930,
  "ä¹°": 2931,
  "åįı": 2932,
  "è¾ĵ": 2933,
  "ole": 2934,
  "cdot": 2935,
  "Com": 2936,
  "à¤µ": 2937,
  "Ġvi": 2938,
  "èĨ": 2939,
  "ä¸¥": 2940,
  "Ġdep": 2941,
  "ĠÙĦ": 2942,
  "string": 2943,
  "à¯ģà®": 2944,
  "Ġlast": 2945,
  "å¤§çļĦ": 2946,
  "æŀĹ": 2947,
  "íķ": 2948,
  "æĸĩåĮĸ": 2949,
  "å»ºè®¾": 2950,
  "ä¸ĬçļĦ": 2951,
  "ency": 2952,
  "å®¤": 2953,
  "ji": 2954,
  "Ġtil": 2955,
  "å°Ķ": 2956,
  "çĽĳ": 2957,
  "Ġder": 2958,
  "Ġrep": 2959,
  "æ¿Ģ": 2960,
  "Ġinformation": 2961,
  "ä¹Łæĺ¯": 2962,
  "éĥ½æĺ¯": 2963,
  "ĠBut": 2964,
  "Ġcent": 2965,
  "raw": 2966,
  "è½»": 2967,
  "çīĪ": 2968,
  "ases": 2969,
  "ital": 2970,
  "å¿µ": 2971,
  "Error": 2972,
  "Ã¬": 2973,
  "áŀĶ": 2974,
  "à½£": 2975,
  "äºĴ": 2976,
  "à²¾à²": 2977,
  "sk": 2978,
  "ç»Ī": 2979,
  "ÛĮÙĨ": 2980,
  "Ġha": 2981,
  "åĲ¦": 2982,
  "Ð¸Ð»": 2983,
  "çīĮ": 2984,
  "mu": 2985,
  "_l": 2986,
  "åĪ°äºĨ": 2987,
  "sa": 2988,
  "åºķ": 2989,
  "Òĵ": 2990,
  "inal": 2991,
  "ÙĨÙī": 2992,
  "åı²": 2993,
  "æį¢": 2994,
  "áŀĺ": 2995,
  "æĹ©": 2996,
  "éĿĴ": 2997,
  "Ġcle": 2998,
  "Val": 2999,
  "ĠÙĤ": 3000,
  "Ġcap": 3001,
  "Ġaround": 3002,
  "éĺ³": 3003,
  "åĮħæĭ¬": 3004,
  "åħ³ç³»": 3005,
  "ĠÏĢ": 3006,
  "ĠØ±": 3007,
  "ç¾¤": 3008,
  "çļ®": 3009,
  "Ġcare": 3010,
  "Ġexam": 3011,
  "ained": 3012,
  "_f": 3013,
  "Ġchild": 3014,
  "à¶±": 3015,
  "Ê»": 3016,
  "åĽłæŃ¤": 3017,
  "action": 3018,
  "hi": 3019,
  "ano": 3020,
  "æ±Ł": 3021,
  "pa": 3022,
  "åº·": 3023,
  "à¸£": 3024,
  "Ġpartic": 3025,
  "ĠX": 3026,
  "ves": 3027,
  "Ġpass": 3028,
  "åĩºçİ°": 3029,
  "-m": 3030,
  "Ġ>": 3031,
  "yl": 3032,
  "çĶ·": 3033,
  "çĽ¸åħ³": 3034,
  "Ġposs": 3035,
  "view": 3036,
  "à¥įà¤°": 3037,
  "Ġmag": 3038,
  "Ġstill": 3039,
  "Ġmi": 3040,
  "æİ§åĪ¶": 3041,
  "è¿ľ": 3042,
  "åĬŁèĥ½": 3043,
  "åĳ¢": 3044,
  "ÑĭÐ»": 3045,
  "roll": 3046,
  "ëĭ": 3047,
  "é¡»": 3048,
  "To": 3049,
  "æĺŁ": 3050,
  "Ð¾Ñ": 3051,
  "å¤ĦçĲĨ": 3052,
  "ault": 3053,
  "åºľ": 3054,
  "].": 3055,
  "Ġtype": 3056,
  "æĢİä¹Ī": 3057,
  "×ł": 3058,
  "ura": 3059,
  "áĢ¾": 3060,
  "Ġprof": 3061,
  "rist": 3062,
  "åĲ¬": 3063,
  "å¼Ĥ": 3064,
  "åį´": 3065,
  "We": 3066,
  "å¸®": 3067,
  "def": 3068,
  "ui": 3069,
  "Ġos": 3070,
  "ustom": 3071,
  "åŃ©åŃĲ": 3072,
  "äº²": 3073,
  "ino": 3074,
  "èĥ½å¤Ł": 3075,
  "du": 3076,
  "Ġpriv": 3077,
  "ä¸ĸçķĮ": 3078,
  "func": 3079,
  "è´Ń": 3080,
  "æ¯Ķè¾ĥ": 3081,
  "ict": 3082,
  "ds": 3083,
  "Ã«r": 3084,
  "åĸĦ": 3085,
  "âĢ¯áł": 3086,
  "å¼Ģå§ĭ": 3087,
  "Data": 3088,
  "urs": 3089,
  "hip": 3090,
  "Ġproble": 3091,
  "ÑģÐº": 3092,
  "-c": 3093,
  "Ġcell": 3094,
  "åĲĹ": 3095,
  "çıŃ": 3096,
  "type": 3097,
  "å¾Īå¤ļ": 3098,
  "àºµ": 3099,
  "æ¼Ķ": 3100,
  "åĲ¸": 3101,
  "aining": 3102,
  "æ¤": 3103,
  "à«ĭ": 3104,
  "abel": 3105,
  "Ġkon": 3106,
  "æĪĸèĢħ": 3107,
  "ization": 3108,
  "Õ¸Õ": 3109,
  "ross": 3110,
  "à¸Ļ": 3111,
  "Ġ×Ĳ": 3112,
  "ience": 3113,
  "åĩ»": 3114,
  "æŃ¢": 3115,
  "att": 3116,
  "hy": 3117,
  "ains": 3118,
  "Ġkw": 3119,
  "áŀŁ": 3120,
  "Ġtech": 3121,
  "ox": 3122,
  "Ġmar": 3123,
  "Ġuk": 3124,
  "Ú¾": 3125,
  "AL": 3126,
  "ĠUn": 3127,
  "Ġlevel": 3128,
  "ula": 3129,
  "ä¸ĵä¸ļ": 3130,
  "äººåĳĺ": 3131,
  "}=": 3132,
  "Ġgreat": 3133,
  "uss": 3134,
  "],": 3135,
  "Ġoper": 3136,
  "ural": 3137,
  "Ġcomple": 3138,
  "åįĬ": 3139,
  "ote": 3140,
  "áĢľ": 3141,
  "ĠØ´": 3142,
  "æīĢæľī": 3143,
  "Ġmust": 3144,
  "ĠIs": 3145,
  "åıĳçĶŁ": 3146,
  "ĠNew": 3147,
  "Ġtim": 3148,
  "Ġpop": 3149,
  "èī¯": 3150,
  "ä»ĭ": 3151,
  "....": 3152,
  "Ġpag": 3153,
  "èīº": 3154,
  "åĳ³": 3155,
  "æ¶²": 3156,
  "é»Ħ": 3157,
  "Î¬": 3158,
  "Ġmethod": 3159,
  "Ġtry": 3160,
  "èŃ": 3161,
  "Ùİ": 3162,
  "gin": 3163,
  "ï¼ļâĢľ": 3164,
  "ott": 3165,
  "åĵª": 3166,
  "ream": 3167,
  "rem": 3168,
  "var": 3169,
  "Tr": 3170,
  "Ġpati": 3171,
  "reg": 3172,
  "æ¦": 3173,
  "æŃ»": 3174,
  "Ġopen": 3175,
  "æŁĲ": 3176,
  "ÄŁ": 3177,
  "Ġapp": 3178,
  "Ġworld": 3179,
  "à©ĩ": 3180,
  "à¤ª": 3181,
  "Ġthree": 3182,
  "æ²»çĸĹ": 3183,
  "éĢģ": 3184,
  "å¯Į": 3185,
  "Ġ×ľ": 3186,
  "face": 3187,
  "iri": 3188,
  "Ġtoo": 3189,
  "Ġber": 3190,
  "arly": 3191,
  "Ġ->": 3192,
  "Ġá»": 3193,
  "ĠSh": 3194,
  "ato": 3195,
  "åºĹ": 3196,
  "ession": 3197,
  "bi": 3198,
  "å½ķ": 3199,
  "Ð¸Ðº": 3200,
  "ica": 3201,
  "Ġtri": 3202,
  "éĿŀå¸¸": 3203,
  "Ã¢": 3204,
  "åį¡": 3205,
  "Ġsing": 3206,
  "Ġgoing": 3207,
  "áŁĭ": 3208,
  "ØŃ": 3209,
  "Ø®": 3210,
  "ÄĻ": 3211,
  "ãĢĳ": 3212,
  "å®³": 3213,
  "ç«¯": 3214,
  "ãĢĲ": 3215,
  "Ġequ": 3216,
  "Ġnon": 3217,
  "ĠÎ±": 3218,
  "Ġdesign": 3219,
  "áĢģ": 3220,
  "Ø§Ùħ": 3221,
  "ije": 3222,
  "chool": 3223,
  "à¤¾à¤°": 3224,
  "Ġstand": 3225,
  "è²": 3226,
  "ology": 3227,
  "èŀį": 3228,
  "æĪı": 3229,
  "En": 3230,
  "æ¬¢": 3231,
  "Ġsmall": 3232,
  "ehova": 3233,
  "Ġmodel": 3234,
  "çļĦä¸Ģ": 3235,
  "aga": 3236,
  "Ġhome": 3237,
  "å°½": 3238,
  "uck": 3239,
  "çķĻ": 3240,
  "ee": 3241,
  "ties": 3242,
  "ĠEx": 3243,
  "ÐµÐ¼": 3244,
  "à©Ģ": 3245,
  "Ġext": 3246,
  "ici": 3247,
  "æĵį": 3248,
  "åı¦": 3249,
  "çĶ±äºİ": 3250,
  "eter": 3251,
  "æĻº": 3252,
  "ĠCon": 3253,
  "èĳĹ": 3254,
  "æĪĲä¸º": 3255,
  "ako": 3256,
  "Ġcontin": 3257,
  "å¤§å®¶": 3258,
  "åŃĺåľ¨": 3259,
  "Ġperform": 3260,
  "àª°": 3261,
  "Ġ<<": 3262,
  "uh": 3263,
  "for": 3264,
  "ä¼¤": 3265,
  "oci": 3266,
  "à³Ĩ": 3267,
  "Ġ×ĳ": 3268,
  "Ð¸Ð¼": 3269,
  "Ġcour": 3270,
  "éħĴ": 3271,
  "Ġprovid": 3272,
  "ced": 3273,
  "å¿Ĺ": 3274,
  "Ġhal": 3275,
  "nos": 3276,
  "Ġlead": 3277,
  "áĪŃ": 3278,
  "Ġ///": 3279,
  "áł¦áł": 3280,
  "ÐµÐº": 3281,
  "áĥĿ": 3282,
  "ç¯": 3283,
  "åı¤": 3284,
  "ittle": 3285,
  "ems": 3286,
  "ĠÐµ": 3287,
  "ĠáĢ¡": 3288,
  "ç§»": 3289,
  "è´¨éĩı": 3290,
  "ought": 3291,
  "å®ŀçİ°": 3292,
  "çİ©": 3293,
  "ĠHow": 3294,
  "éĨ": 3295,
  "Öģ": 3296,
  "åĶ®": 3297,
  "ĠThey": 3298,
  "å·¥ç¨ĭ": 3299,
  "Ø§ÛĮ": 3300,
  ".set": 3301,
  "Ġsecond": 3302,
  "Ġput": 3303,
  "Ġpod": 3304,
  "ends": 3305,
  "Ġbeh": 3306,
  "Ġconsider": 3307,
  "çķ¥": 3308,
  "ĠÎº": 3309,
  "Ġorder": 3310,
  "ics": 3311,
  "è®Ń": 3312,
  "tik": 3313,
  "ways": 3314,
  "ality": 3315,
  "Ġay": 3316,
  "ç»ĵæŀĦ": 3317,
  "ĠRes": 3318,
  "æĬķèµĦ": 3319,
  "pi": 3320,
  "éĶĻ": 3321,
  "(),": 3322,
  "ĠØ¬": 3323,
  "Ġca": 3324,
  "Øº": 3325,
  "Ġhet": 3326,
  "med": 3327,
  "ision": 3328,
  "Ġterm": 3329,
  "ende": 3330,
  "Ġlog": 3331,
  "Ġpat": 3332,
  "ĠThere": 3333,
  "æ¯į": 3334,
  "========": 3335,
  "áĢ±áĢ¬": 3336,
  "àº»": 3337,
  "ida": 3338,
  "Ġpresent": 3339,
  "ns": 3340,
  "å®ĺ": 3341,
  "Cont": 3342,
  "ces": 3343,
  "this": 3344,
  "Ġcurrent": 3345,
  "_id": 3346,
  "ija": 3347,
  "çµ": 3348,
  "uma": 3349,
  "àº§": 3350,
  "Ġ;": 3351,
  "arget": 3352,
  "äº¬": 3353,
  "Ġmas": 3354,
  "åĽŃ": 3355,
  "Ġsupport": 3356,
  "Ġduring": 3357,
  "cled": 3358,
  "')": 3359,
  "è·Ł": 3360,
  "uf": 3361,
  "è®²": 3362,
  "ero": 3363,
  "èĽ": 3364,
  "emb": 3365,
  "åĢĭ": 3366,
  "çĭ¬": 3367,
  "ÄĽ": 3368,
  "É©": 3369,
  "æĻ®": 3370,
  "éĴ±": 3371,
  "Ġà¤¬": 3372,
  "ector": 3373,
  "RE": 3374,
  "istic": 3375,
  "Ġmul": 3376,
  "Ġà¤ħ": 3377,
  "Ġok": 3378,
  "ential": 3379,
  "Ġbir": 3380,
  "×¢": 3381,
  "ora": 3382,
  "éĵ¶": 3383,
  "æķĻåŃ¦": 3384,
  "Ġra": 3385,
  "Ġactiv": 3386,
  "ç¼ĸ": 3387,
  "ugg": 3388,
  "Ġimp": 3389,
  "×Ļ×Ŀ": 3390,
  "åŁºæľ¬": 3391,
  "ÙĪÙĨ": 3392,
  "ists": 3393,
  "Ġinc": 3394,
  "åŁºç¡": 3395,
  "Ġline": 3396,
  "Ġmal": 3397,
  "ember": 3398,
  "ä»ĺ": 3399,
  "ape": 3400,
  "Åĳ": 3401,
  "à¤¯": 3402,
  "less": 3403,
  "oss": 3404,
  "Ġë": 3405,
  "èĹ": 3406,
  "æĻĤ": 3407,
  "Ġaz": 3408,
  "ĠÎµ": 3409,
  "ÐµÐ´": 3410,
  "Ġsal": 3411,
  "Ä±n": 3412,
  "ences": 3413,
  "à¨¿": 3414,
  "ateg": 3415,
  "ivid": 3416,
  "åŁºç¡Ģ": 3417,
  "å¾ģ": 3418,
  "wh": 3419,
  "áĪį": 3420,
  "Ġask": 3421,
  "é¢Ŀ": 3422,
  "ç¦ı": 3423,
  "Ġtop": 3424,
  "Ġplace": 3425,
  "Ð°Ð³": 3426,
  "ç£": 3427,
  "stand": 3428,
  "è¡¥": 3429,
  "Ġur": 3430,
  "à½Ķ": 3431,
  "Ġà¤ķà¥ĩ": 3432,
  "éħ¸": 3433,
  "à´¿": 3434,
  "LE": 3435,
  "Ġold": 3436,
  "çªģ": 3437,
  "æ½": 3438,
  "ething": 3439,
  "circled": 3440,
  "ĠÏĥ": 3441,
  "Par": 3442,
  "Ġcommun": 3443,
  "åħŃ": 3444,
  "Ġerror": 3445,
  "å®¡": 3446,
  "áĢ®": 3447,
  "çł´": 3448,
  "sc": 3449,
  "çĶ¨æĪ·": 3450,
  "Î³": 3451,
  "Ġturn": 3452,
  "aki": 3453,
  "textcircled": 3454,
  "aving": 3455,
  "ope": 3456,
  "ability": 3457,
  "Ġstring": 3458,
  "Ġfew": 3459,
  "ĠRe": 3460,
  "lu": 3461,
  "ÎŃ": 3462,
  "Ð½Ð¾": 3463,
  "Ġut": 3464,
  "Ġpred": 3465,
  "Ġmus": 3466,
  "è´§": 3467,
  "é¦Ļ": 3468,
  ".f": 3469,
  "çĶ»": 3470,
  "play": 3471,
  "äºĨä¸Ģ": 3472,
  "Ġprot": 3473,
  "thing": 3474,
  "Ġiha": 3475,
  "bs": 3476,
  "Ġki": 3477,
  "ender": 3478,
  "ister": 3479,
  "(&": 3480,
  "lig": 3481,
  "åºĶçĶ¨": 3482,
  "å¾ħ": 3483,
  "Ġwater": 3484,
  "Ġvol": 3485,
  "Ġnext": 3486,
  "Ġdoc": 3487,
  "é¼": 3488,
  "Ġsoc": 3489,
  "ç»ĵæŀľ": 3490,
  "Ġref": 3491,
  "åĲ§": 3492,
  "ä¸ªäºº": 3493,
  "åħ´": 3494,
  "áĢ²": 3495,
  "ĠÃł": 3496,
  "Ġwithout": 3497,
  "Ġbusiness": 3498,
  "Ġweek": 3499,
  "ç»ľ": 3500,
  "Ġtu": 3501,
  "ral": 3502,
  "ently": 3503,
  "æłĩåĩĨ": 3504,
  "ump": 3505,
  "ÑĸÐ½": 3506,
  "Ġny": 3507,
  "å±ħ": 3508,
  "mit": 3509,
  "right": 3510,
  ".A": 3511,
  "æĪĳçļĦ": 3512,
  "Ġ*/": 3513,
  "åĽº": 3514,
  "é¸": 3515,
  "çŁ¥è¯Ĩ": 3516,
  "ax": 3517,
  "Ġ×ŀ": 3518,
  "Ġstate": 3519,
  "áī¥": 3520,
  "Ð°Ñħ": 3521,
  "rite": 3522,
  "áŀ·": 3523,
  "æľĥ": 3524,
  "ission": 3525,
  "Ġmight": 3526,
  "æĹı": 3527,
  "Ġstruct": 3528,
  "ä¹ĭéĹ´": 3529,
  "Ġfeel": 3530,
  "åıĳçİ°": 3531,
  "Ġcond": 3532,
  "Âł": 3533,
  "äººæ°ĳ": 3534,
  "âĢ¯": 3535,
  "ami": 3536,
  "tig": 3537,
  "ĠáĬ¥": 3538,
  "Ġreport": 3539,
  "iter": 3540,
  "Ġdu": 3541,
  "yt": 3542,
  "åİ¿": 3543,
  "Ġlittle": 3544,
  "çĹĩ": 3545,
  "odel": 3546,
  "orn": 3547,
  "Ġide": 3548,
  "ĠĠĠĠĠĠĠĠĠĠĠĠĠĠĠĠĠĠĠĠĠĠĠĠĠĠĠ": 3549,
  "itions": 3550,
  "çĵ": 3551,
  "Ġtot": 3552,
  "æįŁ": 3553,
  "à¤¦": 3554,
  "ÙĪÙĦ": 3555,
  "Ġstudy": 3556,
  "vir": 3557,
  "çĩ": 3558,
  "Ġfn": 3559,
  "times": 3560,
  "Ġhapp": 3561,
  "unk": 3562,
  "æ³¢": 3563,
  "è½¯": 3564,
  "He": 3565,
  "uccess": 3566,
  "æĶ¿åºľ": 3567,
  "äºĳ": 3568,
  "ett": 3569,
  "è¿Ļä¸Ģ": 3570,
  "[i": 3571,
  "éŃ": 3572,
  "ished": 3573,
  "Ġlim": 3574,
  "å¦Ĥä½ķ": 3575,
  "ense": 3576,
  "á±": 3577,
  "uth": 3578,
  "ĠØ®": 3579,
  "à®¾": 3580,
  "ĠÑĩ": 3581,
  "Get": 3582,
  "ris": 3583,
  "å·¦": 3584,
  "ä»¤": 3585,
  "æ²³": 3586,
  "Ġcome": 3587,
  "æ³¨æĦı": 3588,
  "è®¾å¤ĩ": 3589,
  "è¯į": 3590,
  "è§Ħå®ļ": 3591,
  "(s": 3592,
  "Ġplan": 3593,
  "Ġprint": 3594,
  "Ġbas": 3595,
  "\">": 3596,
  "-f": 3597,
  "An": 3598,
  "à¸ĩ": 3599,
  "omen": 3600,
  "isi": 3601,
  "æĿ¥çļĦ": 3602,
  "ling": 3603,
  "áĢĦáĢ¹": 3604,
  "é»ĳ": 3605,
  "Ã¡l": 3606,
  "à¤Ĺ": 3607,
  "éĩĩçĶ¨": 3608,
  "×ĵ": 3609,
  "ĠÙģ": 3610,
  "inc": 3611,
  "èµĦæºĲ": 3612,
  "å¿ħé¡»": 3613,
  "IT": 3614,
  "tra": 3615,
  "load": 3616,
  "æĬĹ": 3617,
  "rop": 3618,
  "Î±Î¹": 3619,
  "AS": 3620,
  "åŃ¦æł¡": 3621,
  "Ġcal": 3622,
  "ç¬¬äºĮ": 3623,
  "acter": 3624,
  "èĭ¥": 3625,
  "Ġimportant": 3626,
  "Ø¦": 3627,
  "emp": 3628,
  "Ġsw": 3629,
  "Ã¡n": 3630,
  "é¢ĳ": 3631,
  "èĦĳ": 3632,
  "Ġhum": 3633,
  "Ġà¤ľ": 3634,
  "Ġadv": 3635,
  "search": 3636,
  "æĿĲæĸĻ": 3637,
  "à²°": 3638,
  "Ġexpl": 3639,
  "This": 3640,
  "çĤº": 3641,
  "çŁŃ": 3642,
  "Ġlocal": 3643,
  "à½¦à¾": 3644,
  "mp": 3645,
  "ĠCl": 3646,
  "(c": 3647,
  "Ġreally": 3648,
  "Ø§Ø¯": 3649,
  "Ġproper": 3650,
  "ĠÙĩ": 3651,
  "Ģà¸": 3652,
  "æī§": 3653,
  "ç¼º": 3654,
  "ulation": 3655,
  "åĿļ": 3656,
  "áŀĽ": 3657,
  "ä¸´": 3658,
  "áĪµ": 3659,
  "di": 3660,
  "ception": 3661,
  "Ġfield": 3662,
  "sim": 3663,
  "æĭħ": 3664,
  "Ġ%": 3665,
  "Ġeffect": 3666,
  "ml": 3667,
  "èĢĮä¸Ķ": 3668,
  "ĠâĢĶ": 3669,
  "åħ¶ä¸Ń": 3670,
  "Ġprogram": 3671,
  "ä¼¼": 3672,
  "mat": 3673,
  "Ġà¤¨": 3674,
  "åĿĹ": 3675,
  "Ġsomething": 3676,
  "Ġeas": 3677,
  "ident": 3678,
  "rt": 3679,
  "éĢĻ": 3680,
  "alk": 3681,
  "eri": 3682,
  "You": 3683,
  "ä¸ºäºĨ": 3684,
  "lan": 3685,
  "ç¶": 3686,
  "Ġanother": 3687,
  "á»¥": 3688,
  "ativ": 3689,
  "Ġ×©": 3690,
  "áĢ¶": 3691,
  "ä¸Ńå¿ĥ": 3692,
  "Ġfalse": 3693,
  "à®¾à®": 3694,
  "ination": 3695,
  "è®¡ç®Ĺ": 3696,
  "ervice": 3697,
  "ĠÑħ": 3698,
  "back": 3699,
  "Ġbar": 3700,
  "à¥Ĥ": 3701,
  "è³": 3702,
  "çĽ´æİ¥": 3703,
  "à²¦": 3704,
  "å¸Į": 3705,
  "Ġdri": 3706,
  "Ġspe": 3707,
  "æĤ£èĢħ": 3708,
  "àºĩàº": 3709,
  "ÖĦ": 3710,
  "×ķ×ª": 3711,
  "Ġhar": 3712,
  "Ġpor": 3713,
  "×Ĺ": 3714,
  "æŁĵ": 3715,
  "Ġques": 3716,
  "áŀı": 3717,
  "ĠÒ": 3718,
  "æĿ¡ä»¶": 3719,
  "not": 3720,
  "Ġbook": 3721,
  "Ġpur": 3722,
  "una": 3723,
  "Ġgroup": 3724,
  "éł": 3725,
  "ÙĨØ¯": 3726,
  "Ġhealth": 3727,
  "Ġresults": 3728,
  "Å«": 3729,
  "å¯Ł": 3730,
  "áĭŃ": 3731,
  "ately": 3732,
  "åħ«": 3733,
  "Ġdirect": 3734,
  "oot": 3735,
  "æĿİ": 3736,
  "åĬ³": 3737,
  "\";": 3738,
  "Ġprivate": 3739,
  "ĠOn": 3740,
  "Ġdal": 3741,
  "Ġgrow": 3742,
  "çļĦæĹ¶åĢĻ": 3743,
  "é¤": 3744,
  "Ġarg": 3745,
  "âĢĺ": 3746,
  "lection": 3747,
  "Ġdat": 3748,
  "(t": 3749,
  "åįĥ": 3750,
  "å®ĮæĪĲ": 3751,
  "Ġstd": 3752,
  "æī¹": 3753,
  "Ġuser": 3754,
  "date": 3755,
  "ç¨³": 3756,
  "ffer": 3757,
  "é²": 3758,
  "ä¸¾": 3759,
  "áĥĿáĥ": 3760,
  "elt": 3761,
  "Ġkey": 3762,
  "à¬¾": 3763,
  "://": 3764,
  "å¢ŀåĬł": 3765,
  "Õ¥ÖĢ": 3766,
  "åĪ©çĶ¨": 3767,
  "ĠÄĳ": 3768,
  "Ġnever": 3769,
  "arge": 3770,
  "ç´¢": 3771,
  "Ġgot": 3772,
  "itor": 3773,
  "è®¤ä¸º": 3774,
  "ĠpÃ¥": 3775,
  "åı³": 3776,
  "ĠÅ¾": 3777,
  "åºĶè¯¥": 3778,
  "àŃį": 3779,
  "Ġcho": 3780,
  "Ġsv": 3781,
  ".P": 3782,
  "AC": 3783,
  "ume": 3784,
  "âĢĿï¼Į": 3785,
  "Ġleg": 3786,
  "Ġmil": 3787,
  "à¨°": 3788,
  "-t": 3789,
  "ĠString": 3790,
  ".C": 3791,
  "Ã±": 3792,
  "yd": 3793,
  "Ã¡s": 3794,
  "aya": 3795,
  "äº§çĶŁ": 3796,
  "éĤ£ä¹Ī": 3797,
  "æĩ": 3798,
  "à²¨": 3799,
  "é¾Ļ": 3800,
  "ĠAll": 3801,
  "àµģ": 3802,
  "ÛĪ": 3803,
  "åı¥": 3804,
  "åĪ»": 3805,
  "Ð¸ÑĢ": 3806,
  "Ġà»": 3807,
  "ĠTo": 3808,
  "-l": 3809,
  "ĠÐ°": 3810,
  "è¯ī": 3811,
  "è¿ĺæľī": 3812,
  "Ġwithin": 3813,
  "err": 3814,
  "ç½ĳç»ľ": 3815,
  "äºļ": 3816,
  "åº§": 3817,
  "ailable": 3818,
  "ãĢĮ": 3819,
  "ete": 3820,
  "èĴ": 3821,
  "åįķä½į": 3822,
  "Ġhan": 3823,
  "å½¢æĪĲ": 3824,
  "á»ĭ": 3825,
  "++": 3826,
  "èĻ½": 3827,
  "à·ı": 3828,
  "Ġye": 3829,
  "å°Ħ": 3830,
  "Ð½Ñĭ": 3831,
  "Ġbro": 3832,
  "Ġkeep": 3833,
  "aterial": 3834,
  "jo": 3835,
  "(f": 3836,
  "itive": 3837,
  "áĢ¡": 3838,
  "ĠFr": 3839,
  "ç¥¨": 3840,
  "ãĢį": 3841,
  "éļľ": 3842,
  "ression": 3843,
  "ĠÙĥ": 3844,
  "ÚŃ": 3845,
  "Î®": 3846,
  "æĹħ": 3847,
  "Ġthings": 3848,
  "Ġfile": 3849,
  "ãģ«": 3850,
  "éĿ©": 3851,
  "));": 3852,
  "è§£åĨ³": 3853,
  "å¦Ī": 3854,
  "Ġho": 3855,
  "ww": 3856,
  "à¶º": 3857,
  "erc": 3858,
  "Ġpower": 3859,
  "æľīæķĪ": 3860,
  "Ġrece": 3861,
  "Ġeng": 3862,
  "ÑĭÑĢ": 3863,
  "lease": 3864,
  "æľ¨": 3865,
  "Ġrest": 3866,
  "Ġlot": 3867,
  "Ġocc": 3868,
  "Ġpal": 3869,
  "ĠÙĬ": 3870,
  "Ġjo": 3871,
  "ç´§": 3872,
  "äº«": 3873,
  "áŁĨ": 3874,
  "ET": 3875,
  "Ġbuild": 3876,
  "uz": 3877,
  "net": 3878,
  "à¦°": 3879,
  "ager": 3880,
  "uka": 3881,
  "Ġsize": 3882,
  "Ġbetter": 3883,
  "àºļ": 3884,
  "Ġconn": 3885,
  "fter": 3886,
  "Ġleft": 3887,
  "åģĩ": 3888,
  "æĺ¥": 3889,
  "åį°": 3890,
  "Ġmut": 3891,
  "Ð¸Ð²": 3892,
  "æľĭ": 3893,
  "ä¸įä¼ļ": 3894,
  "äºĨè§£": 3895,
  "Ġgre": 3896,
  "æ°´å¹³": 3897,
  "ware": 3898,
  "ãĢĤ\"": 3899,
  "-p": 3900,
  "éĺ¶": 3901,
  "Ġlik": 3902,
  "Ġbreak": 3903,
  "imo": 3904,
  "à±į": 3905,
  "Ġsum": 3906,
  "ually": 3907,
  "Ġliv": 3908,
  "Ġchang": 3909,
  "è¡Įä¸º": 3910,
  "(d": 3911,
  "ĠInd": 3912,
  "çłģ": 3913,
  "ç¬ĳ": 3914,
  ".h": 3915,
  "è¡Įä¸ļ": 3916,
  "ç»§": 3917,
  "Ġalways": 3918,
  "Ġaff": 3919,
  "æ¸¸æĪı": 3920,
  "Ġless": 3921,
  "Ġdidn": 3922,
  "class": 3923,
  "eli": 3924,
  "çĹĽ": 3925,
  "è©": 3926,
  "Ð°Ð±": 3927,
  "Ġik": 3928,
  "ĠÌ£": 3929,
  "iment": 3930,
  "gi": 3931,
  "Ġtre": 3932,
  "clude": 3933,
  "Ġwrit": 3934,
  "ertain": 3935,
  "è¿Ļæĺ¯": 3936,
  "Ob": 3937,
  "éĶ®": 3938,
  "áŁģ": 3939,
  "olo": 3940,
  "åĨ·": 3941,
  "Ġprom": 3942,
  "value": 3943,
  "Ġfree": 3944,
  "áĢļ": 3945,
  "AM": 3946,
  "inter": 3947,
  "avi": 3948,
  "Ġdev": 3949,
  "è¡¨ç¤º": 3950,
  "Ġpay": 3951,
  "ä½Ļ": 3952,
  "çĽ®åīį": 3953,
  "aran": 3954,
  "Ð¾Ñģ": 3955,
  "Ġcontrol": 3956,
  "Õ¿": 3957,
  "View": 3958,
  "oma": 3959,
  "Ġinterest": 3960,
  "çº³": 3961,
  "Ġkuti": 3962,
  "åįł": 3963,
  "olor": 3964,
  "(self": 3965,
  "Ġfri": 3966,
  "ç¨İ": 3967,
  "Ġvoid": 3968,
  "Ġà¤¤": 3969,
  "æ¯Ĵ": 3970,
  "Ñİ": 3971,
  "ration": 3972,
  "As": 3973,
  "å®ŀéĻħ": 3974,
  "];": 3975,
  "Ġbody": 3976,
  "vious": 3977,
  "usi": 3978,
  "ĠØ¹": 3979,
  "try": 3980,
  "Ġmeas": 3981,
  "áŀ»": 3982,
  "(m": 3983,
  "Ð°ÑĪ": 3984,
  "IC": 3985,
  "tract": 3986,
  "ä¾Ĩ": 3987,
  "Ġtreat": 3988,
  "Ġmor": 3989,
  "ä¸įæĸŃ": 3990,
  "Ġmaj": 3991,
  "ä½łçļĦ": 3992,
  "atu": 3993,
  "å¤§åŃ¦": 3994,
  "à°¿": 3995,
  "key": 3996,
  ".D": 3997,
  "çĽĺ": 3998,
  "Im": 3999,
  "çĶ³": 4000,
  "Ġpi": 4001,
  "print": 4002,
  "Ġnj": 4003,
  "awa": 4004,
  "____": 4005,
  "ĠØ¢": 4006,
  "bers": 4007,
  "Ġà¤°": 4008,
  "idth": 4009,
  "æĵįä½ľ": 4010,
  "Ġappe": 4011,
  "AP": 4012,
  "Ġsever": 4013,
  "à²µ": 4014,
  "Al": 4015,
  "Õ¡Õ¯": 4016,
  "Ġthought": 4017,
  "ĠPar": 4018,
  "èµ·æĿ¥": 4019,
  "à·Ģ": 4020,
  "IS": 4021,
  "Ġcost": 4022,
  "But": 4023,
  "Ġà¤¦": 4024,
  "ised": 4025,
  "Ġhard": 4026,
  "ola": 4027,
  "çĽ®æłĩ": 4028,
  "Õ«Õ¶": 4029,
  "æĢ¥": 4030,
  "çºª": 4031,
  "Ġge": 4032,
  "By": 4033,
  "áĢ«": 4034,
  "æĶ¯æĮģ": 4035,
  "áĭį": 4036,
  "Un": 4037,
  "áŁĴáŀļáŀ": 4038,
  "Ġmov": 4039,
  "Ġview": 4040,
  "ìĹ": 4041,
  "Ġà¤µ": 4042,
  "åģ¥åº·": 4043,
  "Ġrange": 4044,
  "æľĭåıĭ": 4045,
  "è°¢": 4046,
  "Õ¨": 4047,
  "åĪ¤": 4048,
  "For": 4049,
  "Úº": 4050,
  ".t": 4051,
  "Ã¤n": 4052,
  "tif": 4053,
  "æĴŃ": 4054,
  "åĲĦç§į": 4055,
  "Ġsince": 4056,
  "èĥĮ": 4057,
  "gen": 4058,
  "Ġaddition": 4059,
  "Ġ?": 4060,
  "Ïĩ": 4061,
  "zj": 4062,
  "atan": 4063,
  "rix": 4064,
  "çĶ²": 4065,
  "å¤«": 4066,
  "èĩªçĦ¶": 4067,
  "\":": 4068,
  "Ġcheck": 4069,
  "********": 4070,
  "struc": 4071,
  "ĠEuro": 4072,
  "áłİ": 4073,
  "ç»Ŀ": 4074,
  "Ġnet": 4075,
  "à´¿à´": 4076,
  "Ġlight": 4077,
  "æķĪæŀľ": 4078,
  "à¸±": 4079,
  "Ġaway": 4080,
  "Ġener": 4081,
  "åºĬ": 4082,
  "éľĢæ±Ĥ": 4083,
  "Ġwon": 4084,
  "Ġcustom": 4085,
  "Ġsignific": 4086,
  "àª¤": 4087,
  "Ġsure": 4088,
  "tice": 4089,
  "çĦ¶åĲİ": 4090,
  "Ð´Ð°": 4091,
  "Ġcoun": 4092,
  "áĢ¬áĢ¸áĢ": 4093,
  "ado": 4094,
  "yle": 4095,
  "áĢ°": 4096,
  "åģľ": 4097,
  "ĠÐ½Ðµ": 4098,
  "Ġmom": 4099,
  "åį«": 4100,
  "ç»ĥ": 4101,
  "âĢ¦âĢ¦": 4102,
  "ured": 4103,
  "{\\": 4104,
  "Ġkas": 4105,
  "Ġà·": 4106,
  "Ġbal": 4107,
  "ç§ĳåŃ¦": 4108,
  "Ġtyp": 4109,
  "());": 4110,
  "aba": 4111,
  "())": 4112,
  "ĠÐ´Ð°": 4113,
  "Ġgiven": 4114,
  "Ġing": 4115,
  "ron": 4116,
  "Ġmonth": 4117,
  "used": 4118,
  "åīĤ": 4119,
  "æ´Ĺ": 4120,
  "ä»ĸçļĦ": 4121,
  "Ġpan": 4122,
  "ãģŁ": 4123,
  "Ġagainst": 4124,
  "éĥ¨éĹ¨": 4125,
  "æłĳ": 4126,
  "Ġconf": 4127,
  "ĠAmer": 4128,
  "å½©": 4129,
  "à¬°": 4130,
  "co": 4131,
  "ìĿ´": 4132,
  "Text": 4133,
  "Ġà¤Ĩ": 4134,
  "èĸ": 4135,
  "ä¿ĥ": 4136,
  "une": 4137,
  "akan": 4138,
  "Ġchange": 4139,
  "aps": 4140,
  "On": 4141,
  "No": 4142,
  "Õ¡Õµ": 4143,
  "ä¸¤ä¸ª": 4144,
  "Ġoffer": 4145,
  "iver": 4146,
  "ched": 4147,
  "zy": 4148,
  "æĻļ": 4149,
  "rel": 4150,
  "Ġmean": 4151,
  "æĽ²": 4152,
  "comm": 4153,
  "ä»·æł¼": 4154,
  "æĦ¿": 4155,
  "Ġáł¬": 4156,
  "åŁİå¸Ĥ": 4157,
  "ÉĻr": 4158,
  "ably": 4159,
  "éĴĪ": 4160,
  "Ġnull": 4161,
  "Ã£o": 4162,
  "à±ģ": 4163,
  "ux": 4164,
  "ĠSystem": 4165,
  "Ġpath": 4166,
  "resent": 4167,
  "kl": 4168,
  "èĤī": 4169,
  "ayer": 4170,
  "mm": 4171,
  "æĺ¯åĲ¦": 4172,
  "itle": 4173,
  "nu": 4174,
  "æ¡£": 4175,
  "Ġtechn": 4176,
  "ĠAd": 4177,
  "à¦¨": 4178,
  "ĠNo": 4179,
  "Ġpap": 4180,
  "Ġ},": 4181,
  "Ġug": 4182,
  "wer": 4183,
  "const": 4184,
  "åķĬ": 4185,
  "ude": 4186,
  "ç¬¦": 4187,
  "ids": 4188,
  "Ġincluding": 4189,
  "iku": 4190,
  "ç²ī": 4191,
  "æ¦Ĥ": 4192,
  "ips": 4193,
  "\"\"": 4194,
  "åĨ²": 4195,
  "éģ¿": 4196,
  "Ġhist": 4197,
  "áĢºáĢ¸": 4198,
  "Ġfac": 4199,
  "ä¸įè¦ģ": 4200,
  "uta": 4201,
  "åıĺåĮĸ": 4202,
  "$\\": 4203,
  "å¥Ĺ": 4204,
  "é£ŀ": 4205,
  "ĠOr": 4206,
  "ĠÃ©": 4207,
  "æ±½": 4208,
  "Ġevent": 4209,
  "à¸²à¸": 4210,
  "èĥŀ": 4211,
  "ken": 4212,
  "pan": 4213,
  "Ġrequire": 4214,
  "æĭĽ": 4215,
  "Ġroom": 4216,
  "Ġtext": 4217,
  "////": 4218,
  "Ġproject": 4219,
  "ysis": 4220,
  "æľºæŀĦ": 4221,
  "jen": 4222,
  "Ð°ÑĤÐ°": 4223,
  "èİ·å¾Ĺ": 4224,
  "éĻĦ": 4225,
  "Ġstep": 4226,
  "ä»»ä½ķ": 4227,
  "plication": 4228,
  "ÑĥÐ»": 4229,
  "ä¸ĥ": 4230,
  "åŃ£": 4231,
  "ç²¾ç¥ŀ": 4232,
  "à±įà°": 4233,
  "Ġavailable": 4234,
  "çĪ¶": 4235,
  "ĠMar": 4236,
  "Ġfamily": 4237,
  "æħ¢": 4238,
  "æİ¢": 4239,
  "Ġiss": 4240,
  "åĽ½éĻħ": 4241,
  "Ġindivid": 4242,
  "å²ģ": 4243,
  "yes": 4244,
  "anga": 4245,
  "æ©": 4246,
  "ĠGod": 4247,
  "Ġresearch": 4248,
  "Bu": 4249,
  "ouble": 4250,
  "æŃ¦": 4251,
  "Ġschool": 4252,
  "à¸Ń": 4253,
  "å·´": 4254,
  "å¾ĹåĪ°": 4255,
  "Ġà¤²": 4256,
  "ito": 4257,
  "æ£ĢæŁ¥": 4258,
  "å¥ĩ": 4259,
  "Ġmill": 4260,
  "esu": 4261,
  "ä¹ĭåĲİ": 4262,
  "Ġpas": 4263,
  "áĢĢáĢºáĢ": 4264,
  "èıľ": 4265,
  "æĸ°çļĦ": 4266,
  "Value": 4267,
  "ples": 4268,
  "Ġek": 4269,
  "åľ°æĸ¹": 4270,
  "æĽ¾": 4271,
  "Ð¾Ð±": 4272,
  "ä¸ĢæŃ¥": 4273,
  "pha": 4274,
  "ĠÑĪ": 4275,
  "æķĻå¸Ī": 4276,
  "çģµ": 4277,
  "åĪ¶åº¦": 4278,
  "Ġwhe": 4279,
  "Ġgen": 4280,
  "×§": 4281,
  "Ġbig": 4282,
  "åįļ": 4283,
  "ĠnÃ«": 4284,
  "zen": 4285,
  "RO": 4286,
  "Ġlove": 4287,
  "à°¾": 4288,
  "åıªæľī": 4289,
  "Ġhig": 4290,
  "Ð°ÑĨ": 4291,
  "htt": 4292,
  "Ġoch": 4293,
  "user": 4294,
  "Öī": 4295,
  "Ġtan": 4296,
  "ref": 4297,
  "æĺ¯ä¸Ģ": 4298,
  "ĠÉĸ": 4299,
  "å¹³åı°": 4300,
  "ring": 4301,
  "pect": 4302,
  "à¥Ī": 4303,
  "ãģĦ": 4304,
  "Ġfollowing": 4305,
  "ĠAt": 4306,
  "Ġfre": 4307,
  "ä¿ĿæĬ¤": 4308,
  "å»ºç«ĭ": 4309,
  "æķ£": 4310,
  "iko": 4311,
  "àº°àº": 4312,
  "éģĩ": 4313,
  "ä¹ħ": 4314,
  "àª®": 4315,
  "utes": 4316,
  "åĲĪä½ľ": 4317,
  "ç»¼": 4318,
  "Ġpub": 4319,
  "div": 4320,
  "éĵģ": 4321,
  "ances": 4322,
  "Ġfar": 4323,
  "Ġpatients": 4324,
  "Ġ$(": 4325,
  "And": 4326,
  "é½": 4327,
  "Ġrequest": 4328,
  "ending": 4329,
  "If": 4330,
  "åºĵ": 4331,
  "ped": 4332,
  "è¿ĲåĬ¨": 4333,
  "Ġcount": 4334,
  "Ġservice": 4335,
  "Ġgive": 4336,
  "Ð°Ð¿": 4337,
  "Ġlow": 4338,
  "Ġside": 4339,
  "AD": 4340,
  "ç«ŀ": 4341,
  "çĶļ": 4342,
  "Ġfull": 4343,
  "Ġnec": 4344,
  "à§°": 4345,
  "Ġcreate": 4346,
  "II": 4347,
  "\".": 4348,
  "num": 4349,
  "Ġair": 4350,
  "versity": 4351,
  "Â·": 4352,
  "Ä¡": 4353,
  "Ġ&&": 4354,
  "ically": 4355,
  "ites": 4356,
  "ä»·åĢ¼": 4357,
  "ĠSo": 4358,
  "èįī": 4359,
  "ader": 4360,
  "ĠĠĠĠĠĠĠĠĠĠĠĠĠĠĠĠĠĠĠĠĠĠĠĠĠĠĠĠĠĠĠĠ": 4361,
  "Ġul": 4362,
  "ĠÑģÐµ": 4363,
  "Ð¸Ð¹": 4364,
  "åĪļ": 4365,
  "åİŁåĽł": 4366,
  "ä»£è¡¨": 4367,
  "cul": 4368,
  "åı¶": 4369,
  "æ¨¡å¼ı": 4370,
  "à·Ķ": 4371,
  "anda": 4372,
  "ours": 4373,
  "Ġsuccess": 4374,
  "ä¸»ä¹ī": 4375,
  "éĢĢ": 4376,
  ".M": 4377,
  "cle": 4378,
  "ots": 4379,
  "adu": 4380,
  "Ġvers": 4381,
  "æĸĩä»¶": 4382,
  "aring": 4383,
  "æĢ§çļĦ": 4384,
  "ä¸ļåĬ¡": 4385,
  "CT": 4386,
  "ĠÂ«": 4387,
  "viron": 4388,
  "Ġmarket": 4389,
  "urther": 4390,
  "Ê¼": 4391,
  "word": 4392,
  "è¡¨çİ°": 4393,
  "ios": 4394,
  "âĢĵ": 4395,
  "Ġmax": 4396,
  "Ġkind": 4397,
  "åħ·ä½ĵ": 4398,
  "ĠUni": 4399,
  "ä»¥ä¸Ĭ": 4400,
  "åı«": 4401,
  "å®£": 4402,
  "âĢĶâĢĶ": 4403,
  "éĺ¿": 4404,
  "è®¡åĪĴ": 4405,
  "Ð¾Ðº": 4406,
  "Ġsy": 4407,
  "å¯¼èĩ´": 4408,
  "Ġnorm": 4409,
  "à«ģ": 4410,
  "æľīåħ³": 4411,
  "ãģĹ": 4412,
  "iod": 4413,
  "ective": 4414,
  "Ïį": 4415,
  "point": 4416,
  "Ġlaw": 4417,
  "ĠÕ°": 4418,
  "])": 4419,
  "Ð¸ÑĤÐµ": 4420,
  "Ġgame": 4421,
  "include": 4422,
  "][": 4423,
  "éĿĻ": 4424,
  "Ġprim": 4425,
  "Ġprac": 4426,
  "Ġlarge": 4427,
  "Ġflo": 4428,
  "è´£ä»»": 4429,
  "Request": 4430,
  "èĻĳ": 4431,
  "Ġarea": 4432,
  "ëĭ¤": 4433,
  "áģĭ": 4434,
  "äº¿": 4435,
  "ining": 4436,
  "Ġinf": 4437,
  "å¸ĮæľĽ": 4438,
  "ç½Ĺ": 4439,
  "Ġimpro": 4440,
  "åİĤ": 4441,
  "é¡º": 4442,
  "ãĤĭ": 4443,
  "å¼Ģåıĳ": 4444,
  "Ġbit": 4445,
  "ĠWh": 4446,
  "inn": 4447,
  "Ġá»į": 4448,
  "å¸®åĬ©": 4449,
  "UR": 4450,
  "ĠÃ¥": 4451,
  "à¤¾à¤¨": 4452,
  "Ġdays": 4453,
  ".g": 4454,
  "mt": 4455,
  "éĿł": 4456,
  "ply": 4457,
  "èģļ": 4458,
  "çĤİ": 4459,
  "from": 4460,
  "order": 4461,
  "ä¹Ŀ": 4462,
  "éª¨": 4463,
  "Ġbased": 4464,
  "Ġexample": 4465,
  "ĠÚ¯": 4466,
  "Ġable": 4467,
  "äº§ä¸ļ": 4468,
  "Ġtw": 4469,
  "-k": 4470,
  "Ġsira": 4471,
  "èĵ": 4472,
  "ĠÒĽ": 4473,
  "ither": 4474,
  "å©ļ": 4475,
  "ards": 4476,
  "Ġvir": 4477,
  "æĿ¾": 4478,
  "lev": 4479,
  "Ġnu": 4480,
  "×Ľ": 4481,
  "Ġpossible": 4482,
  "ĠØ¯Ø±": 4483,
  "ä¸Ģèµ·": 4484,
  "à¯įà®ķ": 4485,
  "Î¹Îº": 4486,
  "à¼į": 4487,
  "à¤¬": 4488,
  "Ġland": 4489,
  "áŀ¶áŀĵ": 4490,
  "men": 4491,
  "ä¸°": 4492,
  "èĢģå¸Ī": 4493,
  "ĺÐµ": 4494,
  "æ³ķå¾ĭ": 4495,
  "åºŃ": 4496,
  "æĿĤ": 4497,
  "Ġallow": 4498,
  "Ġdom": 4499,
  "è¿½": 4500,
  "Ġdeterm": 4501,
  "ÑĥÑĢ": 4502,
  "áĪĪ": 4503,
  "Ġexperience": 4504,
  "æŀ¶": 4505,
  "Ġsz": 4506,
  "ieve": 4507,
  "ĠfÃ¶r": 4508,
  "ii": 4509,
  "çĶ¨äºİ": 4510,
  "itial": 4511,
  "æľīéĻĲ": 4512,
  "ÐĲ": 4513,
  "Ġnam": 4514,
  "ready": 4515,
  "Ġteam": 4516,
  "Õ«Õ": 4517,
  "Ġai": 4518,
  "àªĤ": 4519,
  "ctr": 4520,
  "Ġáį": 4521,
  "ä¸Ģæł·": 4522,
  "ĠÎ¼": 4523,
  "ych": 4524,
  "åĵģçīĮ": 4525,
  "Ġunderstand": 4526,
  "Ġáłª": 4527,
  "osp": 4528,
  "çŃĳ": 4529,
  "Â»": 4530,
  "å®¢æĪ·": 4531,
  "){": 4532,
  "ç¾İåĽ½": 4533,
  "Ġmind": 4534,
  "¹£": 4535,
  "ĠBe": 4536,
  "ĠPr": 4537,
  "Ġsignificant": 4538,
  "Ã«s": 4539,
  "çĺ": 4540,
  "æĪĳåĽ½": 4541,
  "à¬¿": 4542,
  "ED": 4543,
  "####": 4544,
  "æ¤į": 4545,
  "Äĭ": 4546,
  "ording": 4547,
  "ides": 4548,
  "aph": 4549,
  "áŀĳ": 4550,
  "iga": 4551,
  "çĻ»": 4552,
  "Ġprovide": 4553,
  "çĲĨè®º": 4554,
  "Ġobs": 4555,
  "oz": 4556,
  "Ġans": 4557,
  "ĠÕ´": 4558,
  "ÛķØ±": 4559,
  "Ġfour": 4560,
  "Ġaccess": 4561,
  "Î¸": 4562,
  "ĠPl": 4563,
  "åľ°åĮº": 4564,
  "ury": 4565,
  "è¯¯": 4566,
  "ilar": 4567,
  "Ġmove": 4568,
  "Ġnat": 4569,
  "ä¹¡": 4570,
  "ä»¥ä¸ĭ": 4571,
  "oud": 4572,
  ".st": 4573,
  "Ġund": 4574,
  "alo": 4575,
  "bar": 4576,
  "tical": 4577,
  "entif": 4578,
  "Ġ</": 4579,
  "Ġart": 4580,
  "ails": 4581,
  "éķĩ": 4582,
  "Ġ×ķ": 4583,
  "æıĲåĩº": 4584,
  "åī§": 4585,
  "angu": 4586,
  "áŀļáŀ": 4587,
  "iting": 4588,
  "åª": 4589,
  "èĽĭ": 4590,
  "umi": 4591,
  "à®°": 4592,
  "Ġuntil": 4593,
  "ä¸Ģæ¬¡": 4594,
  "Ġresponse": 4595,
  "ĠÃ¼": 4596,
  "ĠHowever": 4597,
  "outh": 4598,
  "ori": 4599,
  "æĪĲåĬŁ": 4600,
  "ference": 4601,
  "unt": 4602,
  "æĭ¿": 4603,
  "åī¯": 4604,
  "Ð¸Ñģ": 4605,
  "ç»ıèĲ¥": 4606,
  "ä¹İ": 4607,
  "Ġstat": 4608,
  "æĹ¢": 4609,
  "ä¸įä»ħ": 4610,
  "Ġinte": 4611,
  "àª¿": 4612,
  "×¤": 4613,
  "è¿ĩç¨ĭä¸Ń": 4614,
  "ç»Ĩèĥŀ": 4615,
  "ived": 4616,
  "oney": 4617,
  "ended": 4618,
  "æŃĮ": 4619,
  "Ġspecific": 4620,
  "Ð´Ñĭ": 4621,
  "Ġmaterial": 4622,
  "odi": 4623,
  "à¶»": 4624,
  "Ġfinal": 4625,
  "æ¯Ľ": 4626,
  "ç§ĳæĬĢ": 4627,
  "ØªÙī": 4628,
  "(p": 4629,
  ".F": 4630,
  "uj": 4631,
  "ĠPh": 4632,
  "åĿĲ": 4633,
  "æ¶Īè´¹": 4634,
  "IP": 4635,
  "plo": 4636,
  "ÏĨ": 4637,
  "Õ¸ÖĤÕ´": 4638,
  "log": 4639,
  "ĠWhen": 4640,
  "á»įn": 4641,
  "ç»ĵåĲĪ": 4642,
  "èĻ½çĦ¶": 4643,
  "ÙĪØ¯": 4644,
  "æĽ´å¤ļ": 4645,
  "éĢĲ": 4646,
  "áŀ¾": 4647,
  "à¹Ī": 4648,
  "à¨¿à¨": 4649,
  "Ġsat": 4650,
  "àµģà´": 4651,
  "ĠÐ·Ð°": 4652,
  "çī¹åĪ«": 4653,
  "Î´": 4654,
  "idd": 4655,
  "ese": 4656,
  "Ġindividual": 4657,
  "Sh": 4658,
  "Ġuni": 4659,
  "áŀĻ": 4660,
  "ored": 4661,
  "ĠgÄ§": 4662,
  "Ġpain": 4663,
  "ç§¯æŀģ": 4664,
  "agement": 4665,
  "ÅĻ": 4666,
  "áłłáłŃ": 4667,
  "ĠÐ»": 4668,
  "å®Ī": 4669,
  "ãģ¨": 4670,
  "ãģ¯": 4671,
  "Ġchildren": 4672,
  "éģİ": 4673,
  "åĢŁ": 4674,
  "Ġaccount": 4675,
  "Ġsocial": 4676,
  "Ã³n": 4677,
  "Ġface": 4678,
  "Õ¡ÖĢ": 4679,
  "Ġtell": 4680,
  "ĠÑģÑĤ": 4681,
  "icro": 4682,
  "ĠAm": 4683,
  "Ind": 4684,
  "è¡£": 4685,
  "£áł": 4686,
  "Ð¸Ñħ": 4687,
  "åĸľæ¬¢": 4688,
  "Time": 4689,
  "ĠÃ®": 4690,
  "Ã´": 4691,
  "àº´": 4692,
  "}+": 4693,
  "ird": 4694,
  "ograp": 4695,
  "à§ģ": 4696,
  "å³": 4697,
  "ä¸Ģä¸ĭ": 4698,
  "è¿Ľåħ¥": 4699,
  "Ġson": 4700,
  "æıĲåįĩ": 4701,
  "æĶ¿çŃĸ": 4702,
  "å¤ľ": 4703,
  "ãĤĴ": 4704,
  "èĭı": 4705,
  "åİĨåı²": 4706,
  "¯à¦": 4707,
  "Ġaw": 4708,
  "Ġinput": 4709,
  "æĢĿæĥ³": 4710,
  "but": 4711,
  "Øµ": 4712,
  "ulu": 4713,
  "Ġkoj": 4714,
  "ban": 4715,
  "¶áł¢áł": 4716,
  "uration": 4717,
  "Ġcompany": 4718,
  "áŀ¸": 4719,
  "ĠÏĦÎ·": 4720,
  "åĮ»éĻ¢": 4721,
  "Ġoften": 4722,
  "Ġwind": 4723,
  "çĨŁ": 4724,
  "Ġlab": 4725,
  "ified": 4726,
  "ags": 4727,
  "thers": 4728,
  "à¤ļ": 4729,
  "_st": 4730,
  "ĠSome": 4731,
  "oto": 4732,
  "åħ¸": 4733,
  "èĭ¦": 4734,
  "ries": 4735,
  "æ±ī": 4736,
  "Ġexc": 4737,
  "alu": 4738,
  "ÛĨ": 4739,
  "ÐµÑģ": 4740,
  "Ġkat": 4741,
  "àº¡": 4742,
  "à½¢à¾": 4743,
  "ÆĴ": 4744,
  "à¤ľ": 4745,
  "Ġpara": 4746,
  "Ġproblem": 4747,
  "à¶Ń": 4748,
  "Key": 4749,
  "ving": 4750,
  "Ġsn": 4751,
  "cription": 4752,
  "CO": 4753,
  "à¸µ": 4754,
  "Ġenc": 4755,
  "à´¾": 4756,
  "ista": 4757,
  "å»ºè®®": 4758,
  "acy": 4759,
  "çīĽ": 4760,
  "éĢłæĪĲ": 4761,
  "rs": 4762,
  "Ġstop": 4763,
  "ç©¿": 4764,
  "ening": 4765,
  "What": 4766,
  "èĮĥåĽ´": 4767,
  "aces": 4768,
  "api": 4769,
  "æľĢåĲİ": 4770,
  "ĠGr": 4771,
  "Ø§Ø³": 4772,
  "ĠLe": 4773,
  "ables": 4774,
  "çľĭåĪ°": 4775,
  "æĿ¥è¯´": 4776,
  "hing": 4777,
  "agi": 4778,
  "éĢı": 4779,
  "Ġorig": 4780,
  "æīĺ": 4781,
  "ç¬¬ä¸ī": 4782,
  "åĽłç´ł": 4783,
  "àºģ": 4784,
  "×Ŀ": 4785,
  "ä»į": 4786,
  "anu": 4787,
  "ĠpÃ«r": 4788,
  "Ø·": 4789,
  "áº½": 4790,
  "atures": 4791,
  "pons": 4792,
  "ĠThese": 4793,
  "ĠÃ¶": 4794,
  "à¤°à¥įà¤": 4795,
  "Ġ--": 4796,
  "é£İéĻ©": 4797,
  "é¢Ĩå¯¼": 4798,
  "àº²àºĻàº": 4799,
  "å¹´çļĦ": 4800,
  "#include": 4801,
  "Ġbene": 4802,
  "Ġtimes": 4803,
  "åĪĽæĸ°": 4804,
  "Ð¸Ñĩ": 4805,
  "Ġmer": 4806,
  "è½®": 4807,
  "åħ³äºİ": 4808,
  "å¥ĸ": 4809,
  "ãģ¦": 4810,
  "ional": 4811,
  "ä¹Łä¸į": 4812,
  "ÎµÎ¹": 4813,
  "å½¢å¼ı": 4814,
  "Ġmeet": 4815,
  "kt": 4816,
  "Ã½ch": 4817,
  "ben": 4818,
  "àªµ": 4819,
  "Ġàªķ": 4820,
  "áŁĤ": 4821,
  "éĴ¢": 4822,
  "åĽ°": 4823,
  "ĠÚĨ": 4824,
  "Ġles": 4825,
  "Ġfore": 4826,
  "Ġauth": 4827,
  "Ġfut": 4828,
  "å¼Ģå±ķ": 4829,
  "à¯Ī": 4830,
  "hu": 4831,
  "ĠÙħÛĮ": 4832,
  "Ã¹": 4833,
  "ones": 4834,
  "å®¹æĺĵ": 4835,
  "');": 4836,
  "Ġspecial": 4837,
  "ëĬ": 4838,
  "Ġprob": 4839,
  "aa": 4840,
  "leg": 4841,
  "áŁĦ": 4842,
  "äººä»¬": 4843,
  "vironment": 4844,
  "Ġclos": 4845,
  "Ġmulti": 4846,
  "function": 4847,
  "Ġcalled": 4848,
  "pond": 4849,
  "è°Ī": 4850,
  "è¿ĻéĩĮ": 4851,
  "Ġperiod": 4852,
  "Ġcourse": 4853,
  "Ġkun": 4854,
  "Ġparticular": 4855,
  "Ġalong": 4856,
  "éĩĬ": 4857,
  "Ġwar": 4858,
  "Ġsem": 4859,
  "äº®": 4860,
  "è¯Ĺ": 4861,
  "Äĳ": 4862,
  "æľīçļĦ": 4863,
  "é¡¾": 4864,
  "ache": 4865,
  "à®¤": 4866,
  "æĸ¹æ¡Ī": 4867,
  "ç»©": 4868,
  "aim": 4869,
  "âĢĿãĢĤ": 4870,
  "æ··": 4871,
  "ĠáĮ": 4872,
  "ĠÕ§": 4873,
  "Ġinde": 4874,
  "['": 4875,
  "Ġdone": 4876,
  "ĠBl": 4877,
  "áŀĸ": 4878,
  "ste": 4879,
  "åłĤ": 4880,
  "json": 4881,
  "à¾²": 4882,
  "æ²Ļ": 4883,
  "Ø§Ø´": 4884,
  "ify": 4885,
  "_S": 4886,
  "ĠĠĠĠĠĠ": 4887,
  "àºģàº": 4888,
  "Êĭ": 4889,
  "àªķ": 4890,
  "ican": 4891,
  "Ġuz": 4892,
  "elta": 4893,
  "åıªæĺ¯": 4894,
  "LL": 4895,
  "Ġalready": 4896,
  "ez": 4897,
  "çļĦäºĭ": 4898,
  "Ġtotal": 4899,
  "å½Ĵ": 4900,
  "Ġshort": 4901,
  "Ġcharacter": 4902,
  "é¡µ": 4903,
  "alpha": 4904,
  "ç¬Ķ": 4905,
  "Ġvalues": 4906,
  "Æ°": 4907,
  "à°¾à°": 4908,
  "Or": 4909,
  "ç»¼åĲĪ": 4910,
  "Ġenough": 4911,
  "áł¤áł¨": 4912,
  "lj": 4913,
  "éĵ¶è¡Į": 4914,
  "ç©ºéĹ´": 4915,
  "cer": 4916,
  "atter": 4917,
  "ls": 4918,
  "Ġà¥": 4919,
  "ley": 4920,
  "ç»¿": 4921,
  "aking": 4922,
  "ories": 4923,
  "å®ŀæĸ½": 4924,
  "ION": 4925,
  "Ġpast": 4926,
  "han": 4927,
  "ĠThat": 4928,
  "æīįèĥ½": 4929,
  "ĠÐ¡": 4930,
  "angan": 4931,
  "ety": 4932,
  "ä¸ĢçĽ´": 4933,
  ".add": 4934,
  "æ¥¼": 4935,
  "ources": 4936,
  "Ġmaking": 4937,
  "abil": 4938,
  "è¯¢": 4939,
  "Ġthing": 4940,
  "ĠBr": 4941,
  "è¾¾åĪ°": 4942,
  "äºĪ": 4943,
  "Ġindic": 4944,
  "index": 4945,
  "ç¡®å®ļ": 4946,
  "Ð¾Ð¹": 4947,
  "ê°": 4948,
  "Ûĭ": 4949,
  "ä¿ĿæĮģ": 4950,
  "à¶¸": 4951,
  "Ġnight": 4952,
  "æľĿ": 4953,
  "ĠØĮ": 4954,
  "æ¹ĸ": 4955,
  "oken": 4956,
  "vis": 4957,
  "ÅĽ": 4958,
  "Ð°Ò": 4959,
  "irm": 4960,
  "èĨľ": 4961,
  "lik": 4962,
  "oko": 4963,
  "æĺ¾ç¤º": 4964,
  "Ang": 4965,
  "het": 4966,
  "plement": 4967,
  "Ġtoget": 4968,
  "é¤Ĳ": 4969,
  "Ġsugg": 4970,
  ".$": 4971,
  "Ġtarget": 4972,
  "amet": 4973,
  "ÛĮØ±": 4974,
  "aff": 4975,
  "èıĮ": 4976,
  "Ġinvol": 4977,
  "itch": 4978,
  "opy": 4979,
  "åį±": 4980,
  "Ġtogether": 4981,
  "Ġez": 4982,
  "Ġpress": 4983,
  "ä¿Ŀè¯ģ": 4984,
  "Ġeyes": 4985,
  "Ġdue": 4986,
  "roid": 4987,
  "Ġcomb": 4988,
  "éĻĪ": 4989,
  "æĪĲæľ¬": 4990,
  "Ġseveral": 4991,
  "All": 4992,
  "Ġbes": 4993,
  "Ġseg": 4994,
  "ä¾§": 4995,
  "}-": 4996,
  "ç»į": 4997,
  "åĬłå¼º": 4998,
  "ering": 4999,
  "off": 5000,
  "ln": 5001,
  "à¥ĩà¤Ĥ": 5002,
  "å°ģ": 5003,
  "Ġassoci": 5004,
  "ky": 5005,
  "ç¨ĭåºı": 5006,
  "Ġjob": 5007,
  "çĸ¾": 5008,
  "_in": 5009,
  "enn": 5010,
  "Ġneg": 5011,
  "ands": 5012,
  "ĠÐ¾ÑĤ": 5013,
  "é±": 5014,
  "De": 5015,
  "Ġwhy": 5016,
  "ä¼°": 5017,
  "Ġbed": 5018,
  "ä¿Ĥ": 5019,
  "Info": 5020,
  "Ġfoc": 5021,
  "áĢĦáĢºáĢ¸": 5022,
  "ãģ§": 5023,
  "Ġbilong": 5024,
  "èŃ¦": 5025,
  "posed": 5026,
  "Ġsus": 5027,
  "æ¯ķ": 5028,
  "è¶£": 5029,
  "åįĸ": 5030,
  "çĻ¼": 5031,
  "Ġlib": 5032,
  "Ġhouse": 5033,
  "ideo": 5034,
  "Ġred": 5035,
  "çĬ¶æĢģ": 5036,
  "Ġdevelopment": 5037,
  "Ġcertain": 5038,
  "ols": 5039,
  "Ġfood": 5040,
  "Ġcontent": 5041,
  "Ġyet": 5042,
  ".b": 5043,
  "åĲ¯": 5044,
  "ĠÃ§": 5045,
  "à¸°": 5046,
  "Õµ": 5047,
  "Ġmis": 5048,
  "å¾Į": 5049,
  "fe": 5050,
  "Ġstrong": 5051,
  "Ġ});": 5052,
  "å¾Ħ": 5053,
  "áĬĵ": 5054,
  "éĴŁ": 5055,
  "lement": 5056,
  "Ġcreat": 5057,
  "Ġtrad": 5058,
  "æı¡": 5059,
  "èĮ¶": 5060,
  "æĮ¥": 5061,
  "Ġabs": 5062,
  "Ġhaving": 5063,
  "Ġhtt": 5064,
  "çļĦè¯Ŀ": 5065,
  "Å¥": 5066,
  "uch": 5067,
  "ĠÃ©s": 5068,
  "ä¼łç»Ł": 5069,
  "è®¨": 5070,
  "ĠÕ¸": 5071,
  "idence": 5072,
  "Ġexist": 5073,
  "Ġobserv": 5074,
  "è·Ŀ": 5075,
  "ç¡¬": 5076,
  "è®¾ç½®": 5077,
  "çŃ¾": 5078,
  "æĸĹ": 5079,
  "ened": 5080,
  "ÏģÎ¿": 5081,
  "ÏīÎ½": 5082,
  "ä¸įè¿ĩ": 5083,
  "Ġkar": 5084,
  "Ġà¦ķ": 5085,
  "Ġleast": 5086,
  "Is": 5087,
  "OS": 5088,
  "ping": 5089,
  "ê³": 5090,
  "ÑĥÐ´": 5091,
  "èĹı": 5092,
  "Ġhold": 5093,
  "ackage": 5094,
  "ç³ĸ": 5095,
  "(\\": 5096,
  "oman": 5097,
  "å»¶": 5098,
  "é±¼": 5099,
  "åĬª": 5100,
  "æī©": 5101,
  "ĠAb": 5102,
  "Set": 5103,
  "NA": 5104,
  "éļıçĿĢ": 5105,
  "à¦ķ": 5106,
  "ĠØ¨Ùĩ": 5107,
  "çº¸": 5108,
  "mon": 5109,
  "Ġcir": 5110,
  "Ġáĭ¨": 5111,
  "Ġposition": 5112,
  "Ð½Ð°": 5113,
  "ÑģÑĤÐ²": 5114,
  "ÃŃt": 5115,
  "ģà¸": 5116,
  "rat": 5117,
  "æŃ£å¸¸": 5118,
  "User": 5119,
  "ĠDe": 5120,
  "Object": 5121,
  "obal": 5122,
  "Ġà¤Ĺ": 5123,
  "ĠWith": 5124,
  "ÙĲ": 5125,
  "Ġcame": 5126,
  "Ġdrug": 5127,
  "oms": 5128,
  "çļĦå¤§": 5129,
  "oint": 5130,
  "Ġintern": 5131,
  "Ġtable": 5132,
  "Ġsingle": 5133,
  "ĠMan": 5134,
  "ca": 5135,
  "sel": 5136,
  "Ġobject": 5137,
  "Ġindust": 5138,
  "Õ¥Õ¬": 5139,
  "ground": 5140,
  "éĶĢåĶ®": 5141,
  "Ġinfl": 5142,
  "icy": 5143,
  "ĠSp": 5144,
  "Ġhuman": 5145,
  "ĠÕ¯": 5146,
  "lex": 5147,
  "çĶļèĩ³": 5148,
  "è´µ": 5149,
  "umn": 5150,
  "Ġtook": 5151,
  "umb": 5152,
  "Config": 5153,
  "ĠÑĨ": 5154,
  "yr": 5155,
  "Ġmeans": 5156,
  "ç¯ĩ": 5157,
  "tial": 5158,
  "çĳ": 5159,
  "ift": 5160,
  "Ġjava": 5161,
  "æİª": 5162,
  "ĠáĬ£": 5163,
  "å»ºçŃĳ": 5164,
  "do": 5165,
  "At": 5166,
  "ayout": 5167,
  "Ġrecord": 5168,
  "Ð¸Ð·": 5169,
  "oke": 5170,
  "?\"": 5171,
  "ĠGet": 5172,
  "Ġonline": 5173,
  "åħµ": 5174,
  "Ġabove": 5175,
  "å®Įåħ¨": 5176,
  "Ġthough": 5177,
  "à²²": 5178,
  "è§īå¾Ĺ": 5179,
  "uv": 5180,
  "Ġworking": 5181,
  "åĲĪåĲĮ": 5182,
  "àŃįà¬": 5183,
  "ema": 5184,
  "æĮīçħ§": 5185,
  "ĠÐĲ": 5186,
  "ÑĤÐ°": 5187,
  "Ġtalk": 5188,
  "èĢĥèĻĳ": 5189,
  "Ġcommon": 5190,
  "Ġsil": 5191,
  "aci": 5192,
  "é¥®": 5193,
  "US": 5194,
  "åĮĹäº¬": 5195,
  "Ġdesc": 5196,
  "anje": 5197,
  "è¸": 5198,
  "éĽ¨": 5199,
  "Qu": 5200,
  "Ġdhe": 5201,
  "Ġcover": 5202,
  "ç¿»": 5203,
  "ota": 5204,
  "çĸ«": 5205,
  "åĩĢ": 5206,
  "Ġrepresent": 5207,
  "resh": 5208,
  "æ°§": 5209,
  "Ø±Ùī": 5210,
  "(x": 5211,
  "æĭ¥": 5212,
  "Ġtur": 5213,
  "Ġga": 5214,
  "Ġlater": 5215,
  "ros": 5216,
  "É£": 5217,
  "å°į": 5218,
  "æİĮ": 5219,
  "ç¨³å®ļ": 5220,
  "Ġstudents": 5221,
  "æ¢¦": 5222,
  "ĠUS": 5223,
  "aks": 5224,
  "è½¯ä»¶": 5225,
  "oli": 5226,
  "ëĬĶ": 5227,
  "ising": 5228,
  "ç¼©": 5229,
  "mas": 5230,
  "çĬ¯": 5231,
  "ĠEng": 5232,
  "ĠÑĦ": 5233,
  "æīĭæľº": 5234,
  "-in": 5235,
  "ĠĠĠĠĠĠĠĠĠ": 5236,
  "ella": 5237,
  "æ¸¯": 5238,
  "äº¤æĺĵ": 5239,
  "Ġword": 5240,
  "çļĦéĹ®é¢ĺ": 5241,
  "Ġach": 5242,
  "åŁ¹è®Ń": 5243,
  "Ġcy": 5244,
  "Ġhot": 5245,
  "though": 5246,
  "ony": 5247,
  "ĠWhat": 5248,
  "Ġgover": 5249,
  "Ġservices": 5250,
  "ÐµÐ¹": 5251,
  "Op": 5252,
  "àº·": 5253,
  "CH": 5254,
  "eller": 5255,
  "è®¸å¤ļ": 5256,
  "wan": 5257,
  "Ġobt": 5258,
  "áŀħ": 5259,
  "à¶±à·Ĭ": 5260,
  "ploy": 5261,
  "ĠFig": 5262,
  "Ġà¹Ģà¸": 5263,
  "nÃŃ": 5264,
  "zo": 5265,
  "çĽĸ": 5266,
  ".L": 5267,
  "Ø¯Ùī": 5268,
  "ä¸Ŀ": 5269,
  "Ġdoor": 5270,
  "nÃ©": 5271,
  "Ġdig": 5272,
  "ogn": 5273,
  "æĶ»": 5274,
  "éĿ¢çļĦ": 5275,
  "Pl": 5276,
  "æĽ´åĬł": 5277,
  "Ġcells": 5278,
  "æĿŁ": 5279,
  "Ġrelations": 5280,
  "à¹ī": 5281,
  "most": 5282,
  "abl": 5283,
  "¯à¦¼": 5284,
  "é¢ĨåŁŁ": 5285,
  "Ġsitu": 5286,
  "æ°¸": 5287,
  "Ġacross": 5288,
  "·áł": 5289,
  "ĠEn": 5290,
  "aku": 5291,
  "Ä±r": 5292,
  "Ġten": 5293,
  "ĠØŃ": 5294,
  "ills": 5295,
  "è´Łè´£": 5296,
  "Ġpolit": 5297,
  "Ġlooking": 5298,
  "Ġà¥¤": 5299,
  "Ġanalysis": 5300,
  "à½łà½²": 5301,
  "åĬªåĬĽ": 5302,
  "ç¨ĭåº¦": 5303,
  "è¯´æĺİ": 5304,
  "Ġdin": 5305,
  "çīĻ": 5306,
  "my": 5307,
  "aged": 5308,
  "Ġstatic": 5309,
  "åĨ³å®ļ": 5310,
  "à¦¤": 5311,
  "arrow": 5312,
  "ync": 5313,
  "å¢ŀéķ¿": 5314,
  "asing": 5315,
  "Ġ);": 5316,
  "mission": 5317,
  "With": 5318,
  "Ġàªª": 5319,
  "Ġact": 5320,
  "Node": 5321,
  "Ð¾Ð³Ð¾": 5322,
  "ç¤¼": 5323,
  "Ø§ÙĬ": 5324,
  "ĠÑı": 5325,
  "_name": 5326,
  "åĪĨåĪ«": 5327,
  "áī°": 5328,
  "Ġinclude": 5329,
  "à´¾à´": 5330,
  "è¿Ľä¸ĢæŃ¥": 5331,
  "å¼ķèµ·": 5332,
  "×¡": 5333,
  "ially": 5334,
  "Ð¡": 5335,
  "IM": 5336,
  "omis": 5337,
  "Ġsens": 5338,
  "Ac": 5339,
  "Context": 5340,
  "Out": 5341,
  "å®ľ": 5342,
  "org": 5343,
  "lected": 5344,
  "udi": 5345,
  "æ´¾": 5346,
  "åĢĴ": 5347,
  "è·µ": 5348,
  "Ġali": 5349,
  "æĸ¹åĲĳ": 5350,
  "à½Ĥà½¦": 5351,
  "Ġreduc": 5352,
  "side": 5353,
  "ãģª": 5354,
  ".w": 5355,
  "à¯įà®¤": 5356,
  "à¥ĩà¤": 5357,
  "ĠãĢĤ": 5358,
  "Õ¡ÖĢÕ": 5359,
  "à¬¾à¬": 5360,
  "åħ°": 5361,
  "áłłáł¨": 5362,
  "å¨ģ": 5363,
  "qa": 5364,
  "éľ²": 5365,
  "Ġà¨¦": 5366,
  "àºĶàº": 5367,
  "æī§è¡Į": 5368,
  "Item": 5369,
  "æ±½è½¦": 5370,
  "èĦ±": 5371,
  "ece": 5372,
  "ĠÎ´": 5373,
  "len": 5374,
  "Ġann": 5375,
  "çĸĳ": 5376,
  "Ġà¹Ī": 5377,
  "éĽ¶": 5378,
  "error": 5379,
  "where": 5380,
  "ç§Ģ": 5381,
  "èĪª": 5382,
  "ried": 5383,
  "Ġgi": 5384,
  "Map": 5385,
  "Ġassert": 5386,
  "Response": 5387,
  "àŃĩ": 5388,
  "ĠÛĮ": 5389,
  "åŁ¹åħ»": 5390,
  "èľ": 5391,
  "zn": 5392,
  "Ġonce": 5393,
  "Ġhat": 5394,
  "Ð¾Ð·": 5395,
  "åıĬæĹ¶": 5396,
  "áĥĶáĥĳ": 5397,
  "_b": 5398,
  "ĠMy": 5399,
  "éĩıçļĦ": 5400,
  "ä»ĭç»į": 5401,
  "Ġcu": 5402,
  ")$": 5403,
  "Ġenergy": 5404,
  "Ã¡t": 5405,
  "æ¸Ĳ": 5406,
  "áŁĩ": 5407,
  "åħ³éĶ®": 5408,
  "orth": 5409,
  "íķĺ": 5410,
  "iki": 5411,
  "ĠEr": 5412,
  "Ġreason": 5413,
  "ç®±": 5414,
  "à¨¤": 5415,
  "æĭį": 5416,
  "Ġnia": 5417,
  "aman": 5418,
  "åĤ¨": 5419,
  "':": 5420,
  "åĺħ": 5421,
  "iza": 5422,
  "ç»ıéªĮ": 5423,
  "Ġwomen": 5424,
  "à»į": 5425,
  "Ġbecome": 5426,
  "File": 5427,
  "iny": 5428,
  ".log": 5429,
  "Ġphys": 5430,
  "Ġear": 5431,
  "Ġfi": 5432,
  "ê²": 5433,
  "ÑĭÐ¼": 5434,
  "Ġseen": 5435,
  "ĠÑĸ": 5436,
  "åĢĳ": 5437,
  "duce": 5438,
  "çĿ£": 5439,
  "mut": 5440,
  "equ": 5441,
  "ĠØ§ÙĦÙħ": 5442,
  "Ġnag": 5443,
  "à»ĥ": 5444,
  "Ġidentif": 5445,
  "State": 5446,
  "æĿĢ": 5447,
  "uan": 5448,
  "Ð½Ðµ": 5449,
  "áŀĬ": 5450,
  "Î±ÏĦ": 5451,
  "ĠCol": 5452,
  "amo": 5453,
  "è§¦": 5454,
  "áĥĺáĥ¡": 5455,
  "à¶ļ": 5456,
  "Ġkap": 5457,
  "heck": 5458,
  "å®ŀéªĮ": 5459,
  "åľĨ": 5460,
  "head": 5461,
  "Ġdocument": 5462,
  "ayo": 5463,
  "ches": 5464,
  "åıįåºĶ": 5465,
  "çĮ®": 5466,
  "ohn": 5467,
  "ĠÛģ": 5468,
  "à²¤": 5469,
  "Ġothers": 5470,
  "ailed": 5471,
  "Ġtemper": 5472,
  "è¯Ĭ": 5473,
  "Ġlos": 5474,
  "åį·": 5475,
  "åħ¨åĽ½": 5476,
  "Ġknown": 5477,
  "--------------------------------": 5478,
  "ç¹": 5479,
  "sole": 5480,
  "ological": 5481,
  "å¹¶ä¸Ķ": 5482,
  "ibility": 5483,
  "£áĥ": 5484,
  "æĺ¯åľ¨": 5485,
  "Ġtreatment": 5486,
  "ï¼ĮâĢľ": 5487,
  "};": 5488,
  "ç®Ģåįķ": 5489,
  "imal": 5490,
  "ä½įç½®": 5491,
  "Ħà¸": 5492,
  "æĺİæĺ¾": 5493,
  "Ġens": 5494,
  "Ġ[]": 5495,
  "éĺħ": 5496,
  "Ġspace": 5497,
  "AB": 5498,
  "Ġever": 5499,
  "hib": 5500,
  "ises": 5501,
  "ĠÐ¿ÑĢÐµ": 5502,
  "ä»»åĬ¡": 5503,
  "å¹¸": 5504,
  "pri": 5505,
  "Ġamount": 5506,
  "Ġmap": 5507,
  "Ġmajor": 5508,
  "Ġasked": 5509,
  "å¹¼": 5510,
  "åŃĶ": 5511,
  "Ġtoward": 5512,
  "ìŀ": 5513,
  "Ġà¤Ń": 5514,
  "Ġhigher": 5515,
  "Ġjed": 5516,
  "Ġdiscuss": 5517,
  "ç½ª": 5518,
  "Ġport": 5519,
  "Ġproduct": 5520,
  "ä»İèĢĮ": 5521,
  "ades": 5522,
  "ĠÐĳ": 5523,
  "æ²ī": 5524,
  "èĥľ": 5525,
  "ÈĻ": 5526,
  "ä¸ľè¥¿": 5527,
  "éĺ¶æ®µ": 5528,
  ".N": 5529,
  "aling": 5530,
  "æĬĺ": 5531,
  "ä¹ĭä¸Ģ": 5532,
  "Ġaddress": 5533,
  "æĹłæ³ķ": 5534,
  "é¦ĸåħĪ": 5535,
  "imi": 5536,
  "ä¸ĭè½½": 5537,
  "éĺ»": 5538,
  "rc": 5539,
  "Ġrespons": 5540,
  "áĪĺ": 5541,
  "Ġsite": 5542,
  "ued": 5543,
  "ÙĴ": 5544,
  "Ġobj": 5545,
  "Ġlearn": 5546,
  "Ġrate": 5547,
  "ÅĪ": 5548,
  "Ġatu": 5549,
  "Ġáł²": 5550,
  "èĦļ": 5551,
  "Ġtas": 5552,
  "clus": 5553,
  "Ġcontext": 5554,
  "ä½ĵç³»": 5555,
  "é¡¶": 5556,
  "Ġsoft": 5557,
  "uda": 5558,
  "çĽ®çļĦ": 5559,
  "Ġcrit": 5560,
  "Õ½": 5561,
  "ept": 5562,
  "px": 5563,
  "las": 5564,
  "Ġquestion": 5565,
  "Ġheart": 5566,
  "åĿı": 5567,
  "å°ļ": 5568,
  "cript": 5569,
  "Ġcur": 5570,
  "à§ĭ": 5571,
  "Ġnan": 5572,
  "æĢĢ": 5573,
  "åĩºæĿ¥": 5574,
  "Ġess": 5575,
  "data": 5576,
  "éĹ»": 5577,
  "ä¸įåı¯": 5578,
  "omb": 5579,
  "'m": 5580,
  "à¾±à½²": 5581,
  "lient": 5582,
  "ince": 5583,
  "Ġpen": 5584,
  "áīł": 5585,
  "Ġtill": 5586,
  "Ġseem": 5587,
  "ãģĮ": 5588,
  "ç»§ç»Ń": 5589,
  "Ġshown": 5590,
  "met": 5591,
  "Le": 5592,
  "æŃ£ç¡®": 5593,
  "åĭķ": 5594,
  "tes": 5595,
  "Ø§ÙĤ": 5596,
  "atal": 5597,
  "éĵ¾": 5598,
  "Ø³Ùī": 5599,
  "Ġtag": 5600,
  "EM": 5601,
  "epend": 5602,
  "ules": 5603,
  "Ġamong": 5604,
  "Ġmb": 5605,
  "Ġconc": 5606,
  "ÑĥÐ²": 5607,
  "ĠÐ¿Ð¾": 5608,
  "ĠIm": 5609,
  "Ø§Ø¨": 5610,
  "ĠAp": 5611,
  "Ġwent": 5612,
  "æĬ¥åĳĬ": 5613,
  "çĶµåŃĲ": 5614,
  "eke": 5615,
  "irect": 5616,
  "Ġndi": 5617,
  "Ġrequired": 5618,
  "olution": 5619,
  "ä¼ĳ": 5620,
  "çĶ°": 5621,
  "à¤£": 5622,
  "Ġimage": 5623,
  "æķĳ": 5624,
  "åĪº": 5625,
  "Ð¸ÑĨ": 5626,
  "ä¸įåĲĮçļĦ": 5627,
  "^{\\": 5628,
  "à»ģàº": 5629,
  "oro": 5630,
  "struct": 5631,
  "è¼": 5632,
  "æ¥Ń": 5633,
  "Ġbab": 5634,
  "Ġneeds": 5635,
  "Ġsym": 5636,
  "ç·": 5637,
  "ĠáĢĻ": 5638,
  ")ãĢĤ": 5639,
  "Event": 5640,
  "Ø±Ø¯": 5641,
  "Man": 5642,
  "Ġwalk": 5643,
  "èĦī": 5644,
  "áŁĴáŀĵ": 5645,
  "ension": 5646,
  "ney": 5647,
  "esus": 5648,
  "à²Ĥ": 5649,
  "åģı": 5650,
  "void": 5651,
  "oper": 5652,
  "Ġsimilar": 5653,
  "amu": 5654,
  "antu": 5655,
  "çİ°ä»£": 5656,
  "áŀĩ": 5657,
  "Ġmatch": 5658,
  "ango": 5659,
  "Ġdest": 5660,
  "uba": 5661,
  "åĬ³åĬ¨": 5662,
  "Ġconfig": 5663,
  "åĳ¼": 5664,
  "conom": 5665,
  "åıĤåĬł": 5666,
  "Ġfurther": 5667,
  "èĻļ": 5668,
  "Ġyo": 5669,
  "Ïİ": 5670,
  "tific": 5671,
  "uff": 5672,
  "Ġprevious": 5673,
  "Ġmoney": 5674,
  "Ġgeneral": 5675,
  "Ġ||": 5676,
  "è°ģ": 5677,
  "Ġsel": 5678,
  "enge": 5679,
  "æĢķ": 5680,
  "ĠPa": 5681,
  "å¥¶": 5682,
  "éĺ´": 5683,
  "ç«¥": 5684,
  "Ġsays": 5685,
  "åİļ": 5686,
  "Ġmoment": 5687,
  "ĠSe": 5688,
  "ribute": 5689,
  "vert": 5690,
  "enu": 5691,
  "åĩıå°ĳ": 5692,
  "æıı": 5693,
  "æľīä¸Ģ": 5694,
  "å¤ı": 5695,
  "ĠÐļ": 5696,
  "æĦŁè§ī": 5697,
  "Ġwhether": 5698,
  "UT": 5699,
  "Ġsuggest": 5700,
  "àª¾àªĤ": 5701,
  "à©±": 5702,
  "She": 5703,
  "ç§ģ": 5704,
  "Result": 5705,
  "cles": 5706,
  "èµĦéĩĳ": 5707,
  "pose": 5708,
  "odes": 5709,
  "uru": 5710,
  "æ±ĩ": 5711,
  "áĢ¬áĢ¸": 5712,
  "æİĪ": 5713,
  "éĢŁåº¦": 5714,
  "ÛķÙĨ": 5715,
  "Ġeither": 5716,
  "éģ¿åħį": 5717,
  "ges": 5718,
  "æĦıä¹ī": 5719,
  "ĠCar": 5720,
  "Ġcou": 5721,
  "Ġpage": 5722,
  "èº«ä½ĵ": 5723,
  "Ä«b": 5724,
  "åĨĮ": 5725,
  "ĠÃ¨": 5726,
  "ä¼´": 5727,
  "pre": 5728,
  "oved": 5729,
  "-h": 5730,
  "èµĦæĸĻ": 5731,
  "Ġyoung": 5732,
  "OT": 5733,
  "Ġkab": 5734,
  "Ġcolor": 5735,
  "áĬĲ": 5736,
  "ä»ª": 5737,
  "(n": 5738,
  "ÐŁ": 5739,
  "^{-": 5740,
  "åħ³æ³¨": 5741,
  "ande": 5742,
  "ql": 5743,
  "æĮĩå¯¼": 5744,
  "å®ŀè·µ": 5745,
  "å¿ĥçĲĨ": 5746,
  "ĠSc": 5747,
  "tire": 5748,
  "fort": 5749,
  "èĦ¸": 5750,
  "ĠUniversity": 5751,
  "æĶ¿æ²»": 5752,
  "ç¼ĵ": 5753,
  "init": 5754,
  "ç´¯": 5755,
  "wi": 5756,
  "å®ģ": 5757,
  "DE": 5758,
  ".T": 5759,
  "Ġcode": 5760,
  "ĠMe": 5761,
  "åħ¶å®ŀ": 5762,
  "urity": 5763,
  "ÐµÐ³": 5764,
  "æ¬§": 5765,
  "Ùı": 5766,
  "config": 5767,
  "ç»ıè¿ĩ": 5768,
  "Ġmai": 5769,
  "à·Ļ": 5770,
  "Õ¸ÖĤÕ©": 5771,
  "ÑĸÐ»": 5772,
  "æľīäºĽ": 5773,
  "åıĹåĪ°": 5774,
  "Ġquality": 5775,
  "ĠReg": 5776,
  "apa": 5777,
  "è®¿": 5778,
  "Ġrisk": 5779,
  "Ġnecess": 5780,
  "ilder": 5781,
  "à°¿à°": 5782,
  "Ġelectr": 5783,
  "roups": 5784,
  "Ġrad": 5785,
  "åĪĺ": 5786,
  "ious": 5787,
  "çŀ": 5788,
  "æĺ¯ä¸Ģä¸ª": 5789,
  "Ġanti": 5790,
  "bed": 5791,
  "éĸĭ": 5792,
  "Add": 5793,
  "ä¸½": 5794,
  "é¦Ĩ": 5795,
  "Ġorg": 5796,
  "util": 5797,
  "ĠAss": 5798,
  "Path": 5799,
  "çī¹çĤ¹": 5800,
  "èĶ": 5801,
  "×ĺ": 5802,
  "pela": 5803,
  "Ð¸Ñĺ": 5804,
  "ĠÐľ": 5805,
  "åĢº": 5806,
  "reate": 5807,
  "åĽ½åĨħ": 5808,
  "ao": 5809,
  "ĠáĢĢ": 5810,
  "åħ±åĲĮ": 5811,
  "ĠÐ¸Ð·": 5812,
  "hel": 5813,
  "Ġeduc": 5814,
  "éĢĶ": 5815,
  "å¸Ŀ": 5816,
  "ä½³": 5817,
  "èīºæľ¯": 5818,
  "å·¥ä¸ļ": 5819,
  "Ġlower": 5820,
  "å®«": 5821,
  ".R": 5822,
  "Ġlat": 5823,
  "áĢĸ": 5824,
  "ÏĥÎ·": 5825,
  "fully": 5826,
  "param": 5827,
  "Ġenvironment": 5828,
  "å®¶åºŃ": 5829,
  "max": 5830,
  "å¸ģ": 5831,
  "åĩĨå¤ĩ": 5832,
  "ĠYehova": 5833,
  "æ»ĳ": 5834,
  "Ġteach": 5835,
  "ä»¥åĲİ": 5836,
  "ÈĽ": 5837,
  "æĸ½å·¥": 5838,
  "ĠÕ¥": 5839,
  "æ¶¦": 5840,
  "Ġquick": 5841,
  "çĥĪ": 5842,
  "';": 5843,
  "._": 5844,
  "åıĤä¸İ": 5845,
  "ĠNone": 5846,
  "ï¼īï¼Į": 5847,
  "çĶ³è¯·": 5848,
  "Ã¸r": 5849,
  "à¦²": 5850,
  "à¤¾à¤²": 5851,
  "ĠDr": 5852,
  "éĸĵ": 5853,
  "Service": 5854,
  "imum": 5855,
  "uli": 5856,
  "åľĭ": 5857,
  "ÙĬØ©": 5858,
  "ä¹ĭåīį": 5859,
  "è°ĥæķ´": 5860,
  "Ġlarg": 5861,
  "Ġcult": 5862,
  "imin": 5863,
  "Exception": 5864,
  "ging": 5865,
  "çģ¯": 5866,
  "xy": 5867,
  "ilt": 5868,
  "zjoni": 5869,
  "Ġearly": 5870,
  "å±ŀäºİ": 5871,
  "uit": 5872,
  "andom": 5873,
  "avel": 5874,
  "uku": 5875,
  "å®½": 5876,
  "Ġuna": 5877,
  "Ġbad": 5878,
  "å®īè£ħ": 5879,
  "æ±¡": 5880,
  "ĠÔ": 5881,
  "Ġ×¢": 5882,
  "è·ĳ": 5883,
  "Ġpersonal": 5884,
  "gb": 5885,
  "ìĿĦ": 5886,
  "æľīéĻĲåħ¬åı¸": 5887,
  "ige": 5888,
  "aster": 5889,
  "alt": 5890,
  "çİī": 5891,
  "éĻįä½İ": 5892,
  "Ġdoing": 5893,
  "è¿İ": 5894,
  "umu": 5895,
  "asaun": 5896,
  "ÙīÙĦ": 5897,
  "Ð½Ð¸": 5898,
  "è¯¦": 5899,
  "ison": 5900,
  "èµĦäº§": 5901,
  "uto": 5902,
  "std": 5903,
  "There": 5904,
  "ä»Ĭå¤©": 5905,
  "((": 5906,
  "ged": 5907,
  "çĲĨè§£": 5908,
  "Î¹Î±": 5909,
  "Ġmeng": 5910,
  "Ġtoday": 5911,
  "çĴ": 5912,
  "js": 5913,
  ".B": 5914,
  "ìĦ": 5915,
  "ĠÃ®n": 5916,
  "à¥įà¤¤": 5917,
  "è¡¡": 5918,
  "å±ĭ": 5919,
  "áĢ²áĢ·": 5920,
  "åŃ¸": 5921,
  "å°±ä¼ļ": 5922,
  "hem": 5923,
  "La": 5924,
  "Ã³Ì£": 5925,
  "Ġbak": 5926,
  "Ġmakes": 5927,
  "ief": 5928,
  "å°¼": 5929,
  "Ġproducts": 5930,
  "Ã¡r": 5931,
  "çļĦæĥħåĨµ": 5932,
  "æĶ¶åħ¥": 5933,
  "è®¢": 5934,
  "èĤ¤": 5935,
  "ulo": 5936,
  "Ġtold": 5937,
  "reen": 5938,
  "æİī": 5939,
  "Î¿Î½": 5940,
  "Ġinves": 5941,
  "sum": 5942,
  "ÑĢÑĥ": 5943,
  "http": 5944,
  "Ð°Ñĩ": 5945,
  "åĩºäºĨ": 5946,
  "ocal": 5947,
  "ying": 5948,
  "Ġindex": 5949,
  "ä¿ĿéĻ©": 5950,
  "Ġà¦ª": 5951,
  "Ġ+=": 5952,
  "engan": 5953,
  "ameters": 5954,
  "Ġà¦¸": 5955,
  "å¼±": 5956,
  "EC": 5957,
  "arb": 5958,
  "ç«ŀäºī": 5959,
  "ius": 5960,
  "Ġage": 5961,
  "Ġinvest": 5962,
  "mun": 5963,
  "fect": 5964,
  "Ġblo": 5965,
  "ï¼ŁâĢĿ": 5966,
  "rect": 5967,
  "Ġfig": 5968,
  "aging": 5969,
  "Ð¾Ð¶": 5970,
  "AG": 5971,
  "Ġunt": 5972,
  "æĻºèĥ½": 5973,
  "Ġmessage": 5974,
  "æ´²": 5975,
  "éĩįçĤ¹": 5976,
  "Ġraz": 5977,
  "è¡ĮæĶ¿": 5978,
  "ante": 5979,
  "Ġsound": 5980,
  "ìĿĺ": 5981,
  "Ġincrease": 5982,
  "wide": 5983,
  "Ã¼n": 5984,
  "æİªæĸ½": 5985,
  "Ġdeg": 5986,
  "Ġhab": 5987,
  "else": 5988,
  "ĠáĢŀ": 5989,
  "ä¸įå¾Ĺ": 5990,
  "left": 5991,
  "áł¡áłŃ": 5992,
  "dz": 5993,
  "à¦®": 5994,
  "Ġclose": 5995,
  "tively": 5996,
  "å®Ĺ": 5997,
  "ker": 5998,
  "mo": 5999,
  "Ġste": 6000,
  "Ã°": 6001,
  "tually": 6002,
  "å¼¹": 6003,
  "à¤¡": 6004,
  "uni": 6005,
  "à·ļ": 6006,
  "ĠTim": 6007,
  "åªĴ": 6008,
  "Ġgod": 6009,
  "è»": 6010,
  "sub": 6011,
  "Ġtid": 6012,
  "æĪĳä»¬çļĦ": 6013,
  "Ġreview": 6014,
  "apt": 6015,
  "ĠPer": 6016,
  "Ġrelationship": 6017,
  "éĩĳèŀį": 6018,
  "Õ¡Õ´": 6019,
  "åĮºåŁŁ": 6020,
  "ĠCent": 6021,
  "///": 6022,
  "ĠMed": 6023,
  "å°¤": 6024,
  "æ»¡è¶³": 6025,
  "çļĦåıĳå±ķ": 6026,
  "gu": 6027,
  "Ġbegin": 6028,
  "ä¹Ļ": 6029,
  "item": 6030,
  "Ġaction": 6031,
  "èģĶç³»": 6032,
  "åĵĪ": 6033,
  "Ġcommunity": 6034,
  "áī³": 6035,
  "arr": 6036,
  "à²Ĺ": 6037,
  "à¨¸": 6038,
  "èĩªåĬ¨": 6039,
  "Ġhom": 6040,
  "ÑĦ": 6041,
  "ä¿ĥè¿Ľ": 6042,
  "æĭŁ": 6043,
  "ĠĠĠĠĠĠĠĠĠĠĠĠĠĠĠĠĠĠĠĠĠĠĠĠĠĠĠĠĠĠĠ": 6044,
  "ÙĬÙĨ": 6045,
  "ÆĴe": 6046,
  "×Ĵ": 6047,
  "Ġwebs": 6048,
  "Ĺàºµ": 6049,
  "Ġmes": 6050,
  "èģĮä¸ļ": 6051,
  "Ġnie": 6052,
  "Ġcomput": 6053,
  "!(": 6054,
  "anta": 6055,
  "tir": 6056,
  "Ġkwa": 6057,
  "Sc": 6058,
  "æ¨¡åŀĭ": 6059,
  "']": 6060,
  "ç«Ł": 6061,
  "æĮģç»Ń": 6062,
  "anja": 6063,
  "ĠÑį": 6064,
  "áłĤ": 6065,
  "é²ľ": 6066,
  "áĢĢáĢ¹": 6067,
  "ster": 6068,
  "Ġsent": 6069,
  "icient": 6070,
  "aced": 6071,
  "Ġdefault": 6072,
  "Ġwords": 6073,
  "ledge": 6074,
  "Ġfuture": 6075,
  "éĥ½æľī": 6076,
  "portun": 6077,
  "åĬ±": 6078,
  "IL": 6079,
  "Ġgovern": 6080,
  "è¿Ŀ": 6081,
  "Ġlooked": 6082,
  "Ð¾Ð¿": 6083,
  "Ġfav": 6084,
  "à»Īàº": 6085,
  "ores": 6086,
  "ĠáĪĺ": 6087,
  "ium": 6088,
  "Ġvy": 6089,
  "è¡¨è¾¾": 6090,
  "ĠnÃŃ": 6091,
  "ille": 6092,
  "Ö¼": 6093,
  "æİ¥åıĹ": 6094,
  "åıªè¦ģ": 6095,
  "Ã¤Ã¤": 6096,
  "Ġà¨¸": 6097,
  "æ£Ģæµĭ": 6098,
  "à©ĭ": 6099,
  "çŃĶæ¡Ī": 6100,
  "ĠOne": 6101,
  "Ġclear": 6102,
  "Ø±ÛĮ": 6103,
  "åĲĮåŃ¦": 6104,
  "Ġep": 6105,
  "Num": 6106,
  "èĤĮ": 6107,
  "è¯Ħä»·": 6108,
  "ĠHis": 6109,
  "nes": 6110,
  "ä¹Łæľī": 6111,
  "How": 6112,
  "joy": 6113,
  "çı¾": 6114,
  "åħħåĪĨ": 6115,
  "ä¸¥éĩį": 6116,
  "âĳ": 6117,
  "à¸¢": 6118,
  "Ġona": 6119,
  "æĦıè¯Ĩ": 6120,
  "kom": 6121,
  "Ġcontact": 6122,
  "Ġ/*": 6123,
  "å·¨": 6124,
  "'re": 6125,
  "å·¦åı³": 6126,
  "ĠInst": 6127,
  "Int": 6128,
  "ç±»åŀĭ": 6129,
  "orld": 6130,
  "Of": 6131,
  "Ġchanges": 6132,
  "Ġwhole": 6133,
  "Ġà¨ķ": 6134,
  "Ġzv": 6135,
  "éļĲ": 6136,
  "ÛķØª": 6137,
  "Ò±": 6138,
  "UN": 6139,
  "PS": 6140,
  "áŀ¶áŀļáŀ": 6141,
  "illed": 6142,
  "Ġàª¤": 6143,
  "Ġáīł": 6144,
  "åħ¨éĥ¨": 6145,
  "''": 6146,
  "Ġparticip": 6147,
  "tivity": 6148,
  "éģĹ": 6149,
  "\").": 6150,
  "Ġbase": 6151,
  "_n": 6152,
  "è¡Ĺ": 6153,
  "Ġperformance": 6154,
  "file": 6155,
  "ambda": 6156,
  "gress": 6157,
  "ä¸Ĭæµ·": 6158,
  "Ø§Ø²": 6159,
  "-n": 6160,
  "áŀ¢": 6161,
  "Ġmembers": 6162,
  "ç½ĳç«Ļ": 6163,
  "pm": 6164,
  ".âĢĻ": 6165,
  "test": 6166,
  "ÏĢÎ¿": 6167,
  "Ġhowever": 6168,
  "Index": 6169,
  "ÓĻÐ°": 6170,
  "Ġamb": 6171,
  "æľ«": 6172,
  "place": 6173,
  "ĠÐ¾Ð±": 6174,
  ")]": 6175,
  "éĩİ": 6176,
  "Ġconditions": 6177,
  "å¹ħ": 6178,
  "(b": 6179,
  "rate": 6180,
  "Ġgetting": 6181,
  "çŁ¿": 6182,
  "åĹ": 6183,
  "unch": 6184,
  "ached": 6185,
  "æĹ¥æľ¬": 6186,
  "à¦¾à¦°": 6187,
  "à¬¿à¬": 6188,
  "ÄĹs": 6189,
  "Ġvarious": 6190,
  "à¤¿à¤ķ": 6191,
  "EL": 6192,
  "ä¸ĩåħĥ": 6193,
  "à¤¾à¤¤": 6194,
  "oid": 6195,
  "ä¸°å¯Į": 6196,
  "ING": 6197,
  "Up": 6198,
  "Ð°ÑĢÐ°": 6199,
  "ĠÅĭ": 6200,
  "Ġdoesn": 6201,
  "Ġstarted": 6202,
  "Ġkur": 6203,
  "áĪĭ": 6204,
  "Ġanything": 6205,
  "æĶ¹åıĺ": 6206,
  "åĲĪçĲĨ": 6207,
  "Ġnov": 6208,
  "Ġstudies": 6209,
  "ĠÎ¿": 6210,
  "éĽª": 6211,
  "_P": 6212,
  "à®©": 6213,
  "ators": 6214,
  "Ġwat": 6215,
  "à¸´": 6216,
  "éº»": 6217,
  "Ad": 6218,
  "Ã³w": 6219,
  "µáł¢áł": 6220,
  "é¹": 6221,
  "ÐµÐ½Ð¸": 6222,
  "ä¿Ŀéļľ": 6223,
  "èĢĲ": 6224,
  "åĩºçļĦ": 6225,
  "àª¾àª°": 6226,
  "åįĪ": 6227,
  ".in": 6228,
  "ĠÃº": 6229,
  "èĥ¶": 6230,
  "éĻ¤äºĨ": 6231,
  "Ġlen": 6232,
  "æĮĳ": 6233,
  "ocation": 6234,
  "Ġfall": 6235,
  "amba": 6236,
  "çļĦå·¥ä½ľ": 6237,
  "Ġfront": 6238,
  "eder": 6239,
  "æĸ¼": 6240,
  "uga": 6241,
  "Ġrole": 6242,
  "Ġblock": 6243,
  "fa": 6244,
  "çĿ¡": 6245,
  "æĬĵ": 6246,
  "arning": 6247,
  "æ¥ļ": 6248,
  "Ġsuper": 6249,
  "Ġà¤¯": 6250,
  "ĠÄ¯": 6251,
  "ald": 6252,
  "Ġkam": 6253,
  "Ġneeded": 6254,
  "orage": 6255,
  "Ġkont": 6256,
  "Ġgir": 6257,
  "Ġsearch": 6258,
  "æĹħæ¸¸": 6259,
  "áŀ¼": 6260,
  "åĿĢ": 6261,
  "Ġinitial": 6262,
  "çĥŁ": 6263,
  "Ġcut": 6264,
  "å¤ļå°ĳ": 6265,
  "à¨¨": 6266,
  "Ġfo": 6267,
  "çļĦå°ı": 6268,
  "ÉĻn": 6269,
  "æĢ§èĥ½": 6270,
  "ä½łä»¬": 6271,
  "ĠÅŁ": 6272,
  "Det": 6273,
  "Ĥà°": 6274,
  "è¶ħè¿ĩ": 6275,
  "kon": 6276,
  "Ġdistrib": 6277,
  "ç§Ł": 6278,
  "Ġload": 6279,
  "ania": 6280,
  "================": 6281,
  "ç§ĭ": 6282,
  "Ġdiv": 6283,
  "ien": 6284,
  "ĠÑĢÐµ": 6285,
  "ights": 6286,
  "Ġwanted": 6287,
  "ç³»åĪĹ": 6288,
  "eka": 6289,
  "áĮĪ": 6290,
  "beta": 6291,
  "æ¾": 6292,
  "Group": 6293,
  "yi": 6294,
  "å´": 6295,
  "áĭ«": 6296,
  "ÛĮÙĦ": 6297,
  "isc": 6298,
  "Ġhalf": 6299,
  "æĸĩæ¡£": 6300,
  "Ġeen": 6301,
  "Ñī": 6302,
  "è®¤è¯Ĩ": 6303,
  "Ġmot": 6304,
  "Ġbelow": 6305,
  "Ġnav": 6306,
  "ä½Ľ": 6307,
  "Ġmw": 6308,
  "result": 6309,
  "Ġwin": 6310,
  "åħ¨éĿ¢": 6311,
  "Ġsubject": 6312,
  "rav": 6313,
  "ä½ĵçļĦ": 6314,
  "æ©Ł": 6315,
  "æĶ¹éĿ©": 6316,
  "åıĸå¾Ĺ": 6317,
  "æ±ł": 6318,
  "Ġill": 6319,
  "è´¹çĶ¨": 6320,
  "çĶŁçī©": 6321,
  "Ġdise": 6322,
  "èĢĥè¯ķ": 6323,
  "Ð°Ð¶": 6324,
  "Ġnormal": 6325,
  "annel": 6326,
  "ä¸ºä»Ģä¹Ī": 6327,
  "ogle": 6328,
  "ĠCo": 6329,
  "plate": 6330,
  "è´·": 6331,
  "-w": 6332,
  "Ð¾Ñĺ": 6333,
  "è¯ĳ": 6334,
  "Ġprofession": 6335,
  "æ¶ī": 6336,
  "à½¡": 6337,
  "áłłáł·": 6338,
  "áĪ¨": 6339,
  "Ġoutput": 6340,
  "roller": 6341,
  "acc": 6342,
  "ÅĨ": 6343,
  "erson": 6344,
  "Õ¡Õ¿": 6345,
  "è¿ŀæİ¥": 6346,
  "iction": 6347,
  "ainer": 6348,
  "çľŁçļĦ": 6349,
  "Ġfit": 6350,
  "Ġeasy": 6351,
  "åŁºéĩĳ": 6352,
  "à®³": 6353,
  "Ġtaken": 6354,
  "Ġapproach": 6355,
  "åĿļæĮģ": 6356,
  "åİĭåĬĽ": 6357,
  "lor": 6358,
  "echan": 6359,
  ".)": 6360,
  "Õ¾": 6361,
  "Ġbenef": 6362,
  "stance": 6363,
  "Ġsource": 6364,
  "plied": 6365,
  "ĠÖ": 6366,
  "åĮĸçļĦ": 6367,
  "æķ´ä¸ª": 6368,
  "ĠCan": 6369,
  "erver": 6370,
  "Ġà¦¬": 6371,
  "ĠÐ¾Ð´": 6372,
  "Na": 6373,
  "sg": 6374,
  "aro": 6375,
  "box": 6376,
  "rec": 6377,
  "artment": 6378,
  ".W": 6379,
  "éļĶ": 6380,
  "book": 6381,
  "Ìģ": 6382,
  "Des": 6383,
  "è´´": 6384,
  "using": 6385,
  "éĺµ": 6386,
  "ÙĨÙīÚŃ": 6387,
  "iles": 6388,
  "Ġalmost": 6389,
  "åĨ°": 6390,
  "ĠÑĺÐµ": 6391,
  "Ð¸ÑģÑĤ": 6392,
  "_T": 6393,
  "Õ¸ÖĤÕ¶": 6394,
  "Ġprote": 6395,
  "ham": 6396,
  "valid": 6397,
  "ĠAc": 6398,
  "Ġcases": 6399,
  "owa": 6400,
  "Ġemp": 6401,
  "Ġhy": 6402,
  ")=": 6403,
  "kn": 6404,
  "$$\\": 6405,
  "ÙĪÙħ": 6406,
  "àª¨à«ĩ": 6407,
  "ìł": 6408,
  "äº¤éĢļ": 6409,
  "èĤ¿": 6410,
  "æĺł": 6411,
  "Ġfelt": 6412,
  "mod": 6413,
  "æ¯Ķå¦Ĥ": 6414,
  "ÏĥÏĦ": 6415,
  "çĸ¾çĹħ": 6416,
  "ä¾ĭå¦Ĥ": 6417,
  "çªĹ": 6418,
  "éĽ·": 6419,
  "Ġupon": 6420,
  "Ġdiffic": 6421,
  "ponent": 6422,
  "Ġà¤ī": 6423,
  "Ġartik": 6424,
  "uses": 6425,
  "Ġinn": 6426,
  "Ġà¨¹": 6427,
  "medi": 6428,
  "[]": 6429,
  "Ġâ": 6430,
  "è´¦": 6431,
  "plit": 6432,
  "åĳĺå·¥": 6433,
  "anti": 6434,
  "idi": 6435,
  "Ġstory": 6436,
  "Ġworks": 6437,
  "mb": 6438,
  "èĪŀ": 6439,
  "áĭµ": 6440,
  "çī¹å¾ģ": 6441,
  "Pr": 6442,
  "Ġini": 6443,
  "ÑĥÐ½": 6444,
  "é»ŀ": 6445,
  "ĠâĢŀ": 6446,
  "ĠÃ¬": 6447,
  "çĽ¸å¯¹": 6448,
  "Ġwr": 6449,
  "Ø£": 6450,
  "áłİáłł": 6451,
  "łáĥ": 6452,
  ")\\": 6453,
  "Ġ×Ļ": 6454,
  "×¦": 6455,
  "à²³": 6456,
  "angle": 6457,
  "ãĢĢ": 6458,
  "à¨¹": 6459,
  "çļĩ": 6460,
  "à®Ł": 6461,
  "elo": 6462,
  "Ò³": 6463,
  "ÒŃ": 6464,
  "ahan": 6465,
  "áĢĨ": 6466,
  "çĶŁåĳ½": 6467,
  "Ġàª¸": 6468,
  "Ġig": 6469,
  "Ġeg": 6470,
  "Ġmun": 6471,
  "nih": 6472,
  "anced": 6473,
  "cdots": 6474,
  "Ġmass": 6475,
  "IG": 6476,
  "Ġrather": 6477,
  "åķĨåĵģ": 6478,
  "Ġcompon": 6479,
  "Ġwo": 6480,
  "ede": 6481,
  "Ġbool": 6482,
  "Ġuntuk": 6483,
  "Ġpotential": 6484,
  "Ġintegr": 6485,
  "ï¼İ": 6486,
  "minist": 6487,
  "ãģĻ": 6488,
  "eff": 6489,
  "ÐĿ": 6490,
  "Ġstandard": 6491,
  "Ġexpect": 6492,
  "ì§": 6493,
  "ĠÐ°Ð»": 6494,
  "Ġdescrib": 6495,
  "ä¹³": 6496,
  "imb": 6497,
  "Ġdam": 6498,
  "Ġactually": 6499,
  "Ġsaw": 6500,
  "So": 6501,
  "à¤¾à¤Ĥ": 6502,
  "å·¥åħ·": 6503,
  "è´¥": 6504,
  "Ġsurface": 6505,
  "æº¶": 6506,
  "æĹ§": 6507,
  "à©°": 6508,
  "éĢļå¸¸": 6509,
  "æĹ¶ä»£": 6510,
  "Ġespec": 6511,
  "Ġ×Ľ": 6512,
  "Ð¸Ð´": 6513,
  "Ġ};": 6514,
  "ä¹±": 6515,
  "à½ģ": 6516,
  "æ¯ıä¸ª": 6517,
  "å¤®": 6518,
  "Ġib": 6519,
  "ports": 6520,
  "ÑĤÐ¾": 6521,
  "ĠDes": 6522,
  "='": 6523,
  "ĠØ£": 6524,
  "äº¦": 6525,
  "_w": 6526,
  "Bl": 6527,
  "æģ¶": 6528,
  "gs": 6529,
  "iddle": 6530,
  "Ð¢": 6531,
  "ç¶ĵ": 6532,
  "åĵ¥": 6533,
  "ĠHer": 6534,
  "Ġfive": 6535,
  "Ġlive": 6536,
  "utions": 6537,
  "Size": 6538,
  "ĠÙħÙĨ": 6539,
  "trans": 6540,
  "Ġov": 6541,
  "Ġpubl": 6542,
  "æ¹¿": 6543,
  "à¨Ĥ": 6544,
  "ãĢĤãĢĤ": 6545,
  "æ´ģ": 6546,
  "list": 6547,
  "Ġimprove": 6548,
  "çļĦéĩįè¦ģ": 6549,
  "Ġeconom": 6550,
  "ĠEl": 6551,
  "éĤ£äºĽ": 6552,
  "Ġfrequ": 6553,
  "Ġcomplex": 6554,
  "Ġbring": 6555,
  "å¯»": 6556,
  "-y": 6557,
  "ĠEurope": 6558,
  "Ġprod": 6559,
  "à«įàª¯": 6560,
  "Ġhor": 6561,
  "ticle": 6562,
  "Ġmel": 6563,
  ".cl": 6564,
  "ram": 6565,
  "èĩªèº«": 6566,
  "sequ": 6567,
  "åģļå¥½": 6568,
  "çº¯": 6569,
  "åİŁåĪĻ": 6570,
  "ï¼ģâĢĿ": 6571,
  "ĠØ§Ø²": 6572,
  "OM": 6573,
  "ques": 6574,
  "Ġpret": 6575,
  "nosti": 6576,
  "Ġauthor": 6577,
  "kin": 6578,
  "åĩĿ": 6579,
  "å®ĥä»¬": 6580,
  "è¯Ńè¨Ģ": 6581,
  "ÑĭÐ·": 6582,
  "ç²Ĵ": 6583,
  "Ġáłł": 6584,
  "æķı": 6585,
  "å°¿": 6586,
  "ĠSte": 6587,
  "Ġfu": 6588,
  "è¿Ĳè¡Į": 6589,
  "ìĹĲ": 6590,
  ".app": 6591,
  "Ġham": 6592,
  "à«ĩàª": 6593,
  "Ġcity": 6594,
  "çĪ¸": 6595,
  "éĹŃ": 6596,
  "Ġthrow": 6597,
  "ç¬¦åĲĪ": 6598,
  "ĠMay": 6599,
  "åĳĪ": 6600,
  "Æ°á»": 6601,
  "ENT": 6602,
  "When": 6603,
  "Äįi": 6604,
  "Ġhours": 6605,
  "éķľ": 6606,
  "!!": 6607,
  "ç¦ģ": 6608,
  "è«": 6609,
  "Ġvia": 6610,
  "Ġnas": 6611,
  "Ġlevels": 6612,
  "áĭ°": 6613,
  "Ġnak": 6614,
  "Ġopportun": 6615,
  "Ġáłłáł": 6616,
  "åľĪ": 6617,
  "Ġutil": 6618,
  "áĢĶáĢºáĢ": 6619,
  "aju": 6620,
  "Ġeverything": 6621,
  "rup": 6622,
  "-g": 6623,
  "Ġmonths": 6624,
  "create": 6625,
  "áł£áł": 6626,
  "Ġloss": 6627,
  "nie": 6628,
  "leep": 6629,
  "ĠâĢĿ": 6630,
  "Ġsystems": 6631,
  "alan": 6632,
  "åĪ¸": 6633,
  "ÑĭÒĽ": 6634,
  "Ġpaper": 6635,
  "èĪĩ": 6636,
  "aven": 6637,
  "à½Ģ": 6638,
  "ä½ľåĵģ": 6639,
  "Ġsolution": 6640,
  "èĤ¯": 6641,
  "Ġà¹ī": 6642,
  "æĲŃ": 6643,
  "é¥Ń": 6644,
  "Ġsimple": 6645,
  "Î±Î½": 6646,
  "é½Ĳ": 6647,
  "æ¸©åº¦": 6648,
  "ĠÎºÎ±Î¹": 6649,
  "®à¯į": 6650,
  "èĦĤ": 6651,
  "à©±à¨": 6652,
  "duct": 6653,
  "Ø¯Ø§": 6654,
  "dan": 6655,
  "å¯¹è±¡": 6656,
  "earch": 6657,
  "ä¼ĺåĬ¿": 6658,
  "éĽĨåĽ¢": 6659,
  "é¥°": 6660,
  "à¤¿à¤¯": 6661,
  "Ġnothing": 6662,
  "ĠCont": 6663,
  "({": 6664,
  "èĢ³": 6665,
  "è§ĦèĮĥ": 6666,
  "Ġale": 6667,
  "å«": 6668,
  "Ġvalid": 6669,
  "ĠÚ": 6670,
  "ç§ĺ": 6671,
  "exp": 6672,
  "Ġfeatures": 6673,
  "Status": 6674,
  "Ġbur": 6675,
  "Ġbehavi": 6676,
  "çļĦå½±åĵį": 6677,
  "}}": 6678,
  "Ġstay": 6679,
  ">>": 6680,
  "Ġfast": 6681,
  "ÛĶ": 6682,
  "èļ": 6683,
  "äº¤æµģ": 6684,
  "Ġoptions": 6685,
  "ĠJohn": 6686,
  "ĠAfter": 6687,
  "raft": 6688,
  "yan": 6689,
  "inary": 6690,
  "ressed": 6691,
  "mar": 6692,
  "run": 6693,
  "Ġdengan": 6694,
  "Ġdz": 6695,
  "struction": 6696,
  "><": 6697,
  "PC": 6698,
  "Ô¥": 6699,
  "ç»ĦæĪĲ": 6700,
  "yon": 6701,
  "Ġprovided": 6702,
  "Ġfund": 6703,
  "ä¼ļè®®": 6704,
  "å¼Ł": 6705,
  "Ġà¤®à¥ĩà¤Ĥ": 6706,
  "Ġstatus": 6707,
  "lim": 6708,
  "à¦¬": 6709,
  "Ġtok": 6710,
  "elling": 6711,
  "Ġnear": 6712,
  "ç¡®ä¿Ŀ": 6713,
  "è§ĦåĪĴ": 6714,
  "è¾ĳ": 6715,
  "Element": 6716,
  "é«ĺçļĦ": 6717,
  "æ§": 6718,
  "Ã«n": 6719,
  "çĥ§": 6720,
  "æľºä¼ļ": 6721,
  "ico": 6722,
  "Ġot": 6723,
  "Ġsave": 6724,
  "èĢħçļĦ": 6725,
  "à»Ħ": 6726,
  "çĶµè¯Ŀ": 6727,
  "ä¹ĭéĹ´çļĦ": 6728,
  "æ³Ľ": 6729,
  "verage": 6730,
  "Ġ\"\"\"": 6731,
  "Fr": 6732,
  "ĠØ²": 6733,
  "Ġidea": 6734,
  "Ġkor": 6735,
  "áĢĦáĢ·": 6736,
  "åįģåĪĨ": 6737,
  "åĸĿ": 6738,
  "Ġphot": 6739,
  "[\"": 6740,
  "pet": 6741,
  "èĤĿ": 6742,
  "uu": 6743,
  "ternal": 6744,
  "Ġpoints": 6745,
  "ãĤĮ": 6746,
  "Ø§Ø¦": 6747,
  "Ġsomeone": 6748,
  "èĪ¹": 6749,
  "Ġshows": 6750,
  "åĲī": 6751,
  "æľŁéĹ´": 6752,
  "çĶ¨çļĦ": 6753,
  "ÐµÐ·": 6754,
  "åºĶå½ĵ": 6755,
  "Ġcomes": 6756,
  "å°ıæĹ¶": 6757,
  "Ð°ÑģÑĤ": 6758,
  "vol": 6759,
  "æ®Ĭ": 6760,
  "thu": 6761,
  "itional": 6762,
  "å¦ĩ": 6763,
  "Ab": 6764,
  "Ġrefer": 6765,
  "àº¥": 6766,
  "Ġvideo": 6767,
  "Ġfinanc": 6768,
  "des": 6769,
  "èªª": 6770,
  "astic": 6771,
  "Å¾e": 6772,
  "Ä¾": 6773,
  "æ¯ĶèµĽ": 6774,
  "Ġenjoy": 6775,
  "æ´ĭ": 6776,
  "Õ¯": 6777,
  "Ġeller": 6778,
  "Ġbud": 6779,
  "æĺİç¡®": 6780,
  "alar": 6781,
  "Ġsepar": 6782,
  "oph": 6783,
  "Ġlink": 6784,
  "anguage": 6785,
  "Ġfriend": 6786,
  "Ġanswer": 6787,
  "Ġàª®": 6788,
  "Ġsit": 6789,
  "Ġknew": 6790,
  "Ġhands": 6791,
  "Ġnetwork": 6792,
  "urch": 6793,
  "ä¸ĭçļĦ": 6794,
  "Ġnode": 6795,
  "\"ãĢĤ": 6796,
  "åĩłä¸ª": 6797,
  "æĭ¥æľī": 6798,
  "econd": 6799,
  "Log": 6800,
  "apter": 6801,
  "Ġnem": 6802,
  "ĠVal": 6803,
  "Ö¸": 6804,
  "Wh": 6805,
  "_C": 6806,
  "Ġexpected": 6807,
  "Ãłn": 6808,
  "Field": 6809,
  "_{\\": 6810,
  "áĢĢáĢŃáĢ¯": 6811,
  "elect": 6812,
  "Ġker": 6813,
  "ĠÑģÐ²": 6814,
  "izing": 6815,
  "ĠBy": 6816,
  "aja": 6817,
  "åģ¿": 6818,
  "éĴĪå¯¹": 6819,
  "map": 6820,
  "áį¢": 6821,
  "ixed": 6822,
  "ĠAg": 6823,
  "lete": 6824,
  "HT": 6825,
  "åĩ½": 6826,
  "ĠAdd": 6827,
  "ÙĥÙī": 6828,
  "verse": 6829,
  "éĻĨ": 6830,
  "æµĵ": 6831,
  "æ²Ł": 6832,
  "Ġcontinue": 6833,
  "Ġmeasure": 6834,
  "Ġchall": 6835,
  "æĬ½": 6836,
  "ĠÏĦÎ¿Ïħ": 6837,
  "Ġconcent": 6838,
  "Ġdate": 6839,
  "Ph": 6840,
  "Ġblack": 6841,
  "Ġclient": 6842,
  "ÑĸÐº": 6843,
  "à§Ģ": 6844,
  "èį£": 6845,
  "'e": 6846,
  "Ġcannot": 6847,
  "Ø¶": 6848,
  "selves": 6849,
  "OD": 6850,
  "igma": 6851,
  "à·ĥ": 6852,
  "awo": 6853,
  "Ġeye": 6854,
  "Ġactivity": 6855,
  "ãĥ¼": 6856,
  "ä½ĵéªĮ": 6857,
  "Ġbehind": 6858,
  "èĤ¥": 6859,
  "Ġproced": 6860,
  "Over": 6861,
  "çľŁæŃ£": 6862,
  "ikan": 6863,
  "ental": 6864,
  "çİ°è±¡": 6865,
  "å¯¦": 6866,
  "Ġdouble": 6867,
  "Ġeffects": 6868,
  "Ġwasn": 6869,
  "æľºåĪ¶": 6870,
  "azi": 6871,
  "Ġflow": 6872,
  "áĢħáĢºáĢ": 6873,
  "Ġoffic": 6874,
  "Ġpercent": 6875,
  "åĨł": 6876,
  "çĽĽ": 6877,
  "aha": 6878,
  "è¿Ļæł·çļĦ": 6879,
  "Ġseason": 6880,
  "Ġkad": 6881,
  "Ġmiss": 6882,
  "-a": 6883,
  "atform": 6884,
  "æľªæĿ¥": 6885,
  "ĠNe": 6886,
  "åºĨ": 6887,
  "Ġah": 6888,
  "è°ĵ": 6889,
  "wá»įn": 6890,
  "Ġtek": 6891,
  "ĠJehova": 6892,
  "ĠEd": 6893,
  "zer": 6894,
  "é¢ľ": 6895,
  "ĠáĢĲ": 6896,
  "Ġ})": 6897,
  "Ġtou": 6898,
  "Ġcoll": 6899,
  "åŃ¦éĻ¢": 6900,
  "amin": 6901,
  "åħ¨çĲĥ": 6902,
  "Ġblood": 6903,
  "åı¦å¤ĸ": 6904,
  "à¸±à¸": 6905,
  "Ġlikely": 6906,
  "OL": 6907,
  "Class": 6908,
  "ival": 6909,
  "lec": 6910,
  "à¯įà®ª": 6911,
  "Ġtar": 6912,
  "à¶§": 6913,
  "tional": 6914,
  "Ġlength": 6915,
  "Ġwak": 6916,
  "áĬ¥": 6917,
  "å½ĵçĦ¶": 6918,
  "çĦ¡": 6919,
  "Ġtaking": 6920,
  "begin": 6921,
  "åĲİçļĦ": 6922,
  "ĠPol": 6923,
  "Ġstra": 6924,
  "åĮ»çĸĹ": 6925,
  "æľĢå¤§": 6926,
  "Hand": 6927,
  "Ġclean": 6928,
  "æĳĦ": 6929,
  "ops": 6930,
  "amma": 6931,
  "ugh": 6932,
  "åķĨä¸ļ": 6933,
  "Be": 6934,
  "lem": 6935,
  "Ġvisit": 6936,
  "å°Ĭ": 6937,
  "ĠÓ©": 6938,
  "MS": 6939,
  "Ġentire": 6940,
  "Ġelement": 6941,
  "å§Ĳ": 6942,
  "æĥ¯": 6943,
  "è¾Ĩ": 6944,
  "æĮĩæłĩ": 6945,
  "Ġgroups": 6946,
  "actions": 6947,
  "åŃķ": 6948,
  "è¯¾ç¨ĭ": 6949,
  "Ð°ÒĽ": 6950,
  "å¥¥": 6951,
  "æķĪçİĩ": 6952,
  "å¦ĤæŃ¤": 6953,
  "Ġdeb": 6954,
  "å·Ŀ": 6955,
  "sen": 6956,
  "Ġintro": 6957,
  "ĠÏĥÏĦ": 6958,
  "Î²": 6959,
  "ided": 6960,
  "Ġhistory": 6961,
  "Ġapplication": 6962,
  "position": 6963,
  "Õ´": 6964,
  "áŀľ": 6965,
  "å¿«éĢŁ": 6966,
  "å³°": 6967,
  "è¿Ļä¹Ī": 6968,
  "åĽŀçŃĶ": 6969,
  "pen": 6970,
  "åĪ¶éĢł": 6971,
  "Ġinvestig": 6972,
  "áŁĴáŀļ": 6973,
  "ä¹Łåı¯ä»¥": 6974,
  "é¼ĵ": 6975,
  "ĠáĢ±": 6976,
  "Ġà¤ªà¥įà¤°": 6977,
  "Ö°": 6978,
  "æķħäºĭ": 6979,
  "éī": 6980,
  "El": 6981,
  "Ġstructure": 6982,
  "åĨħéĥ¨": 6983,
  "Reg": 6984,
  "Õ¥ÖĢÕ": 6985,
  "iso": 6986,
  "Ġregion": 6987,
  "abase": 6988,
  "ç¼ĺ": 6989,
  "éķ¿æľŁ": 6990,
  "Ġperfect": 6991,
  "ĠDo": 6992,
  "Ġia": 6993,
  "æĥł": 6994,
  "ĠThen": 6995,
  "igned": 6996,
  "Ġcountry": 6997,
  "ĠBo": 6998,
  "Ø¯Ùĩ": 6999,
  "Ġspecies": 7000,
  "Ġ__": 7001,
  "æ¢°": 7002,
  "å¾ª": 7003,
  "Ġassociated": 7004,
  "Ġful": 7005,
  "Ġitem": 7006,
  "Ġ``": 7007,
  "à±ģà°": 7008,
  "ran": 7009,
  "Ġinside": 7010,
  "atory": 7011,
  "dy": 7012,
  "è§Ħæ¨¡": 7013,
  "ä¸įåĪ°": 7014,
  "ameter": 7015,
  "Ġcompet": 7016,
  "Ġdisplay": 7017,
  "bor": 7018,
  "ÑĸÐ´": 7019,
  "éĽ»": 7020,
  "Ġtypes": 7021,
  "à¯Īà®": 7022,
  "èįĲ": 7023,
  "uje": 7024,
  "Ġminutes": 7025,
  "Ðŀ": 7026,
  "éģį": 7027,
  "åĽºå®ļ": 7028,
  "æŃ£åľ¨": 7029,
  "Ġmm": 7030,
  "áĢĳ": 7031,
  "Ä±nd": 7032,
  "ĠĊĊ": 7033,
  "àµĨ": 7034,
  "éĺħè¯»": 7035,
  "Ġsav": 7036,
  "æĥĬ": 7037,
  "Form": 7038,
  "ĠĠĠĠĠĠĠĠĠĠĠĠ": 7039,
  "Ġinflu": 7040,
  "(int": 7041,
  "gl": 7042,
  "ĠáĢķ": 7043,
  "Ð½Ñı": 7044,
  "è±Ĩ": 7045,
  "Ġconsum": 7046,
  "èĩªçĶ±": 7047,
  "éĩįè¦ģçļĦ": 7048,
  "à³ĩ": 7049,
  "ĠáĢľ": 7050,
  "Ġcard": 7051,
  "bol": 7052,
  "ilter": 7053,
  "Ġestim": 7054,
  "áĥķ": 7055,
  "Ġweight": 7056,
  "Ġdog": 7057,
  "Ġinj": 7058,
  "Ġvel": 7059,
  "ä¾µ": 7060,
  "ĠII": 7061,
  "url": 7062,
  "ï½": 7063,
  "å·§": 7064,
  "Ġground": 7065,
  "Ġevalu": 7066,
  "Ġcamp": 7067,
  "×ķ×¨": 7068,
  "Ġlan": 7069,
  "ĠDav": 7070,
  "ä¸ĢçĤ¹": 7071,
  "à¤Ł": 7072,
  "xx": 7073,
  "Ġgb": 7074,
  "Ð°Ð½Ñĭ": 7075,
  "æł¸å¿ĥ": 7076,
  "/s": 7077,
  ".is": 7078,
  "è¿·": 7079,
  "Ã©n": 7080,
  "ĠáĥĽ": 7081,
  "col": 7082,
  "Ġadded": 7083,
  "éĿ¢ç§¯": 7084,
  "Ġà¤ķà¤°": 7085,
  "osh": 7086,
  "unction": 7087,
  "èį¯çī©": 7088,
  "è½´": 7089,
  "Ġmob": 7090,
  "Col": 7091,
  "Ġmanagement": 7092,
  "iety": 7093,
  "çĽŁ": 7094,
  "æ°ĳæĹı": 7095,
  "lin": 7096,
  "åĢį": 7097,
  "ĠGu": 7098,
  "ÑĥÑĤ": 7099,
  "çĪĨ": 7100,
  "($": 7101,
  "áĢĶáĢ¹": 7102,
  "ynam": 7103,
  "ĠMin": 7104,
  "Ġtrying": 7105,
  "Ġimplement": 7106,
  "àº¹": 7107,
  "irt": 7108,
  "à¤¿à¤¤": 7109,
  "Ġsek": 7110,
  "ria": 7111,
  "çĶŁçļĦ": 7112,
  "è§Ī": 7113,
  "è°ĥæŁ¥": 7114,
  "Ã§Ã£o": 7115,
  "Ġtin": 7116,
  "Ġcas": 7117,
  "æĮ¯": 7118,
  "è¯ļ": 7119,
  "Ġestabl": 7120,
  "æ¡¥": 7121,
  "àº²àºĻ": 7122,
  "à¤§": 7123,
  "Ġimpact": 7124,
  "Ġmechan": 7125,
  "Message": 7126,
  "Ġà¨¨": 7127,
  "áī²": 7128,
  "ĠNa": 7129,
  "ĠSup": 7130,
  "Õ¶Õ¥ÖĢ": 7131,
  "ĠÚ©Ùĩ": 7132,
  "enda": 7133,
  "ĠChrist": 7134,
  "Ġbelieve": 7135,
  "CC": 7136,
  "Ðļ": 7137,
  "ÏģÎ¹": 7138,
  "room": 7139,
  ".e": 7140,
  "ride": 7141,
  "Ġgj": 7142,
  "older": 7143,
  "Ġwebsite": 7144,
  "ando": 7145,
  "Ġclaim": 7146,
  "à½ŀ": 7147,
  "è¿ĩåİ»": 7148,
  "çī©è´¨": 7149,
  "àºª": 7150,
  "ĠGo": 7151,
  "å¹¶ä¸į": 7152,
  "å¡«": 7153,
  "---": 7154,
  "è¶ĭ": 7155,
  "Ġtraining": 7156,
  "ctx": 7157,
  "ĠkÃ¶": 7158,
  "Ġce": 7159,
  "Ġvoor": 7160,
  "ĠvÃµ": 7161,
  "Ġmatter": 7162,
  "uly": 7163,
  "à¨¦": 7164,
  "cm": 7165,
  "è£Ĥ": 7166,
  "Ġaccept": 7167,
  "Att": 7168,
  "ĠIN": 7169,
  "aye": 7170,
  "ÐºÐ°": 7171,
  "Ġpack": 7172,
  "æĺ¯ä¸Ģç§į": 7173,
  "éŀ": 7174,
  "áŀ½": 7175,
  "å±ı": 7176,
  "Ġaud": 7177,
  "iden": 7178,
  "Ġaccording": 7179,
  "Ġknowledge": 7180,
  "omet": 7181,
  "Ġbag": 7182,
  "áĢĬáĢ¹": 7183,
  "Ð´Ðµ": 7184,
  "ĠAmerican": 7185,
  "IV": 7186,
  "atin": 7187,
  "Ġexec": 7188,
  "HE": 7189,
  "Ġterms": 7190,
  "æĻ®éĢļ": 7191,
  "Ã¼r": 7192,
  "å¦Ĥä¸ĭ": 7193,
  "ĠCal": 7194,
  "Ġwall": 7195,
  "à§ĩà¦°": 7196,
  "ç£¨": 7197,
  "çĹĩçĬ¶": 7198,
  "Ġpun": 7199,
  "áŀĤ": 7200,
  "Ġquite": 7201,
  "ĠáĬł": 7202,
  "å°±åı¯ä»¥": 7203,
  "ä¿¡åı·": 7204,
  "é«Ķ": 7205,
  "Ġcontr": 7206,
  "Ġfilm": 7207,
  "Ġreported": 7208,
  "Ġmicro": 7209,
  "Ġforward": 7210,
  "åıªèĥ½": 7211,
  "Ġida": 7212,
  "Ġsend": 7213,
  "áģĬ": 7214,
  "_h": 7215,
  "Ġdiag": 7216,
  "è®°å½ķ": 7217,
  "Ġespecially": 7218,
  "come": 7219,
  "Ġsix": 7220,
  "Ġseries": 7221,
  "ÙīÙĦÙī": 7222,
  "matrix": 7223,
  "åį«çĶŁ": 7224,
  "istance": 7225,
  "Ġbul": 7226,
  "éĽĦ": 7227,
  "Ġnatural": 7228,
  "ìķ": 7229,
  "Input": 7230,
  "¨àµįà´": 7231,
  "ìĭ": 7232,
  "å²Ĺ": 7233,
  "Ð£": 7234,
  "é»ĺ": 7235,
  "Å¡e": 7236,
  "ĠList": 7237,
  "Ġtrack": 7238,
  "PE": 7239,
  "æĲľ": 7240,
  "ä¸ĭæĿ¥": 7241,
  "SE": 7242,
  "osa": 7243,
  "éĤĦ": 7244,
  "uments": 7245,
  "ĠJesus": 7246,
  "å¹³åĿĩ": 7247,
  "Ð½Ñĸ": 7248,
  "}$$": 7249,
  "×Ł": 7250,
  "ente": 7251,
  "oku": 7252,
  "ĠNot": 7253,
  "å¡ŀ": 7254,
  "ibot": 7255,
  "Ġtax": 7256,
  "eno": 7257,
  "ë¡": 7258,
  "áĮį": 7259,
  "usa": 7260,
  "ady": 7261,
  "çĩĥ": 7262,
  "'ve": 7263,
  "Ġgrowth": 7264,
  "Ġshare": 7265,
  "Array": 7266,
  "MA": 7267,
  "å¿Ļ": 7268,
  "Ġmedia": 7269,
  "åıĳæĮ¥": 7270,
  "Ġproblems": 7271,
  "rid": 7272,
  "Ġpick": 7273,
  "ê°Ģ": 7274,
  "IR": 7275,
  "åĪĽéĢł": 7276,
  "Ġdifficult": 7277,
  "èħ¹": 7278,
  "uns": 7279,
  "Ġcirc": 7280,
  "Ġweb": 7281,
  "Ġorganiz": 7282,
  "onom": 7283,
  "tics": 7284,
  "Ġá¹£": 7285,
  "à²ķ": 7286,
  "èĤł": 7287,
  "abor": 7288,
  "áĪ«": 7289,
  "este": 7290,
  "input": 7291,
  "Ġsort": 7292,
  "!âĢĿ": 7293,
  "tn": 7294,
  "ales": 7295,
  "ification": 7296,
  "Ġregard": 7297,
  "Ġenter": 7298,
  "Ð¾ÑģÑĤ": 7299,
  "ĠPre": 7300,
  "æķ°åŃĹ": 7301,
  "andi": 7302,
  "Äģs": 7303,
  "å¡ĳ": 7304,
  "æ³¡": 7305,
  "å°¾": 7306,
  "Ġ**": 7307,
  "Ġmeg": 7308,
  "æµª": 7309,
  "indows": 7310,
  "æ¯ıå¤©": 7311,
  "Ġcomplete": 7312,
  "lambda": 7313,
  "Ġkay": 7314,
  "Ġareas": 7315,
  "ÑģÑı": 7316,
  "Ġsett": 7317,
  "æīĢç¤º": 7318,
  "æĪĲç«ĭ": 7319,
  "Ġwatch": 7320,
  "Ġsud": 7321,
  "redit": 7322,
  "à½ļ": 7323,
  "-st": 7324,
  "å¿ħè¦ģ": 7325,
  "Ġkal": 7326,
  "æľĢç»Ī": 7327,
  "Ġáł°": 7328,
  "lament": 7329,
  "Ġrecogn": 7330,
  "è·³": 7331,
  "ĠIntern": 7332,
  "æļĹ": 7333,
  "Ġconsidered": 7334,
  "}}{": 7335,
  "Ġpull": 7336,
  "æĿ¨": 7337,
  "Ġmusic": 7338,
  "Ġcam": 7339,
  "Ġturned": 7340,
  "My": 7341,
  "irit": 7342,
  "ires": 7343,
  "ĠÕ¶": 7344,
  "Ġwhite": 7345,
  "Ġrelated": 7346,
  "Ġbuilding": 7347,
  "èī²çļĦ": 7348,
  "Ġquestions": 7349,
  "omo": 7350,
  "è¾ħ": 7351,
  "Ġprobably": 7352,
  "Ġproperty": 7353,
  "Ġwrite": 7354,
  "éĨĴ": 7355,
  "Ġkum": 7356,
  "jet": 7357,
  "Ġdim": 7358,
  "Å¡t": 7359,
  "ĠQu": 7360,
  "eks": 7361,
  "Ġincreased": 7362,
  "Ġud": 7363,
  "åĶĲ": 7364,
  "å®ĮåĸĦ": 7365,
  "à¹Ģà¸": 7366,
  "ĠSet": 7367,
  "à«ģàªĤ": 7368,
  "æµĭè¯ķ": 7369,
  "åĪ¶å®ļ": 7370,
  "Ãªn": 7371,
  "èµĦæľ¬": 7372,
  "éī´": 7373,
  "åĨ¬": 7374,
  "anch": 7375,
  "éĢĤåĲĪ": 7376,
  "pace": 7377,
  "åĬĽéĩı": 7378,
  "Trans": 7379,
  "èĢĹ": 7380,
  "Ġà¨µ": 7381,
  "eq": 7382,
  "áī£": 7383,
  "åıĳå¸ĥ": 7384,
  "åĨľä¸ļ": 7385,
  "Ġcer": 7386,
  "ĠGe": 7387,
  "Ġarr": 7388,
  "Ġcompan": 7389,
  "éĢ²": 7390,
  "èĽĭçĻ½": 7391,
  "å¸Ń": 7392,
  "mes": 7393,
  "åĬŀæ³ķ": 7394,
  "Ġdeep": 7395,
  "Ä¼": 7396,
  "åĽ¢éĺŁ": 7397,
  "å¸¦æĿ¥": 7398,
  "osi": 7399,
  "ounds": 7400,
  "å£ģ": 7401,
  "auti": 7402,
  "Ġtemperature": 7403,
  "plications": 7404,
  "Ġrecomm": 7405,
  "++)": 7406,
  "åĪ¶ä½ľ": 7407,
  "incip": 7408,
  "åĬłå·¥": 7409,
  "ãģ¾": 7410,
  "æ·»": 7411,
  "æľīäºº": 7412,
  "Ġevents": 7413,
  "áī½": 7414,
  "èĪĴ": 7415,
  "çİ°åľº": 7416,
  "Ã©Ì£": 7417,
  "Ġkit": 7418,
  "tures": 7419,
  "å°º": 7420,
  "ÐĴ": 7421,
  "Ġmodels": 7422,
  "âĢ¯áł¤áł¨": 7423,
  "_data": 7424,
  "active": 7425,
  "board": 7426,
  "æīĢè¿°": 7427,
  "é¸¡": 7428,
  "Ġsense": 7429,
  "rew": 7430,
  "Ġrow": 7431,
  "æķ¢": 7432,
  "ously": 7433,
  "sl": 7434,
  "åĪĳ": 7435,
  "ê·": 7436,
  "ĠØ±Ø§": 7437,
  "Ġfire": 7438,
  "å¹ķ": 7439,
  "cont": 7440,
  "ï¼īãĢĤ": 7441,
  "pub": 7442,
  "ilo": 7443,
  "çĽĲ": 7444,
  "From": 7445,
  "Ġmit": 7446,
  "Ġdeath": 7447,
  "Def": 7448,
  "çķ¶": 7449,
  "Code": 7450,
  "Ġexperi": 7451,
  "ĠtÃŃ": 7452,
  "ä¸īä¸ª": 7453,
  "Ġmach": 7454,
  "à³įà²¨": 7455,
  "è®¯": 7456,
  "ÑĸÑĢ": 7457,
  "-S": 7458,
  "åĬłåħ¥": 7459,
  "æĳ©": 7460,
  "åł´": 7461,
  "æİ¨èįĲ": 7462,
  "å½ĵæĹ¶": 7463,
  "ients": 7464,
  "äººæīį": 7465,
  "Ġconsole": 7466,
  "Ġhost": 7467,
  "cz": 7468,
  "çī¹æ®Ĭ": 7469,
  "å®£ä¼ł": 7470,
  "ball": 7471,
  "aint": 7472,
  "è´Ńä¹°": 7473,
  "æł·çļĦ": 7474,
  "Ġà¤¹à¥Ī": 7475,
  "äº¡": 7476,
  "Ġhimself": 7477,
  "Ġprovides": 7478,
  "Ġprice": 7479,
  "è´¸": 7480,
  "å®ĥçļĦ": 7481,
  "æ·¡": 7482,
  "åĶĶ": 7483,
  "Ġmethods": 7484,
  "ĠàªĽ": 7485,
  "æļ´": 7486,
  "é¾Ħ": 7487,
  "åĪĢ": 7488,
  "Ãºn": 7489,
  "Ġsig": 7490,
  "kim": 7491,
  "Ġcalcul": 7492,
  "Ġub": 7493,
  "ploye": 7494,
  "èĵĿ": 7495,
  "ensive": 7496,
  "Client": 7497,
  "å²Ľ": 7498,
  "Ġwoman": 7499,
  "Ð»Ñı": 7500,
  "Ġdalam": 7501,
  "Ġdemon": 7502,
  "ĠLa": 7503,
  "å®īæİĴ": 7504,
  "ĠÕ¡Õ": 7505,
  "åĪ·": 7506,
  "Ġoptim": 7507,
  "Ġprior": 7508,
  "uted": 7509,
  "lege": 7510,
  "ĠáĬ¨": 7511,
  "Õ¸Õ¾": 7512,
  "Ġlu": 7513,
  "å¯Ĵ": 7514,
  "ãģĭ": 7515,
  "è¿Ķ": 7516,
  "ione": 7517,
  "à¶¯": 7518,
  "Ġfriends": 7519,
  "ÏģÎ±": 7520,
  "html": 7521,
  "åĪĨä¸º": 7522,
  "Ġpattern": 7523,
  "äºĭä¸ļ": 7524,
  "è§Ĥå¯Ł": 7525,
  "Ø°": 7526,
  "atur": 7527,
  "Ġà¤ı": 7528,
  "ceed": 7529,
  "sem": 7530,
  "áĢķáĢºáĢ": 7531,
  "æļĸ": 7532,
  "oka": 7533,
  "éĩĩåıĸ": 7534,
  "à¤Ń": 7535,
  "à½¼à½ĳ": 7536,
  "ĠnÃ¡": 7537,
  "abb": 7538,
  "åıĳå±ķçļĦ": 7539,
  "Output": 7540,
  "Ġdro": 7541,
  "').": 7542,
  ">,": 7543,
  "ĠØ§Ø³Øª": 7544,
  "æĽ¿": 7545,
  "Ġcommunic": 7546,
  "à¤¼": 7547,
  "å°¤åħ¶": 7548,
  "Ĥ¬": 7549,
  "Ġstore": 7550,
  "åĬĽçļĦ": 7551,
  "esa": 7552,
  "áĢĬáĢº": 7553,
  "áłłáł¯": 7554,
  "Ġple": 7555,
  "åı¦ä¸Ģ": 7556,
  "Õ¸ÖĤÕ©Õµ": 7557,
  "Button": 7558,
  "çº·": 7559,
  "dom": 7560,
  "å¢Ļ": 7561,
  "Ġole": 7562,
  "Õ§": 7563,
  "rown": 7564,
  "Ġstyle": 7565,
  "impl": 7566,
  "apan": 7567,
  "Ġps": 7568,
  "Ġtum": 7569,
  "Ġcross": 7570,
  "Ġwan": 7571,
  "Ġnaj": 7572,
  "æĺ¯æĮĩ": 7573,
  "æĪĺçķ¥": 7574,
  "ottom": 7575,
  "Ðĺ": 7576,
  "à¶½": 7577,
  "å¹¼åĦ¿": 7578,
  "ç¹ģ": 7579,
  "æĢ§åĴĮ": 7580,
  "Rec": 7581,
  "Ġwonder": 7582,
  "Å¯": 7583,
  "èĥĥ": 7584,
  "ĠOb": 7585,
  "Ġreturns": 7586,
  "Î¯Î±": 7587,
  "Ġarray": 7588,
  "åĪĨéĴŁ": 7589,
  "Ġcompared": 7590,
  "next": 7591,
  "iji": 7592,
  "×Ļ×ª": 7593,
  "æĪĲç»©": 7594,
  "æĺ¯ä»Ģä¹Ī": 7595,
  "../": 7596,
  "¥áł": 7597,
  "ipe": 7598,
  "raf": 7599,
  "Ġsoon": 7600,
  "æıĴ": 7601,
  "Ġdok": 7602,
  "Ġheld": 7603,
  "à§įà¦°": 7604,
  "Ġtechnology": 7605,
  "Å¡an": 7606,
  "æĬĢèĥ½": 7607,
  "ç»ıå¸¸": 7608,
  "ourn": 7609,
  "Ġsun": 7610,
  "è§Ĩé¢ĳ": 7611,
  "æĹłè®º": 7612,
  "æĿ¥è¶Ĭ": 7613,
  "Ġdraw": 7614,
  "Ġei": 7615,
  "Test": 7616,
  "-r": 7617,
  "Ġhit": 7618,
  "çļĦé«ĺ": 7619,
  "Ġatten": 7620,
  "Not": 7621,
  "ship": 7622,
  "////////": 7623,
  "ÑĥÐ¿": 7624,
  "ĠMa": 7625,
  "Ġprec": 7626,
  "Ġcause": 7627,
  "Ġpalibot": 7628,
  "elle": 7629,
  "å¦Īå¦Ī": 7630,
  "çĶŁæĢģ": 7631,
  "'ll": 7632,
  "åºĶçļĦ": 7633,
  "Ġinstall": 7634,
  "formation": 7635,
  "æīĭæľ¯": 7636,
  "æĦıè§ģ": 7637,
  "æķ´ä½ĵ": 7638,
  "(i": 7639,
  "éķ·": 7640,
  "just": 7641,
  "æĶ¯ä»ĺ": 7642,
  "åĪ©çĽĬ": 7643,
  "aves": 7644,
  "Ġprop": 7645,
  "åı¯æĺ¯": 7646,
  "à¨¾à¨Ĥ": 7647,
  "oad": 7648,
  "uge": 7649,
  "áŁĴáŀı": 7650,
  "ä»Ĭå¹´": 7651,
  "aren": 7652,
  "aze": 7653,
  "ä½ĵèĤ²": 7654,
  "Ġnote": 7655,
  "Ġproduction": 7656,
  "lam": 7657,
  "Ġframe": 7658,
  ")ãĢģ": 7659,
  "Ġgas": 7660,
  "è¶ĬæĿ¥è¶Ĭ": 7661,
  "ĠÐ±Ð¾Ð»": 7662,
  "erg": 7663,
  "request": 7664,
  "æİĮæı¡": 7665,
  "ithub": 7666,
  "xa": 7667,
  "Ġdit": 7668,
  "pat": 7669,
  "Ġlonger": 7670,
  "Ã¼l": 7671,
  "Ġconsist": 7672,
  "æī¬": 7673,
  "Ġindustry": 7674,
  "Ġoriginal": 7675,
  "FF": 7676,
  "è¯ģæĺİ": 7677,
  "Ã¥r": 7678,
  "Ġ...": 7679,
  "reet": 7680,
  "åŃĲçļĦ": 7681,
  "Ġband": 7682,
  "æ²¿": 7683,
  "Ġri": 7684,
  "çĦ¶èĢĮ": 7685,
  "ĠáĬĲ": 7686,
  "áĢĦáĢº": 7687,
  "www": 7688,
  "ä¸įè¶³": 7689,
  "ÑĤÑĭ": 7690,
  "ĠÅ©": 7691,
  "è¯º": 7692,
  "ä»ĸä»¬çļĦ": 7693,
  "van": 7694,
  "ä¸Ńå¤®": 7695,
  "Ġbat": 7696,
  "Ġmember": 7697,
  "Ġcreated": 7698,
  "Ġhair": 7699,
  "àº±àºĻàº": 7700,
  "alah": 7701,
  "miss": 7702,
  "Ġissues": 7703,
  "Ġrat": 7704,
  "Ġthird": 7705,
  "Ġà®ª": 7706,
  "æ¯«": 7707,
  "å§Ķåĳĺ": 7708,
  "à¸ģ": 7709,
  "Ġhon": 7710,
  "ML": 7711,
  "akt": 7712,
  "body": 7713,
  "Ġbuy": 7714,
  "urt": 7715,
  "risti": 7716,
  "åĲĽ": 7717,
  "Ġsection": 7718,
  "Ġhttp": 7719,
  "Ġáº": 7720,
  "pu": 7721,
  "isu": 7722,
  "anan": 7723,
  "å¿ĺ": 7724,
  "ograph": 7725,
  "Pos": 7726,
  "éŁ³ä¹Ĳ": 7727,
  "Ġdos": 7728,
  "Åµ": 7729,
  "æĻ¶": 7730,
  "ÙĦÛĮ": 7731,
  "æ¶¨": 7732,
  "ÑĸÐ²": 7733,
  "kat": 7734,
  "Ġtab": 7735,
  "ĠØ¨Ø±": 7736,
  "wrap": 7737,
  "è¡¨éĿ¢": 7738,
  "æĪª": 7739,
  "ç»Łä¸Ģ": 7740,
  "ĠvÃ¤": 7741,
  "PI": 7742,
  "Ġsou": 7743,
  "ä¸įçŁ¥éģĵ": 7744,
  "Ġà½": 7745,
  "åİħ": 7746,
  "àº²àº¡": 7747,
  "æĢ»ç»ĵ": 7748,
  "gor": 7749,
  "å¢ŀå¼º": 7750,
  "Ġdark": 7751,
  "eld": 7752,
  "****************": 7753,
  "áĪĽ": 7754,
  "-M": 7755,
  "¶áł¢áł¨": 7756,
  "Ġcenter": 7757,
  "ĠÐŁ": 7758,
  "éľĩ": 7759,
  "Ġeffort": 7760,
  "áŁħ": 7761,
  "ÙĩØ§": 7762,
  "æĹ¶æľŁ": 7763,
  "Ġmillion": 7764,
  "SS": 7765,
  "áĥ¡": 7766,
  "æĿĨ": 7767,
  "è¯¸": 7768,
  "æ½ľ": 7769,
  "ĠÙģÙĬ": 7770,
  "'d": 7771,
  "Ġdar": 7772,
  "Ġways": 7773,
  "Ġbox": 7774,
  "illi": 7775,
  "Ġà¶ļ": 7776,
  "Ġcommit": 7777,
  "é¬": 7778,
  "éĽħ": 7779,
  "phi": 7780,
  "erial": 7781,
  "ĠYork": 7782,
  "æģ©": 7783,
  "à¤¶": 7784,
  "onic": 7785,
  "ĠOur": 7786,
  "Ġusually": 7787,
  "Ġuns": 7788,
  "é©¾": 7789,
  "ç»Łè®¡": 7790,
  "circ": 7791,
  "àŃģ": 7792,
  "èĤº": 7793,
  "unn": 7794,
  "Ġsex": 7795,
  "ej": 7796,
  "Ġkoji": 7797,
  "Ġskin": 7798,
  "äº¿åħĥ": 7799,
  "Īëĭ¤": 7800,
  "iju": 7801,
  "ming": 7802,
  "Ġshall": 7803,
  "Ġcondition": 7804,
  "å¤ļçļĦ": 7805,
  "isf": 7806,
  "åħ¬åħ±": 7807,
  "esta": 7808,
  "Ġà·Ģ": 7809,
  "Ġconcern": 7810,
  "àºŃàºĩàº": 7811,
  "Model": 7812,
  "Ġbank": 7813,
  "åľ£": 7814,
  "Ġappear": 7815,
  "Ġhope": 7816,
  "çĦ¦": 7817,
  "Ġoutside": 7818,
  "jem": 7819,
  "Ġlearning": 7820,
  "èĢĮæĺ¯": 7821,
  "Ġobserved": 7822,
  "ç£ģ": 7823,
  "å±Ĭ": 7824,
  "ono": 7825,
  "à¤ĩ": 7826,
  "Ġprep": 7827,
  "{matrix": 7828,
  "æ¼«": 7829,
  "å¹¿åĳĬ": 7830,
  "Ġroz": 7831,
  "ube": 7832,
  "(S": 7833,
  "Ġnecessary": 7834,
  "Ġmid": 7835,
  "Ġpam": 7836,
  "That": 7837,
  "ä¹ĺ": 7838,
  "uy": 7839,
  "åĨľæĿĳ": 7840,
  "ĠUnited": 7841,
  "ĠDec": 7842,
  "Ã©g": 7843,
  "ĠqÃ«": 7844,
  "çĻĮ": 7845,
  "ÐºÐ¸": 7846,
  "à·Ĳ": 7847,
  "ĠRec": 7848,
  "wise": 7849,
  "Ġfmt": 7850,
  "éĢĴ": 7851,
  "cels": 7852,
  "æ½®": 7853,
  "idade": 7854,
  "Ġsar": 7855,
  "omes": 7856,
  "ĠRep": 7857,
  "cep": 7858,
  "ä¸Ģå®ļçļĦ": 7859,
  "à½Ĩ": 7860,
  "Ġversion": 7861,
  "Ġkol": 7862,
  "Ġnos": 7863,
  "Ed": 7864,
  "éĤ£ä¸ª": 7865,
  "Ġ/**": 7866,
  "conn": 7867,
  "ĠAng": 7868,
  "àª¹": 7869,
  "-pro": 7870,
  "Ġdisease": 7871,
  "\"]": 7872,
  "Ġwindow": 7873,
  "Ġsaf": 7874,
  "ç¥ĸ": 7875,
  "Ðĳ": 7876,
  "Ġoyo": 7877,
  "ĠSim": 7878,
  "Ġcatch": 7879,
  "ç¥Ŀ": 7880,
  "Inter": 7881,
  "åľŁåľ°": 7882,
  "oga": 7883,
  "respond": 7884,
  "ums": 7885,
  "%ï¼Į": 7886,
  "rightarrow": 7887,
  "çļ®èĤ¤": 7888,
  "ÑĭÑģ": 7889,
  "à©ģ": 7890,
  "äººç±»": 7891,
  "itet": 7892,
  "uke": 7893,
  "ĠØ¦Ùī": 7894,
  "ĠDep": 7895,
  "æĦŁæŁĵ": 7896,
  "Ġglobal": 7897,
  "æĥ³è¦ģ": 7898,
  "é£Łçī©": 7899,
  "Ġpositive": 7900,
  "rip": 7901,
  ".push": 7902,
  "ê¸": 7903,
  "çļĦæĸ¹æ³ķ": 7904,
  "æ¢ģ": 7905,
  "Ġfail": 7906,
  "Ġaan": 7907,
  "ķà¯įà®ķ": 7908,
  ".x": 7909,
  "ample": 7910,
  "Ġpurch": 7911,
  "istics": 7912,
  "anger": 7913,
  "Ġàªľ": 7914,
  "Ġexpression": 7915,
  "Box": 7916,
  "åĩ¡": 7917,
  "Ġprz": 7918,
  "Ġdeal": 7919,
  "åĶ±": 7920,
  "Ġassess": 7921,
  ".print": 7922,
  "Ġsimply": 7923,
  "è·¨": 7924,
  "loat": 7925,
  "æŃ¤å¤ĸ": 7926,
  "abo": 7927,
  "Ġrespec": 7928,
  "æ¯ķä¸ļ": 7929,
  "LO": 7930,
  "ĠÄĩ": 7931,
  "ÑĥÐ¼": 7932,
  "alle": 7933,
  "TP": 7934,
  "ä¸ºä¸»": 7935,
  "à´¤": 7936,
  "Ġdirection": 7937,
  "åıĬåħ¶": 7938,
  "ĠáĢĽ": 7939,
  "ishing": 7940,
  "Ġfoot": 7941,
  ".n": 7942,
  "åĵªäºĽ": 7943,
  "ĠÃ¡": 7944,
  "Ġà¸Ń": 7945,
  "é£Łåĵģ": 7946,
  "éĥ½ä¼ļ": 7947,
  "Ġregul": 7948,
  "à¤ĸ": 7949,
  "ovi": 7950,
  "à¤¾à¤®": 7951,
  "light": 7952,
  "å¡Ķ": 7953,
  "æ¡Ĩ": 7954,
  "One": 7955,
  "Ø±ÙĪ": 7956,
  "Ġà¦¤": 7957,
  "Ġban": 7958,
  "Ã¤t": 7959,
  "à½ĸà¾±": 7960,
  "éŃĶ": 7961,
  "æľºåħ³": 7962,
  "ĠEm": 7963,
  "Ġkr": 7964,
  "Ġcoming": 7965,
  "(this": 7966,
  "æĪĲäºĨ": 7967,
  "ĠAust": 7968,
  "EG": 7969,
  "Ġsch": 7970,
  "Ġobtained": 7971,
  "MP": 7972,
  "æĩĤ": 7973,
  "Ġpak": 7974,
  "è¿ħ": 7975,
  "ä¸¥æł¼": 7976,
  "ĠSelf": 7977,
  "rin": 7978,
  "Ġà¤ļ": 7979,
  "ĠDios": 7980,
  "Ðľ": 7981,
  "åĳĬè¯ī": 7982,
  "Ġemail": 7983,
  "å¤įæĿĤ": 7984,
  "Ġclin": 7985,
  "à«įàª°": 7986,
  "Ap": 7987,
  "hold": 7988,
  ".id": 7989,
  "çĶµèĦĳ": 7990,
  "Ġinsp": 7991,
  "!\"": 7992,
  "ospital": 7993,
  "ÈĻi": 7994,
  "oo": 7995,
  "Ġleave": 7996,
  "Ġnt": 7997,
  "áĥ£áĥ": 7998,
  "query": 7999,
  "æĦıæĢĿ": 8000,
  "Ġreceived": 8001,
  "ç¾¤ä¼Ĺ": 8002,
  "å¼ĥ": 8003,
  "ÛĮØ§": 8004,
  "Ġdifference": 8005,
  "çĺ¤": 8006,
  "jek": 8007,
  "Ġautom": 8008,
  "_type": 8009,
  "Ġà¸Ĺ": 8010,
  "ç§»åĬ¨": 8011,
  "code": 8012,
  "Ġexact": 8013,
  "àº¸": 8014,
  "Ö·": 8015,
  "ĠState": 8016,
  "á½": 8017,
  "æĮĤ": 8018,
  "ership": 8019,
  "æĸ¹ä¾¿": 8020,
  "Ġliter": 8021,
  "çĭ¬ç«ĭ": 8022,
  "æ¬²": 8023,
  "è£ģ": 8024,
  "ĠHar": 8025,
  "Ġliving": 8026,
  "ê³ł": 8027,
  "theta": 8028,
  "à©Ĥ": 8029,
  "ĠSch": 8030,
  "à·Ħ": 8031,
  "ä¹Łä¼ļ": 8032,
  "Ġbol": 8033,
  "ÐµÐ²": 8034,
  "hl": 8035,
  "nya": 8036,
  "ĠâĢĻ": 8037,
  "ä¹łæĥ¯": 8038,
  "Ġunique": 8039,
  "åĩ½æķ°": 8040,
  "Ġdecre": 8041,
  "frame": 8042,
  "æķ°éĩı": 8043,
  "Ġsequ": 8044,
  "æĹĭ": 8045,
  "æģ¢": 8046,
  "azzjoni": 8047,
  "Ġàªħ": 8048,
  "ĠnjÃ«": 8049,
  "Ġgave": 8050,
  "_size": 8051,
  "Ġmultiple": 8052,
  ")(": 8053,
  "åºŁ": 8054,
  "(l": 8055,
  "èĥ¡": 8056,
  "xim": 8057,
  "Ġgovernment": 8058,
  "abe": 8059,
  "Per": 8060,
  "-based": 8061,
  "è´«": 8062,
  "Ġkos": 8063,
  "åĴ¨": 8064,
  "æ®ĭ": 8065,
  "Ã³l": 8066,
  "Ġengine": 8067,
  "ategory": 8068,
  "ÎµÏĦ": 8069,
  "Ġmother": 8070,
  "é©¶": 8071,
  "Ġfeature": 8072,
  "inu": 8073,
  "Ã¡c": 8074,
  "Ġrunning": 8075,
  "ãģ£": 8076,
  "ä¼Ļ": 8077,
  "Ńáł¤áł": 8078,
  "raz": 8079,
  "uts": 8080,
  "áº¿": 8081,
  "åıĤæķ°": 8082,
  "çĪ¶æ¯į": 8083,
  "Ġáī¥": 8084,
  "Ġfem": 8085,
  "éħįç½®": 8086,
  "åŁºäºİ": 8087,
  "ught": 8088,
  "Ġord": 8089,
  "Ġdevice": 8090,
  "âĢį": 8091,
  "Ġitems": 8092,
  "ensity": 8093,
  "à³įà²¤": 8094,
  ".append": 8095,
  "ils": 8096,
  "ĠIsra": 8097,
  "otal": 8098,
  "àºį": 8099,
  "Ġdemonstr": 8100,
  "eny": 8101,
  "àº«": 8102,
  "uster": 8103,
  "à²¨à³įà²¨": 8104,
  "å¯¸": 8105,
  "æ·±åħ¥": 8106,
  "éĩĮçļĦ": 8107,
  "asc": 8108,
  "Åĭ": 8109,
  "}_{": 8110,
  "èĩªæĪĳ": 8111,
  "åĶ¯": 8112,
  "Ġanaly": 8113,
  "åĪĨå¸ĥ": 8114,
  "Å¾i": 8115,
  "æĿ¯": 8116,
  "æ³¥": 8117,
  "amm": 8118,
  "ç°": 8119,
  "çĽĳçĿ£": 8120,
  "Ġadditional": 8121,
  "ilon": 8122,
  "à®µ": 8123,
  "Color": 8124,
  "Ġáį¢": 8125,
  "Ġtechni": 8126,
  "Ġparti": 8127,
  "ê·¸": 8128,
  "Ġandroid": 8129,
  "/*": 8130,
  "Ġant": 8131,
  "Ġlimit": 8132,
  "æĬµ": 8133,
  "(new": 8134,
  "indow": 8135,
  "isti": 8136,
  "å°ĩ": 8137,
  "Ġpunk": 8138,
  "Ġpatient": 8139,
  "à½ĳà½Ħ": 8140,
  "èģĶç½ĳ": 8141,
  "ÃŃa": 8142,
  "çļĦæĹ¶éĹ´": 8143,
  "çĶµè§Ĩ": 8144,
  "ario": 8145,
  "apping": 8146,
  "ĠÐ¢": 8147,
  "nost": 8148,
  "Ð¸Ð³": 8149,
  "à¤¿à¤¨": 8150,
  "inding": 8151,
  "SON": 8152,
  "ocket": 8153,
  "×ĸ": 8154,
  "apat": 8155,
  "è¾ĵåħ¥": 8156,
  "æĸĩç«ł": 8157,
  "æİ¨åĬ¨": 8158,
  "Ġdia": 8159,
  "åº¦çļĦ": 8160,
  "wing": 8161,
  "æī¾åĪ°": 8162,
  "Ġled": 8163,
  "chi": 8164,
  "á¹£": 8165,
  "çĽ¸ä¿¡": 8166,
  "ÛĩØ±": 8167,
  "ukan": 8168,
  "Ġà¦Ĩ": 8169,
  "Ġphone": 8170,
  "OP": 8171,
  "(a": 8172,
  "Str": 8173,
  "ÑĥÑģ": 8174,
  "Manager": 8175,
  "nik": 8176,
  "ukt": 8177,
  "çĽ¸åĲĮ": 8178,
  "Ġradi": 8179,
  "ìĿĢ": 8180,
  "à½Ĳ": 8181,
  "Ġru": 8182,
  "Ġpul": 8183,
  "Ġako": 8184,
  "èī¯å¥½çļĦ": 8185,
  "Ġvoice": 8186,
  "Ġfavor": 8187,
  "Ġ×©×ľ": 8188,
  "éĶĻè¯¯": 8189,
  "ä¸Ĭè¿°": 8190,
  "ÑĢÐ°Ð½": 8191,
  "sta": 8192,
  "à¸¡": 8193,
  "Ġemploy": 8194,
  "ä¸ĭéĻį": 8195,
  "return": 8196,
  "Ġkin": 8197,
  "Ø§Ùĩ": 8198,
  "Ġvast": 8199,
  "àº²àºį": 8200,
  "adem": 8201,
  "åĭĩ": 8202,
  "parent": 8203,
  ".to": 8204,
  "èħĶ": 8205,
  "Ġkm": 8206,
  "è¿ĲçĶ¨": 8207,
  "è¯ķéªĮ": 8208,
  "æĶ¹åĸĦ": 8209,
  "è¯¦ç»Ĩ": 8210,
  "Õ¥Õ¶": 8211,
  "Ġhyd": 8212,
  "åĽ°éļ¾": 8213,
  "Ġfocus": 8214,
  "à¨¼": 8215,
  "Ûİ": 8216,
  "Ġà²®": 8217,
  "Ġusers": 8218,
  "td": 8219,
  "ĠMore": 8220,
  "Ã¨Ì£": 8221,
  "Ġitself": 8222,
  "_F": 8223,
  "Ġpressure": 8224,
  "Image": 8225,
  "-C": 8226,
  "à®²": 8227,
  "æĢª": 8228,
  "ãĤī": 8229,
  "Ġaverage": 8230,
  "Ġdescribed": 8231,
  ".length": 8232,
  "Ġinstead": 8233,
  "Ġnames": 8234,
  "rd": 8235,
  "||": 8236,
  "={": 8237,
  ".ex": 8238,
  "Mod": 8239,
  "Ġkup": 8240,
  "ĠCor": 8241,
  "Ġmos": 8242,
  "ĠÕ«": 8243,
  "Ġincluded": 8244,
  "Ã¡m": 8245,
  "ÙĤÙī": 8246,
  "Ġsed": 8247,
  "true": 8248,
  "perty": 8249,
  "Ġax": 8250,
  "éĽĨä¸Ń": 8251,
  "\"`": 8252,
  "íķľ": 8253,
  "args": 8254,
  "Ġeveryone": 8255,
  "Ġanim": 8256,
  "-to": 8257,
  "oub": 8258,
  "ÃŃn": 8259,
  "Head": 8260,
  "ĠÏĦÎ·ÏĤ": 8261,
  "Ġlas": 8262,
  "Ġbeg": 8263,
  "ä¸ĢåĪĩ": 8264,
  "å·®å¼Ĥ": 8265,
  "Ġago": 8266,
  "anya": 8267,
  "èĥİ": 8268,
  "Ġremember": 8269,
  "Ġseems": 8270,
  "Ġà¤¶": 8271,
  "à¦¸": 8272,
  "Ġslow": 8273,
  "akh": 8274,
  "ago": 8275,
  "Ġrap": 8276,
  "Ġinstance": 8277,
  "acity": 8278,
  "enz": 8279,
  "ĠDon": 8280,
  "celsius": 8281,
  "pes": 8282,
  "èĸĦ": 8283,
  "å·¥èīº": 8284,
  "æ°ı": 8285,
  "èĤ¾": 8286,
  "textcelsius": 8287,
  "àª¿àª": 8288,
  "Ġikke": 8289,
  "Ġattention": 8290,
  "å¥¹çļĦ": 8291,
  "Ġnor": 8292,
  "Ġtakes": 8293,
  "Ġlin": 8294,
  "ras": 8295,
  "ë¡ľ": 8296,
  "Ġic": 8297,
  "èµŀ": 8298,
  "see": 8299,
  "ä¹ı": 8300,
  "çĤ¼": 8301,
  "áĢķáĢ«": 8302,
  "àº²àºĩ": 8303,
  "Ġexperiment": 8304,
  "Ð°Ñĺ": 8305,
  "Ġà¸Ļ": 8306,
  ".j": 8307,
  "Ġkl": 8308,
  "iff": 8309,
  "å¾Ģå¾Ģ": 8310,
  "aut": 8311,
  "å¥ĭ": 8312,
  "çī©çļĦ": 8313,
  "äºĭä»¶": 8314,
  ".Get": 8315,
  "Ġnap": 8316,
  "çĶµå½±": 8317,
  "change": 8318,
  "Ġmaint": 8319,
  "áĢŃáĢ¯áĢ·": 8320,
  "eturn": 8321,
  "å²©": 8322,
  "è®¤çľŁ": 8323,
  "è¨Ń": 8324,
  "Ġ#[": 8325,
  "çĶ¢": 8326,
  "è¡ĮåĬ¨": 8327,
  "ä¼ļè®¡": 8328,
  "ses": 8329,
  "åħ§": 8330,
  "Ġwal": 8331,
  "Ġprogr": 8332,
  "Ġcry": 8333,
  "áĢĲáĢºáĢ": 8334,
  "åįıè®®": 8335,
  "æľºæ¢°": 8336,
  "aly": 8337,
  "ÙħÙī": 8338,
  "gn": 8339,
  "event": 8340,
  "Ð°Ð½Ð´": 8341,
  "Ġpractice": 8342,
  "ĠMo": 8343,
  "Ġheight": 8344,
  "ÐµÑ": 8345,
  "Ġih": 8346,
  "ç¥ŀç»ı": 8347,
  "áĢ±áĢ¸áĢ": 8348,
  "Ġcontrib": 8349,
  "war": 8350,
  "Ġris": 8351,
  "Ġà·ĥ": 8352,
  "Ġshowed": 8353,
  "×ķ×ľ": 8354,
  "åĪ«äºº": 8355,
  "lÄ±": 8356,
  "å®ļçļĦ": 8357,
  "ëĵ": 8358,
  "ocks": 8359,
  "image": 8360,
  "åĴ¨è¯¢": 8361,
  "ements": 8362,
  "ĠOk": 8363,
  "å¤ļç§į": 8364,
  "æ£®": 8365,
  "UL": 8366,
  "Ġther": 8367,
  "åĨħçļĦ": 8368,
  "Ã»": 8369,
  "ibr": 8370,
  "Ã³s": 8371,
  "duction": 8372,
  "ì§Ģ": 8373,
  "æľ¬èº«": 8374,
  "ç¨®": 8375,
  "spec": 8376,
  "dev": 8377,
  "Ġbegan": 8378,
  "Î¿Ïį": 8379,
  "Ġcorrect": 8380,
  "åĮĸåŃ¦": 8381,
  "py": 8382,
  "Ġmah": 8383,
  "æİ¨è¿Ľ": 8384,
  "abled": 8385,
  "Ġkub": 8386,
  "ÓķÐ½": 8387,
  "ĠÐĶ": 8388,
  "æķ¬": 8389,
  "ovan": 8390,
  "ĠàªĽà«ĩ": 8391,
  "èį·": 8392,
  "æł¹æľ¬": 8393,
  "Ġkh": 8394,
  "ambo": 8395,
  "Fl": 8396,
  "áģĢ": 8397,
  "åħĪçĶŁ": 8398,
  "Ġbin": 8399,
  "å®ĭ": 8400,
  "kun": 8401,
  "Ġeffective": 8402,
  "èİ«": 8403,
  "à¸§": 8404,
  "ĠMark": 8405,
  "ÐµÐ½ÑĤ": 8406,
  "Ġswe": 8407,
  "æ¦Ĥå¿µ": 8408,
  "Ġcompanies": 8409,
  "ĠTe": 8410,
  "ĠAN": 8411,
  ",âĢľ": 8412,
  "æĬ±": 8413,
  "ãģĵ": 8414,
  "ä¼¸": 8415,
  "ç»´æĬ¤": 8416,
  "ĠàªĨ": 8417,
  "ĠYour": 8418,
  "Ġfactors": 8419,
  "_D": 8420,
  "lying": 8421,
  "ULL": 8422,
  "Ġju": 8423,
  "with": 8424,
  "Ġnod": 8425,
  "ä»¥æĿ¥": 8426,
  "edi": 8427,
  "æĿ¥çľĭ": 8428,
  "lish": 8429,
  "à¤¿à¤²": 8430,
  "ç¤¾åĮº": 8431,
  "ĠáĪĿ": 8432,
  "èĤ¡ç¥¨": 8433,
  "ÐĶ": 8434,
  "èĦı": 8435,
  "Ġtransport": 8436,
  "åģļåĪ°": 8437,
  "âĢ¯áł¶áł¢áł¨": 8438,
  "ãĢģãĢĬ": 8439,
  "åŃĻ": 8440,
  "ä¸´åºĬ": 8441,
  "à©Ī": 8442,
  "æī¿æĭħ": 8443,
  "æ³¨åĨĮ": 8444,
  "Ġissue": 8445,
  "à¤¾à¤¹": 8446,
  "ç¢³": 8447,
  "Ã¶n": 8448,
  "haps": 8449,
  "IF": 8450,
  "abu": 8451,
  "Ġarch": 8452,
  "ĠÎ³": 8453,
  "Ġagre": 8454,
  "ä¸ĵå®¶": 8455,
  "Õ¡Õ®": 8456,
  "Ð¸ÑĪ": 8457,
  "erve": 8458,
  "æ¨ª": 8459,
  "ä¸įå°ĳ": 8460,
  "path": 8461,
  "åħ¬åı¸çļĦ": 8462,
  "acing": 8463,
  "æ³°": 8464,
  "(ctx": 8465,
  "Ð°ÑĢÑĭ": 8466,
  "ordin": 8467,
  "ä¸ĸçºª": 8468,
  "à¤¾à¤¸": 8469,
  "Ġnews": 8470,
  "áŀİ": 8471,
  "åıĤèĢĥ": 8472,
  "ç¾Ĭ": 8473,
  "github": 8474,
  "adz": 8475,
  "æŁ±": 8476,
  "åıĮæĸ¹": 8477,
  "ĠJer": 8478,
  "æ²Ĵ": 8479,
  "Ġlocation": 8480,
  "package": 8481,
  "Ġability": 8482,
  "çģ°": 8483,
  "å¹¿æ³Ľ": 8484,
  "ä¼ĺç§Ģ": 8485,
  "éĿ¢å¯¹": 8486,
  "Ġcompos": 8487,
  "áĥĲáĥľ": 8488,
  "_path": 8489,
  "æĬĳ": 8490,
  "Ġwer": 8491,
  "Ġisn": 8492,
  "Ġeducation": 8493,
  "ĠiÅ¡": 8494,
  "å¦ĤåĽ¾": 8495,
  "ä¸ģ": 8496,
  "æĿ¥èĩª": 8497,
  "ç½ļ": 8498,
  "è¯Ħä¼°": 8499,
  "ä¸Ģå®ļè¦ģ": 8500,
  "æģ¢å¤į": 8501,
  "oring": 8502,
  "joni": 8503,
  "Ġensure": 8504,
  "Ġmir": 8505,
  "rad": 8506,
  "Ġfra": 8507,
  "Ġ()": 8508,
  "Ġarri": 8509,
  "à¤¾à¤µ": 8510,
  "########": 8511,
  "à«ĭàª": 8512,
  "Ø«": 8513,
  "æ¯Ķä¾ĭ": 8514,
  "ë¦": 8515,
  "Õ¡Õ¯Õ¡Õ¶": 8516,
  "Ġà¦®": 8517,
  "Ġgames": 8518,
  "èģĶåĲĪ": 8519,
  "Ġprincip": 8520,
  "Ġrecent": 8521,
  "enced": 8522,
  "ĠØ§ÙĪ": 8523,
  "ĠFin": 8524,
  "Ġnature": 8525,
  "Ġpopular": 8526,
  "ĠĠĠĠĠĠĠĠĠĠĠĠĠ": 8527,
  "itude": 8528,
  "Ð²Ð°": 8529,
  "Ġregular": 8530,
  "è°·": 8531,
  "version": 8532,
  "ĠÒ¯": 8533,
  "Ġhol": 8534,
  "ĠYesu": 8535,
  "è®Ńç»ĥ": 8536,
  "èĻ«": 8537,
  "Ġmere": 8538,
  "çĽ¸äºĴ": 8539,
  "Ġselect": 8540,
  "Ġcouldn": 8541,
  "èħĲ": 8542,
  "ä¸»åĬ¨": 8543,
  "ĠKrist": 8544,
  "Ġready": 8545,
  "BC": 8546,
  "vu": 8547,
  "Ġcorrespond": 8548,
  "Ġproperties": 8549,
  "Ġaj": 8550,
  "iva": 8551,
  "Ġcontract": 8552,
  "é©±": 8553,
  "Ġtel": 8554,
  "})$": 8555,
  "Ġ{}": 8556,
  "æĸ¹éĿ¢çļĦ": 8557,
  "Ġroad": 8558,
  "àª¾àª¨": 8559,
  "\\n": 8560,
  "åĦ¿ç«¥": 8561,
  "icha": 8562,
  "ĠBa": 8563,
  "apy": 8564,
  "çį": 8565,
  "ĠBar": 8566,
  "áĢ¯áĢ¶": 8567,
  "Ġtitle": 8568,
  "Ġnh": 8569,
  "Ġlay": 8570,
  "å¿½": 8571,
  "ehic": 8572,
  "ipo": 8573,
  "åŃ¦çĶŁçļĦ": 8574,
  "Count": 8575,
  "áĥł": 8576,
  "orks": 8577,
  "ä¼ĺåĮĸ": 8578,
  "ĠBib": 8579,
  "unwrap": 8580,
  "Ġimmedi": 8581,
  "Ġà¶´": 8582,
  "à¤¨à¥ĩ": 8583,
  "Ġwriting": 8584,
  "}.$": 8585,
  "à¨ķ": 8586,
  "aches": 8587,
  "atively": 8588,
  "åĬŀåħ¬": 8589,
  "Ġevidence": 8590,
  "Ġsan": 8591,
  "ogen": 8592,
  "ç»ª": 8593,
  "è®¾æĸ½": 8594,
  "Ġdeveloped": 8595,
  "ects": 8596,
  "Ġwidth": 8597,
  "Ġfather": 8598,
  "ĠMal": 8599,
  "å¤§å¤ļ": 8600,
  "(v": 8601,
  "é¡¿": 8602,
  "Ġreach": 8603,
  "à¥įà¤µ": 8604,
  "Ġstar": 8605,
  "ä¸Ģå¹´": 8606,
  "edd": 8607,
  "Ġresid": 8608,
  "ections": 8609,
  "ĠvÃ½": 8610,
  "´áł¢áł": 8611,
  "Ġsample": 8612,
  "Ġmyself": 8613,
  "éĩįæĸ°": 8614,
  "Ġavoid": 8615,
  "å·¥ä½ľçļĦ": 8616,
  "#[": 8617,
  "Ġsqu": 8618,
  "ëĤ": 8619,
  "âĢ¢": 8620,
  "kk": 8621,
  "ä»¿": 8622,
  "è§£éĩĬ": 8623,
  "åªĴä½ĵ": 8624,
  "partial": 8625,
  "èħº": 8626,
  "public": 8627,
  "\\_": 8628,
  "Ġkuk": 8629,
  "Ġili": 8630,
  "è·Ŀç¦»": 8631,
  "Ġphysical": 8632,
  "çħ¤": 8633,
  "Ġlanguage": 8634,
  "Conn": 8635,
  "emplate": 8636,
  "Ġitu": 8637,
  "Ġbound": 8638,
  "éĮ": 8639,
  "ĠSa": 8640,
  "Éĸe": 8641,
  "Ġcollection": 8642,
  "éĹľ": 8643,
  "ĠKomis": 8644,
  "ç§°ä¸º": 8645,
  "æ¶Ĥ": 8646,
  "CP": 8647,
  "Ġnin": 8648,
  "iste": 8649,
  "Ġà®ķ": 8650,
  "åĭ¤": 8651,
  "Ö´": 8652,
  "isha": 8653,
  "ikk": 8654,
  "çĬ¶åĨµ": 8655,
  "çİ©å®¶": 8656,
  ".util": 8657,
  "¬áł¤": 8658,
  "elen": 8659,
  "å®ļä¹ī": 8660,
  "ĠØªÙĪ": 8661,
  "à¯įà®Ł": 8662,
  "æľĢå¥½": 8663,
  "Ġbah": 8664,
  "åĩĨç¡®": 8665,
  "Ġinvolved": 8666,
  "Ġbackground": 8667,
  "æľīäºĨ": 8668,
  "emo": 8669,
  "aled": 8670,
  "áł¡áł¨": 8671,
  "æĪĲéķ¿": 8672,
  "ÎµÎ¯": 8673,
  "Ġoffice": 8674,
  "áŀģ": 8675,
  "åį³åı¯": 8676,
  "nen": 8677,
  "Ġmedical": 8678,
  "å¹¸ç¦ı": 8679,
  "bit": 8680,
  "çĭĹ": 8681,
  "ĠStud": 8682,
  "default": 8683,
  "ï½ŀ": 8684,
  "åĪ¤æĸŃ": 8685,
  "Ġgene": 8686,
  "uid": 8687,
  "è¦Ĩ": 8688,
  "Ġtat": 8689,
  "Ġthemselves": 8690,
  "Ġnr": 8691,
  "ĠÃ²": 8692,
  "å¹²éĥ¨": 8693,
  "Ġble": 8694,
  "New": 8695,
  "Ġplatform": 8696,
  "èĴĻ": 8697,
  "Ġyourself": 8698,
  "ç»ĵæĿŁ": 8699,
  "Ġsoftware": 8700,
  "Ġcook": 8701,
  "uman": 8702,
  "Ø³ÛĮ": 8703,
  "Ġsubst": 8704,
  "eds": 8705,
  "áĢĿ": 8706,
  "ĠCity": 8707,
  "Do": 8708,
  "Ġtra": 8709,
  "åħ¼": 8710,
  "Ġfloat": 8711,
  "Ġseb": 8712,
  "Ġà¤¹à¥ĭ": 8713,
  "ĠáĢħ": 8714,
  "Ġhus": 8715,
  "akes": 8716,
  "Ġhusi": 8717,
  "ëı": 8718,
  "ë¥": 8719,
  "ĠSm": 8720,
  "à¦¯à¦¼": 8721,
  "åĮ»çĶŁ": 8722,
  "cribe": 8723,
  "Ġàª¹": 8724,
  "æĹ¥å¸¸": 8725,
  "Ġweeks": 8726,
  "aily": 8727,
  "ãĥ³": 8728,
  "sigma": 8729,
  "Ġsor": 8730,
  "Ġci": 8731,
  "à³įà²²": 8732,
  "à¤¾à¤¯": 8733,
  "ĠWorld": 8734,
  "avy": 8735,
  "Ġtidak": 8736,
  "ķàµįà´": 8737,
  "Ġoffers": 8738,
  "Ġdetails": 8739,
  "md": 8740,
  "è´¢åĬ¡": 8741,
  "ufact": 8742,
  "Ġheard": 8743,
  "éĻ·": 8744,
  "çİ°å®ŀ": 8745,
  "çŃĸçķ¥": 8746,
  "Ġ×ł": 8747,
  "ØºØ§ÙĨ": 8748,
  "ä¸»ä»»": 8749,
  "çģ¾": 8750,
  "usion": 8751,
  "Ã©k": 8752,
  "indi": 8753,
  "Ã©t": 8754,
  "Ġpok": 8755,
  "elu": 8756,
  "æ´ŀ": 8757,
  "å½»": 8758,
  "Ġquickly": 8759,
  "ependent": 8760,
  "éģµ": 8761,
  "çļĦæĸ°": 8762,
  "ĠMc": 8763,
  "åı¬": 8764,
  "olean": 8765,
  "éĢĲæ¸Ĳ": 8766,
  "æķĮ": 8767,
  "áĵ": 8768,
  "áĪī": 8769,
  "Ġplease": 8770,
  "Ġpin": 8771,
  "Äĩi": 8772,
  "æħ§": 8773,
  "Ġjud": 8774,
  "nom": 8775,
  "Ġlate": 8776,
  "Query": 8777,
  "Ġaltern": 8778,
  "ãĤĬ": 8779,
  "Am": 8780,
  "-up": 8781,
  "_pro": 8782,
  "ogu": 8783,
  "inger": 8784,
  "äºĭæĥħ": 8785,
  "ĠÑī": 8786,
  "áŀ¶áŀĢ": 8787,
  "å¿Ĩ": 8788,
  "Ġkes": 8789,
  "Ġextra": 8790,
  "ãĤĤ": 8791,
  "Ġtravel": 8792,
  "jon": 8793,
  "vet": 8794,
  "Sub": 8795,
  "Ġ(!": 8796,
  "Õ¤": 8797,
  "Ä±ÅŁ": 8798,
  "æ³ķéĻ¢": 8799,
  "éĻĲåĪ¶": 8800,
  "Layout": 8801,
  "ĠáĬ¥áĬķ": 8802,
  "Ġactivities": 8803,
  "Ġcustomers": 8804,
  "Ġà²¸": 8805,
  "è¿Ľè¡ĮäºĨ": 8806,
  "ãĢĤâĢľ": 8807,
  "Ġ^{": 8808,
  "æµģç¨ĭ": 8809,
  "Ġstress": 8810,
  "æ¨£": 8811,
  "lat": 8812,
  "CE": 8813,
  "åĢ¾": 8814,
  "Ġchem": 8815,
  "éĶģ": 8816,
  "_M": 8817,
  "into": 8818,
  "çıł": 8819,
  "áĤĶ": 8820,
  "Î¾": 8821,
  "å§ĵ": 8822,
  "Ġkang": 8823,
  "ä¸¤ç§į": 8824,
  "Ġqual": 8825,
  "èģĺ": 8826,
  "Ġimm": 8827,
  "ĠMr": 8828,
  "ÙĪÛĮ": 8829,
  "åĪĨäº«": 8830,
  "ecause": 8831,
  "æĹģ": 8832,
  "Õ¡Õ½": 8833,
  "Ġarm": 8834,
  "rest": 8835,
  "Ġdirectly": 8836,
  "Ġadminist": 8837,
  "zt": 8838,
  "çŃīçŃī": 8839,
  ".out": 8840,
  "aker": 8841,
  "Ã¤m": 8842,
  "Ġcompar": 8843,
  "ä¸ĭéĿ¢": 8844,
  "Delta": 8845,
  "empt": 8846,
  "Ġà¤¸à¥ĩ": 8847,
  "uti": 8848,
  "Ġdepend": 8849,
  "rought": 8850,
  "Õ¸ÖĢ": 8851,
  "áł³": 8852,
  "ç»ķ": 8853,
  "ĠNow": 8854,
  "Ð½Ð¾ÑģÑĤ": 8855,
  "æĩī": 8856,
  "~~": 8857,
  "CD": 8858,
  "df": 8859,
  "Ġconstant": 8860,
  "Ð¸Ð¸": 8861,
  "Ġáĥĵ": 8862,
  "Ġrandom": 8863,
  "à¸Ńà¸ĩ": 8864,
  "tex": 8865,
  "Ġpretty": 8866,
  "Ġcontinu": 8867,
  "Ġ]": 8868,
  "ĠÅ¡to": 8869,
  "Ġtom": 8870,
  "å¦»": 8871,
  "Ġji": 8872,
  "Ġà¤ªà¤°": 8873,
  "-K": 8874,
  "Ġauto": 8875,
  "izes": 8876,
  "isplay": 8877,
  "èĥ½æºĲ": 8878,
  "Ġzu": 8879,
  "ĠtÃ³": 8880,
  "è¾Ľ": 8881,
  "ìľ": 8882,
  "gorith": 8883,
  "_v": 8884,
  "ulle": 8885,
  "çļĦä¸»è¦ģ": 8886,
  "ÓķÐ¼": 8887,
  "{}": 8888,
  "ä»¥åīį": 8889,
  "Ġprofessional": 8890,
  "mand": 8891,
  "ĠRob": 8892,
  "çģŃ": 8893,
  "ĠDi": 8894,
  "Ġdecision": 8895,
  "autiful": 8896,
  "char": 8897,
  "Ġoccur": 8898,
  "Ġà»ģàº": 8899,
  "Ġactive": 8900,
  "Ġplant": 8901,
  "ÑĢÐ°": 8902,
  "æģĲ": 8903,
  "æľĢé«ĺ": 8904,
  "Date": 8905,
  "çī¹èī²": 8906,
  "áĪ°": 8907,
  "Ġsen": 8908,
  "é²ģ": 8909,
  "Ġspr": 8910,
  "iber": 8911,
  "Ġdesigned": 8912,
  "ÙħØ§": 8913,
  "ĠFrom": 8914,
  "Ġkep": 8915,
  "App": 8916,
  "-L": 8917,
  "ĠÈĻi": 8918,
  "ĠStr": 8919,
  "Ġà¦¹": 8920,
  "Ġtor": 8921,
  "Ġserver": 8922,
  "Ġmpe": 8923,
  "Il": 8924,
  "Ġtask": 8925,
  "abi": 8926,
  "äºĨä¸Ģä¸ª": 8927,
  "à²¯": 8928,
  "ĠPe": 8929,
  "åĲ´": 8930,
  "å¯¹æĸ¹": 8931,
  "Ġsmo": 8932,
  "Ġenh": 8933,
  "Ġincludes": 8934,
  "áĥĽ": 8935,
  "è¹": 8936,
  "Ġist": 8937,
  "Table": 8938,
  "down": 8939,
  "æ¸ħæ¥ļ": 8940,
  "ĠÕ¿": 8941,
  "more": 8942,
  "à°¨": 8943,
  "urance": 8944,
  "Ġàªµ": 8945,
  "Ġchoice": 8946,
  "ä¾ĽåºĶ": 8947,
  "æīĵå¼Ģ": 8948,
  "çĸ¼": 8949,
  "×Ļ×Ķ": 8950,
  "ocol": 8951,
  "riv": 8952,
  "ØªØ±": 8953,
  "Ġcommand": 8954,
  "Ġstaff": 8955,
  "........": 8956,
  "format": 8957,
  "_list": 8958,
  "æĺ¯ä¸į": 8959,
  "itation": 8960,
  "éŁ©": 8961,
  "vÃ¤": 8962,
  "oi": 8963,
  "nog": 8964,
  "_to": 8965,
  "Us": 8966,
  "iring": 8967,
  "ialog": 8968,
  "band": 8969,
  "Ġparameters": 8970,
  "Content": 8971,
  "cast": 8972,
  "æ°§åĮĸ": 8973,
  "Ġsist": 8974,
  "xi": 8975,
  "àª£": 8976,
  "itiv": 8977,
  "è®¨è®º": 8978,
  "ĠÎ½": 8979,
  "Ġlost": 8980,
  "entity": 8981,
  "æĹĹ": 8982,
  "ĠTrans": 8983,
  "ç¸": 8984,
  "icht": 8985,
  "ãģĨ": 8986,
  "åıįæĺł": 8987,
  "äºİæĺ¯": 8988,
  "inf": 8989,
  "èĳ£": 8990,
  "ĠmÃ¡": 8991,
  "ĠáĭĿ": 8992,
  "åĬ¨åĬĽ": 8993,
  ".'": 8994,
  "å¹´æĿ¥": 8995,
  "å¼ĢæĶ¾": 8996,
  "Ġetc": 8997,
  "æĤī": 8998,
  "Ġnom": 8999,
  "encies": 9000,
  "ä¾Ŀæį®": 9001,
  "Ġperformed": 9002,
  "Äģr": 9003,
  "ĠÐ°ÑĢ": 9004,
  "kg": 9005,
  "åºĦ": 9006,
  "Ġlines": 9007,
  "Ġtransfer": 9008,
  "Ġsleep": 9009,
  "æ±¤": 9010,
  "å®¶éķ¿": 9011,
  "Ġkut": 9012,
  "Ġesc": 9013,
  "lad": 9014,
  "æııè¿°": 9015,
  "aza": 9016,
  "ĠÐĵ": 9017,
  "array": 9018,
  "èĭ±è¯Ń": 9019,
  "ìĦľ": 9020,
  "cel": 9021,
  "ä¿Ĺ": 9022,
  ".E": 9023,
  "ÃŃs": 9024,
  "Ġtown": 9025,
  "open": 9026,
  "ä½¿å¾Ĺ": 9027,
  "ĠCons": 9028,
  "Ġtro": 9029,
  "RA": 9030,
  "Ð°Ð»Ð°": 9031,
  "çļĦæĸ¹å¼ı": 9032,
  "Ġdir": 9033,
  "è¡¨æĺİ": 9034,
  "Ġmention": 9035,
  "ç¢İ": 9036,
  "Ġelements": 9037,
  "ongo": 9038,
  "ĠStates": 9039,
  "áĢħáĢ¹": 9040,
  "Select": 9041,
  "ĠAcc": 9042,
  "çº¤": 9043,
  "Ġved": 9044,
  "arl": 9045,
  "Ġreading": 9046,
  "BA": 9047,
  "ç³»ç»ŁçļĦ": 9048,
  "èĲ¥åħ»": 9049,
  "æ´Ľ": 9050,
  "Ġformat": 9051,
  "Ġmorning": 9052,
  "Ġblog": 9053,
  "èµµ": 9054,
  "å®Įæķ´": 9055,
  ".size": 9056,
  "Ġplayer": 9057,
  "iling": 9058,
  "è§ĦåĪĻ": 9059,
  "ÅĽci": 9060,
  "è©±": 9061,
  "Ġà²¨": 9062,
  "Ġgreater": 9063,
  "ĠÚ¾": 9064,
  "æī£": 9065,
  "context": 9066,
  "Ð°Ñı": 9067,
  "Ð°Ð½Ð°": 9068,
  "Acc": 9069,
  ".pro": 9070,
  "Ø§ÙĨÛĮ": 9071,
  "iday": 9072,
  "Ġlabel": 9073,
  "à¯ģà®®à¯į": 9074,
  ">(": 9075,
  "éħįåĲĪ": 9076,
  "Ð»Ð¸": 9077,
  "Ġcomplet": 9078,
  "Ġbecame": 9079,
  "åı¯èĥ½ä¼ļ": 9080,
  "istry": 9081,
  "ĠÃ¤r": 9082,
  "Ġ×Ĳ×ª": 9083,
  "dr": 9084,
  "é¢Ĺ": 9085,
  "Ġresources": 9086,
  "ijn": 9087,
  "Ġanyone": 9088,
  "à¦¾à¦¨": 9089,
  "Ġting": 9090,
  "iran": 9091,
  "Ġattack": 9092,
  "Ġfinancial": 9093,
  "ÓķÑĢ": 9094,
  "ä¸įå¥½": 9095,
  "oti": 9096,
  "æĳĨ": 9097,
  "ĠÑĢÐ°Ð·": 9098,
  "èĥ¸": 9099,
  "è¿¹": 9100,
  "ĠAfr": 9101,
  "root": 9102,
  "andid": 9103,
  "Ġreve": 9104,
  "åľ¨äºİ": 9105,
  "Ġthus": 9106,
  "çĶĺ": 9107,
  "_B": 9108,
  "Ġkul": 9109,
  "Ġsatisf": 9110,
  "tices": 9111,
  "áĢ®áĢ¸áĢ": 9112,
  "äºķ": 9113,
  "Ġalt": 9114,
  "ÅĦ": 9115,
  "åħįè´¹": 9116,
  "æ¢ħ": 9117,
  "ÑĭÐ½Ð´Ð°": 9118,
  "çº¹": 9119,
  "è»Ĭ": 9120,
  "éĢĤåºĶ": 9121,
  "éĩĳå±ŀ": 9122,
  "Ġà¦ı": 9123,
  "/m": 9124,
  "pite": 9125,
  "izer": 9126,
  "ç´«": 9127,
  "unc": 9128,
  "ç¾İåħĥ": 9129,
  "å¤Ħäºİ": 9130,
  "Ġpet": 9131,
  "Ġincreasing": 9132,
  "åĩºçīĪ": 9133,
  "empty": 9134,
  "unda": 9135,
  "áĥļ": 9136,
  "èĻİ": 9137,
  "ĠáĬķ": 9138,
  "esh": 9139,
  "enty": 9140,
  "çĶľ": 9141,
  "Ġhear": 9142,
  "tee": 9143,
  "ĠST": 9144,
  "ĠNational": 9145,
  "Ġball": 9146,
  "áº¡": 9147,
  "Ġstrateg": 9148,
  "è§Ĵåº¦": 9149,
  "ÙĬØ±": 9150,
  "Ġaccur": 9151,
  "Ġwrong": 9152,
  "áŀ¶áŁĨ": 9153,
  "Ġroot": 9154,
  "Ġwide": 9155,
  "Ġáŀĵ": 9156,
  "Äģm": 9157,
  "ä¸ªæľĪ": 9158,
  "æ»¤": 9159,
  "eline": 9160,
  "Ä«bas": 9161,
  "ìļ": 9162,
  "æĬķåħ¥": 9163,
  "ĠÐ²Ð¾": 9164,
  "à§įà¦¯": 9165,
  "ulti": 9166,
  "åĪĨç±»": 9167,
  "Ġoh": 9168,
  "Ġchoose": 9169,
  "ester": 9170,
  "Ġboard": 9171,
  "Ġstage": 9172,
  "och": 9173,
  "OV": 9174,
  "<<": 9175,
  "oki": 9176,
  "ÏİÎ½": 9177,
  "chen": 9178,
  "iding": 9179,
  "endo": 9180,
  "ê¸°": 9181,
  "Ġhu": 9182,
  "Ġdefined": 9183,
  "èİ·åıĸ": 9184,
  "ä»Ļ": 9185,
  "ilities": 9186,
  "oa": 9187,
  "è¨Ī": 9188,
  "itter": 9189,
  "æŁĶ": 9190,
  "Ã©r": 9191,
  "*/": 9192,
  "èĲ¥éĶĢ": 9193,
  "Ġoil": 9194,
  "Ġparts": 9195,
  "ÐµÑĪ": 9196,
  "entific": 9197,
  "Ġemploye": 9198,
  "ÐµÑĤÐ¾": 9199,
  "Ġnar": 9200,
  "à½ºà½ĳ": 9201,
  "æ¯ıä¸Ģ": 9202,
  "apped": 9203,
  "ÓķÐ¹": 9204,
  "Ġoption": 9205,
  "ĠMon": 9206,
  "å®Ŀå®Ŀ": 9207,
  "ĠSoc": 9208,
  "nder": 9209,
  "kh": 9210,
  "Ġpad": 9211,
  "doc": 9212,
  "Ġinterface": 9213,
  "Ġroll": 9214,
  "}/": 9215,
  "ĠkÃ¤": 9216,
  "Ġtried": 9217,
  "iving": 9218,
  "block": 9219,
  "åħ´è¶£": 9220,
  "bon": 9221,
  "èµı": 9222,
  "ĠãĢģ": 9223,
  "Ġeasily": 9224,
  "±ä¹Ĳ": 9225,
  "Ġlang": 9226,
  "-B": 9227,
  "æľīæīĢ": 9228,
  "à¥ĭà¤Ĥ": 9229,
  "æĭĵ": 9230,
  "Ġts": 9231,
  "æµ®": 9232,
  "ĠID": 9233,
  "æī«": 9234,
  "åķ¦": 9235,
  "å½ĵåīį": 9236,
  "Ġpresence": 9237,
  "iq": 9238,
  "åĩŃ": 9239,
  "ÙĦØ§Ø±": 9240,
  "á»Ļ": 9241,
  "áŁĴáŀĽ": 9242,
  "ĠÏĦÎ¿": 9243,
  "Ġfeed": 9244,
  "(err": 9245,
  "ĠvÉĻ": 9246,
  "Ġmol": 9247,
  "ĠUs": 9248,
  "ÐµÑģÑĤ": 9249,
  "Ġsurpr": 9250,
  "åĺ´": 9251,
  "ĠÑģÐ¿": 9252,
  "áĬ£": 9253,
  "æ¶Īè´¹èĢħ": 9254,
  "çļĦåľ°æĸ¹": 9255,
  "æĿĥåĪ©": 9256,
  "tx": 9257,
  "vor": 9258,
  "Ġtut": 9259,
  "å¿«ä¹Ĳ": 9260,
  "Ġunit": 9261,
  "Ġprefer": 9262,
  "èĤ¯å®ļ": 9263,
  "Ġsecurity": 9264,
  "atud": 9265,
  "ä½įäºİ": 9266,
  "asta": 9267,
  "æ¶Īæģ¯": 9268,
  "å½¢è±¡": 9269,
  "Ġmodern": 9270,
  "ÎµÎ½": 9271,
  "SP": 9272,
  "-D": 9273,
  "eme": 9274,
  "åĮħåĲ«": 9275,
  "Ġforce": 9276,
  "ç§¦": 9277,
  "Ġelect": 9278,
  "ä¸»é¢ĺ": 9279,
  "oba": 9280,
  "à¸Ķ": 9281,
  "çļĦåŁºç¡Ģ": 9282,
  "Ø´Ùī": 9283,
  "Ġequip": 9284,
  "åľ°åĿĢ": 9285,
  "ÑĤÑĮ": 9286,
  "bal": 9287,
  "Ġdefin": 9288,
  "ĠÐ¸Ð¼": 9289,
  "img": 9290,
  "(st": 9291,
  "ä¼Ĭ": 9292,
  "ĠÅµ": 9293,
  "è®°èĢħ": 9294,
  "apit": 9295,
  "ĠáĭŃ": 9296,
  "ä¼ģä¸ļçļĦ": 9297,
  "æī¶": 9298,
  "åħĥç´ł": 9299,
  "æ±¡æŁĵ": 9300,
  "Ġallows": 9301,
  "Ã«t": 9302,
  "atives": 9303,
  "ç©ºæ°Ķ": 9304,
  "ĠÕ£": 9305,
  "ĠÃłwá»įn": 9306,
  "çľĭçľĭ": 9307,
  "ĠÅĦ": 9308,
  "èº«ä»½": 9309,
  "ä½ľä¸ļ": 9310,
  "ĠInter": 9311,
  "Ġfollowed": 9312,
  "Option": 9313,
  "lear": 9314,
  "à»īàº": 9315,
  "Ġcancer": 9316,
  "ategy": 9317,
  "à·ĵ": 9318,
  "ellow": 9319,
  "Point": 9320,
  "ĠResult": 9321,
  "è¶ĭåĬ¿": 9322,
  "èĲ½å®ŀ": 9323,
  "Ne": 9324,
  "Ġbehavior": 9325,
  "èĥĨ": 9326,
  "âĢı": 9327,
  "éłŃ": 9328,
  "iek": 9329,
  "ÎµÏĤ": 9330,
  "-A": 9331,
  "Ġtherefore": 9332,
  "Ġà¨ª": 9333,
  "cy": 9334,
  "ĠWhile": 9335,
  "è´¯": 9336,
  "è·Į": 9337,
  "ÌĢ": 9338,
  "Ã¯": 9339,
  ".r": 9340,
  "dir": 9341,
  "æīĭæ®µ": 9342,
  "eto": 9343,
  "iya": 9344,
  "Ġnp": 9345,
  "è³ĩ": 9346,
  "ĠBu": 9347,
  "(r": 9348,
  "Ġà¤ĸ": 9349,
  "à®¿à®²": 9350,
  "Ġmur": 9351,
  "rie": 9352,
  "Ġarticle": 9353,
  "ĠÚ©ÛĮ": 9354,
  "à³įà²°": 9355,
  "ĠÑģÐ»": 9356,
  "ĠHere": 9357,
  "æľ¬ç«Ļ": 9358,
  "Ġsituation": 9359,
  "Ġpov": 9360,
  "éĩįè§Ĩ": 9361,
  "æ¤įçī©": 9362,
  "è°±": 9363,
  "Ġthroughout": 9364,
  "ÑĭÐ¿": 9365,
  "Ø¸": 9366,
  "ĠØ§ÙĨ": 9367,
  "éĤ®": 9368,
  "nej": 9369,
  "duced": 9370,
  "ĠÃ³": 9371,
  "Ġrelev": 9372,
  "éĥ½ä¸į": 9373,
  "å¤ļä¸ª": 9374,
  "airs": 9375,
  "Ġoku": 9376,
  "how": 9377,
  "è¬": 9378,
  "Ġround": 9379,
  "Ġpou": 9380,
  "ë§": 9381,
  "Ġáº¹": 9382,
  "Ġpredic": 9383,
  "æĸĩæĺİ": 9384,
  "}(\\": 9385,
  "Ŀi": 9386,
  "æŃ£å¼ı": 9387,
  "Ġfamil": 9388,
  "riter": 9389,
  "à¸¥": 9390,
  "Ġfunc": 9391,
  "ä¼¯": 9392,
  "åĸ·": 9393,
  "åĲ¸å¼ķ": 9394,
  "arak": 9395,
  "Ð³Ð°Ð½": 9396,
  "Ġcomfort": 9397,
  "Se": 9398,
  "Ġmemory": 9399,
  "áĢĻáĢ»": 9400,
  "ehov": 9401,
  "span": 9402,
  "Ġtrust": 9403,
  "ĠVer": 9404,
  "_r": 9405,
  "à¸¹": 9406,
  "abog": 9407,
  "ç¶²": 9408,
  "EX": 9409,
  "oe": 9410,
  "ä¼¦": 9411,
  "ĠPres": 9412,
  "çļĦä½ľçĶ¨": 9413,
  "à¤²à¥ĩ": 9414,
  "ior": 9415,
  "å¤§éĩı": 9416,
  "æ¼ı": 9417,
  "ĠSouth": 9418,
  "Pre": 9419,
  "å¦¹": 9420,
  "èĢĮè¨Ģ": 9421,
  "å½¼": 9422,
  "¦áł": 9423,
  "áŀĢáŀ¶áŀļáŀ": 9424,
  "Ġà²ķ": 9425,
  "Ġstudent": 9426,
  "Ġita": 9427,
  "çĵ¶": 9428,
  "kw": 9429,
  "áĪħ": 9430,
  "lier": 9431,
  "áĢ±áĢĲ": 9432,
  "ĠÐŀ": 9433,
  "Ġfill": 9434,
  "çĽ¸å½ĵ": 9435,
  "è¾ĵåĩº": 9436,
  "ĠÕº": 9437,
  "æĽ´æĸ°": 9438,
  "omega": 9439,
  "Ġconven": 9440,
  "Ġpopulation": 9441,
  "Ġimag": 9442,
  "(R": 9443,
  "ĠGl": 9444,
  "Ġones": 9445,
  "éĢļçŁ¥": 9446,
  "\\%,": 9447,
  "Var": 9448,
  "éĶħ": 9449,
  "ĠData": 9450,
  "Ġwritten": 9451,
  "ä¸Ĭå¸Ĥ": 9452,
  "Ġparents": 9453,
  "ĠInt": 9454,
  "à½ħ": 9455,
  "kov": 9456,
  "Ð¸Ð½Ð°": 9457,
  "Ġtowards": 9458,
  "Ġhandle": 9459,
  "Ġpow": 9460,
  "æĪ´": 9461,
  "Õ¡Öģ": 9462,
  "ç»ıåİĨ": 9463,
  "Ġmess": 9464,
  "æĹ¶çļĦ": 9465,
  "Ġlayer": 9466,
  "ĠÆĴe": 9467,
  "æĽ´å¥½": 9468,
  "Ġspeed": 9469,
  "ĠĠĠĠĠĠĠĠĠĠĠĠĠĠĠĠĠĠĠĠĠĠĠĠĠĠĠĠĠĠĠĠĠĠĠ": 9470,
  "Ġpel": 9471,
  "ä»ģ": 9472,
  "äºĮåįģ": 9473,
  "ĠGener": 9474,
  "\"),": 9475,
  "Ã¦r": 9476,
  "Ġtele": 9477,
  "æ¶īåıĬ": 9478,
  "å¨ĺ": 9479,
  "áĤĪ": 9480,
  "tie": 9481,
  "ÑĤÐµÑĢ": 9482,
  "ĠÐ´Ð¾": 9483,
  "ĠÐ¹": 9484,
  "option": 9485,
  "PP": 9486,
  "osph": 9487,
  "æ´¥": 9488,
  "æĲŀ": 9489,
  "à«Ģàª": 9490,
  "è®¡ç®Ĺæľº": 9491,
  "ÙģØª": 9492,
  "sin": 9493,
  "æ²ŁéĢļ": 9494,
  "Ġdead": 9495,
  "Ġpolicy": 9496,
  "Ġworth": 9497,
  "æĶ¾åľ¨": 9498,
  "Ð¾ÑĤÐ¾": 9499,
  "è¿ĺè¦ģ": 9500,
  "Ġáł¡": 9501,
  "à²¡": 9502,
  "çıį": 9503,
  "Ġheat": 9504,
  "Ġuku": 9505,
  "éª¤": 9506,
  ".H": 9507,
  "ÛķÙħ": 9508,
  "åĪĨåŃĲ": 9509,
  "èĭĹ": 9510,
  "ogy": 9511,
  "à½²à½ĵ": 9512,
  "æĽ°": 9513,
  "å¥³æĢ§": 9514,
  "Ġphase": 9515,
  "æĹ¦": 9516,
  "Ġà®®": 9517,
  "èĥĮæĻ¯": 9518,
  "ĠÐ¸Ð½": 9519,
  "Action": 9520,
  "ĠSchool": 9521,
  "äºĴèģĶç½ĳ": 9522,
  "à§įà¦¤": 9523,
  "Ġfine": 9524,
  "ĠÉĸe": 9525,
  "ÏĢÏĮ": 9526,
  "oda": 9527,
  "ĠØ¨Ø§": 9528,
  "Listener": 9529,
  "imu": 9530,
  "æķ°åŃ¦": 9531,
  "Ġrespect": 9532,
  "iled": 9533,
  "Em": 9534,
  "ancy": 9535,
  "à¥įà¤¯à¤¾": 9536,
  "ä½ľèĢħ": 9537,
  "oding": 9538,
  "Ġrev": 9539,
  "åģ¶": 9540,
  "cos": 9541,
  "mary": 9542,
  "à®¿à®¯": 9543,
  "à¦¦": 9544,
  "ĠMat": 9545,
  "_g": 9546,
  "Ġmedic": 9547,
  "vey": 9548,
  "áįį": 9549,
  "èĿ": 9550,
  "Ġdistribution": 9551,
  "éĩįå¤§": 9552,
  "Ġpair": 9553,
  "æįŁå¤±": 9554,
  "è¿ŀç»Ń": 9555,
  "jer": 9556,
  "ä¸¹": 9557,
  "æİ¥è§¦": 9558,
  "DA": 9559,
  "è¿Ĳè¾ĵ": 9560,
  "ijiet": 9561,
  "ãģĤ": 9562,
  "Ġhop": 9563,
  "åĭĻ": 9564,
  "è´Ŀ": 9565,
  ".data": 9566,
  "è£ħç½®": 9567,
  "Ġreceive": 9568,
  "çĮª": 9569,
  "ungu": 9570,
  "object": 9571,
  "till": 9572,
  "field": 9573,
  "âĢĿ.": 9574,
  "æļĤ": 9575,
  "Ġconnection": 9576,
  "æį·": 9577,
  "cho": 9578,
  "Ġbeautiful": 9579,
  "Ð´Ñĸ": 9580,
  "Ġbw": 9581,
  "Ġupdate": 9582,
  "(C": 9583,
  "Ġau": 9584,
  "Ġship": 9585,
  "UM": 9586,
  "éĿ©åĳ½": 9587,
  "ados": 9588,
  "æ¹¾": 9589,
  "Ġdeliver": 9590,
  "Ġfeet": 9591,
  "Ġalone": 9592,
  "æĪĳåĢĳ": 9593,
  "Ġcouple": 9594,
  "è¿«": 9595,
  "ĠØ§ÛĮ": 9596,
  "ĠpÃ©": 9597,
  "Ġsve": 9598,
  "Ġbasis": 9599,
  "ĠĠĠĠĠĠĠĠĠĠ": 9600,
  "Ġdistance": 9601,
  "æľĢè¿ĳ": 9602,
  "Ġmode": 9603,
  "Ġshop": 9604,
  "ĠBrit": 9605,
  "lia": 9606,
  "vas": 9607,
  "oute": 9608,
  "åľ°ä½į": 9609,
  "ĠFl": 9610,
  "nek": 9611,
  "arily": 9612,
  "æ³½": 9613,
  "!(\"": 9614,
  "ĠTable": 9615,
  "Ġtransform": 9616,
  ".Error": 9617,
  "å¸¸è§ģ": 9618,
  "ĠLet": 9619,
  "Ġrespectively": 9620,
  "ä½ĵçİ°": 9621,
  "çľŁå®ŀ": 9622,
  "åĬŀçĲĨ": 9623,
  "è®ĵ": 9624,
  "Ġfactor": 9625,
  "Ġvehic": 9626,
  "à¸£à¸°": 9627,
  "çĿĽ": 9628,
  "ç¿»è¯ĳ": 9629,
  "éģĩåĪ°": 9630,
  "idden": 9631,
  "å®ĩ": 9632,
  "Ġstates": 9633,
  "é¼ł": 9634,
  "pli": 9635,
  "Ġthinking": 9636,
  "Î±Ïģ": 9637,
  "Ġinstit": 9638,
  "kr": 9639,
  "Ġprimary": 9640,
  "imit": 9641,
  "èµ¶": 9642,
  "Ġcustomer": 9643,
  "çĥ¦": 9644,
  "é¼»": 9645,
  "Ġvai": 9646,
  "Ġindividuals": 9647,
  "mark": 9648,
  "Ġktor": 9649,
  "à¨²": 9650,
  "æĪĲæŀľ": 9651,
  "áĥĲáĥĽ": 9652,
  "Ġdiagnos": 9653,
  "Ġmaterials": 9654,
  ".org": 9655,
  "Ġjew": 9656,
  "Ġhak": 9657,
  "ÑĬÑĢ": 9658,
  "ç´łè´¨": 9659,
  "Ġviol": 9660,
  "_N": 9661,
  "å½ĵåľ°": 9662,
  "ĠTest": 9663,
  "Ġà²ħ": 9664,
  "Ġá±": 9665,
  "Ġrespond": 9666,
  "Ġbez": 9667,
  "ÑĮÑĭ": 9668,
  ".G": 9669,
  "osta": 9670,
  "èµĶ": 9671,
  "awn": 9672,
  "ĠWeb": 9673,
  "Ġà»Ģàº": 9674,
  "Ġappropri": 9675,
  "Ġáł¨": 9676,
  "ç¬¬åĽĽ": 9677,
  "Ġprevent": 9678,
  "ĠOff": 9679,
  "ĠComp": 9680,
  "``": 9681,
  "æĸ°éĹ»": 9682,
  "Ġeta": 9683,
  "Ġfol": 9684,
  "æĸĩåŃ¦": 9685,
  "Ġlov": 9686,
  "è¡ĮçļĦ": 9687,
  "ìĸ": 9688,
  "åĢ¼å¾Ĺ": 9689,
  "Ġswitch": 9690,
  "wait": 9691,
  "Ġlack": 9692,
  "enia": 9693,
  "åĻ¨çļĦ": 9694,
  "ä¼į": 9695,
  "uthor": 9696,
  "çĤ¹åĩ»": 9697,
  "Ã¡g": 9698,
  "Ġcout": 9699,
  "Ġà¦¨": 9700,
  "itar": 9701,
  "çĳŀ": 9702,
  "Ur": 9703,
  "Ã²Ì£": 9704,
  "ette": 9705,
  "delta": 9706,
  "itan": 9707,
  "Ġactual": 9708,
  "çªģçĦ¶": 9709,
  "åĲİæĿ¥": 9710,
  "Ġfat": 9711,
  "Ġclick": 9712,
  "ĠDan": 9713,
  "SC": 9714,
  "olar": 9715,
  "htÃ«": 9716,
  "gov": 9717,
  "ä¸Ńåįİ": 9718,
  "Me": 9719,
  "./": 9720,
  "Ġbrand": 9721,
  "Ġ\"\"": 9722,
  "æ°£": 9723,
  "Override": 9724,
  "àªª": 9725,
  "Î¿ÏĤ": 9726,
  "Ġhighly": 9727,
  "Ã©ho": 9728,
  "idget": 9729,
  "iro": 9730,
  "Ġsafe": 9731,
  "ÒĵÐ°Ð½": 9732,
  "áĢļáĢ¹": 9733,
  "Ġvit": 9734,
  "Ä¯": 9735,
  "stat": 9736,
  "icture": 9737,
  "Ġrot": 9738,
  "ãĢĭï¼Į": 9739,
  "æĪĲåĳĺ": 9740,
  "Ġimages": 9741,
  "ded": 9742,
  "ĠNorth": 9743,
  "Ġnumer": 9744,
  "Ġbill": 9745,
  "ä¼Ł": 9746,
  "áł¤áł·": 9747,
  "éģĵè·¯": 9748,
  "Ġlimited": 9749,
  "Ġsubs": 9750,
  "Ó¡": 9751,
  "hand": 9752,
  "áł¥áł": 9753,
  "Ġhappy": 9754,
  "adata": 9755,
  "è¿ģ": 9756,
  "Ġton": 9757,
  "ĠpÅĻ": 9758,
  "è¢ĭ": 9759,
  "æ®ĸ": 9760,
  "Ġprotein": 9761,
  "asons": 9762,
  "Ġà¹ģà¸": 9763,
  "bur": 9764,
  "ãĢĭãĢģãĢĬ": 9765,
  "wards": 9766,
  "Ġselected": 9767,
  "Ġà¨ħ": 9768,
  "è´¡": 9769,
  "req": 9770,
  "ç¢į": 9771,
  "à½¼à½ĵ": 9772,
  "åĲĮæł·": 9773,
  "Äĩe": 9774,
  "Component": 9775,
  "Ġunderstanding": 9776,
  "avo": 9777,
  "Ġiy": 9778,
  "Ġacid": 9779,
  "-P": 9780,
  "Ġbuilt": 9781,
  "Ġáĥ¡": 9782,
  "Ġprogress": 9783,
  "èªī": 9784,
  "Ġalthough": 9785,
  "ography": 9786,
  "Ã¡v": 9787,
  "ÒĵÑĭ": 9788,
  "ById": 9789,
  "æĪĳæĥ³": 9790,
  "éĺ²æŃ¢": 9791,
  "ĠDavid": 9792,
  "ijas": 9793,
  "Ġgives": 9794,
  "ç»ĺ": 9795,
  "åľ¨è¿Ļ": 9796,
  "åļ": 9797,
  "Ġopportunity": 9798,
  "åį³ä½¿": 9799,
  "åķı": 9800,
  "%ãĢĤ": 9801,
  "èķ": 9802,
  "çļĦä¸Ģä¸ª": 9803,
  "æ»´": 9804,
  "æľ¬æĸĩ": 9805,
  ".doc": 9806,
  "å¯¿": 9807,
  "áŁĶ": 9808,
  "å¹´è½»": 9809,
  "çĪ·": 9810,
  "Ġinstr": 9811,
  "Ġvon": 9812,
  "ĠEnglish": 9813,
  "çİ»": 9814,
  "áł°": 9815,
  "ieved": 9816,
  "ĠáĬ¥áĭ": 9817,
  "ìĬ": 9818,
  "Ġow": 9819,
  "Ġcele": 9820,
  "Ġdrive": 9821,
  "Ġquant": 9822,
  "ename": 9823,
  "è´·æ¬¾": 9824,
  "Ġust": 9825,
  ".J": 9826,
  "Ġáī°": 9827,
  "æŀĦæĪĲ": 9828,
  "Ġ::": 9829,
  "Ġgirl": 9830,
  "Ġ×Ķ×ŀ": 9831,
  "jn": 9832,
  "âĢĿ,": 9833,
  "Ġmanufact": 9834,
  "åĪ©æ¶¦": 9835,
  "Ð°Ð»ÑĮ": 9836,
  "Ġalle": 9837,
  "illa": 9838,
  "ulated": 9839,
  "ÙīØ±": 9840,
  "fg": 9841,
  "OK": 9842,
  "Ġexpress": 9843,
  "raph": 9844,
  "amas": 9845,
  "à¯ĩ": 9846,
  "Ġbrought": 9847,
  "Ġtouch": 9848,
  "ebÃ©": 9849,
  "ormal": 9850,
  "Util": 9851,
  "èĪį": 9852,
  "?;": 9853,
  "¨àµįà´¨": 9854,
  "å¹³è¡¡": 9855,
  "________": 9856,
  "à¨®": 9857,
  "Ġí": 9858,
  "åĩºåı£": 9859,
  "eko": 9860,
  "à¶ľ": 9861,
  "Ġserious": 9862,
  "åĪ©äºİ": 9863,
  ".y": 9864,
  "Ġded": 9865,
  "igi": 9866,
  "åĪºæ¿Ģ": 9867,
  "rial": 9868,
  "Ġsei": 9869,
  "éĵº": 9870,
  "Ġdun": 9871,
  "å£°éŁ³": 9872,
  "Ġgal": 9873,
  "å¦Ĥæŀľä½ł": 9874,
  "Ġconduc": 9875,
  "å®¿": 9876,
  "æľ±": 9877,
  "Õ¸Õ²": 9878,
  "Ġlives": 9879,
  "Ġhttps": 9880,
  "ĠPark": 9881,
  "Ġsong": 9882,
  "çĲĨå¿µ": 9883,
  "ÙĦØ§": 9884,
  "https": 9885,
  "Ġà¤ĩ": 9886,
  "Ġjson": 9887,
  "aries": 9888,
  "äºĭæķħ": 9889,
  "-year": 9890,
  "å¤§å°ı": 9891,
  "ÙħÛĮ": 9892,
  "à¤¿à¤¸": 9893,
  "ï¼ģï¼ģ": 9894,
  "æĦŁåĪ°": 9895,
  "Ġcool": 9896,
  "Ġemo": 9897,
  "afe": 9898,
  "åħ·å¤ĩ": 9899,
  "åħĪè¿Ľ": 9900,
  "ÓĻÑĢ": 9901,
  "çļĦå¿ĥ": 9902,
  "Ġchalleng": 9903,
  "response": 9904,
  "Ġtree": 9905,
  "esi": 9906,
  "Ġhalo": 9907,
  "áĥĵ": 9908,
  "æĦĪ": 9909,
  "è¿½æ±Ĥ": 9910,
  "Ġben": 9911,
  "Ġáł¤": 9912,
  "Ġsignificantly": 9913,
  "comp": 9914,
  "ĠÑģÑĥ": 9915,
  "éĩĮéĿ¢": 9916,
  "Ġparty": 9917,
  "aca": 9918,
  "Ġgoal": 9919,
  "emi": 9920,
  "Ġacqu": 9921,
  "Ð°Ñĥ": 9922,
  "ĠbÅ«": 9923,
  "Ġfinally": 9924,
  "assword": 9925,
  "Ġkus": 9926,
  "Read": 9927,
  "Ġfunctions": 9928,
  "æĺ¾èĳĹ": 9929,
  "Number": 9930,
  "à½¼à½Ħ": 9931,
  "Ã¢n": 9932,
  "isen": 9933,
  "Ġrepl": 9934,
  "End": 9935,
  "Ġcompletely": 9936,
  "Ġhen": 9937,
  "åĨ³çŃĸ": 9938,
  "Ġparent": 9939,
  "Ä±nda": 9940,
  "ä¸Ģä¸ªäºº": 9941,
  "Ġlic": 9942,
  "Ġà¦¦": 9943,
  "à¸·": 9944,
  "áĪļ": 9945,
  "Ã¤Ã¤r": 9946,
  "ĠÐĴ": 9947,
  "uko": 9948,
  "à²¾à²Ĺ": 9949,
  "ä¸Ģèĩ´": 9950,
  "ĠÐĿ": 9951,
  "Ġvector": 9952,
  "ĠÕ¢": 9953,
  "Ġ===": 9954,
  "æľĹ": 9955,
  "è¦ĭ": 9956,
  "Ġpresented": 9957,
  "è½¦è¾Ĩ": 9958,
  "Ġgut": 9959,
  "çĶŁéķ¿": 9960,
  "Ġkuri": 9961,
  "Ġß": 9962,
  "Ġleading": 9963,
  "ĠÐł": 9964,
  "çĲĨæĥ³": 9965,
  "Ġcomputer": 9966,
  "Ġseemed": 9967,
  "å¢¨": 9968,
  "å§Ķåĳĺä¼ļ": 9969,
  "å°ıè¯´": 9970,
  "áº½n": 9971,
  "arts": 9972,
  "Ġkoh": 9973,
  "]);": 9974,
  "é¦Ļæ¸¯": 9975,
  "After": 9976,
  "è¿ĲèĲ¥": 9977,
  "à³Ĥ": 9978,
  "Ġworked": 9979,
  "Ġsites": 9980,
  "ä»Ķ": 9981,
  "éŀĭ": 9982,
  "asan": 9983,
  "ĠÄĩe": 9984,
  "actory": 9985,
  "vin": 9986,
  ")-": 9987,
  "áģģ": 9988,
  "Òµ": 9989,
  "ĠSer": 9990,
  "Rep": 9991,
  "Ġsched": 9992,
  "à¶Ńà·Ĭ": 9993,
  "ÉĻl": 9994,
  "à²²à³įà²²": 9995,
  "æĢģåº¦": 9996,
  "CA": 9997,
  "},$": 9998,
  "Ġdas": 9999,
  "king": 10000,
  "ÒŁ": 10001,
  "Ġgrad": 10002,
  "Ò¯Ð½": 10003,
  "å¾ªçİ¯": 10004,
  "åĪĽä¸ļ": 10005,
  "å°ĺ": 10006,
  "TH": 10007,
  "Õ¡Õ¾": 10008,
  "UE": 10009,
  "ĠÐ¾Ñģ": 10010,
  "å¿ĥçļĦ": 10011,
  "æ¡Į": 10012,
  "áŀī": 10013,
  "Ġlok": 10014,
  "èħ¿": 10015,
  "Ø¯Ûĩ": 10016,
  "å®¶çļĦ": 10017,
  "×ļ": 10018,
  "å°Ŀ": 10019,
  "Ġlegal": 10020,
  "Ġmiddle": 10021,
  "å±ķç¤º": 10022,
  "Ġfilter": 10023,
  "Ġaspect": 10024,
  "Ġcopy": 10025,
  "ĠSan": 10026,
  "Ġbon": 10027,
  "èŀº": 10028,
  "Ġáłµ": 10029,
  "åĨĴ": 10030,
  "Ġorigin": 10031,
  "rod": 10032,
  "Ġadvant": 10033,
  "Params": 10034,
  "ä¼ļæľī": 10035,
  "è°ĥèĬĤ": 10036,
  "Ġmad": 10037,
  "è¿ª": 10038,
  "Ġdh": 10039,
  "ªà¯įà®ª": 10040,
  "æĢ»æĺ¯": 10041,
  "ĠÐ¾ÑĢ": 10042,
  "Ġtemp": 10043,
  "Ġchance": 10044,
  "client": 10045,
  "æĦŁåıĹ": 10046,
  "ÐµÐ¿": 10047,
  "éģŃ": 10048,
  "echn": 10049,
  "-F": 10050,
  "Ġrele": 10051,
  "æµĭéĩı": 10052,
  "Ġgraph": 10053,
  "zz": 10054,
  "å¹´ä»£": 10055,
  "åĽĬ": 10056,
  "æī°": 10057,
  "èĴ¸": 10058,
  "çĽ¾": 10059,
  "Ġnumbers": 10060,
  "ĠApp": 10061,
  "Ġwait": 10062,
  "ĠBer": 10063,
  "EST": 10064,
  "æĮĩåĩº": 10065,
  "ĠCount": 10066,
  "idge": 10067,
  "ĠHealth": 10068,
  "çĽ¸æ¯Ķ": 10069,
  "level": 10070,
  "Ġskills": 10071,
  "è£¡": 10072,
  "ÑĮÐº": 10073,
  "åĿ¡": 10074,
  "Ġquery": 10075,
  "aper": 10076,
  "è¿ħéĢŁ": 10077,
  "ä¸»è¦ģæĺ¯": 10078,
  "olu": 10079,
  "àºĦ": 10080,
  "åħģ": 10081,
  "å¾Ĳ": 10082,
  "ket": 10083,
  "ĠDis": 10084,
  "åīĳ": 10085,
  "Ġpada": 10086,
  "ĠÐºÓ©": 10087,
  "æıĲä¾ĽäºĨ": 10088,
  "çķħ": 10089,
  "æĢĿèĢĥ": 10090,
  "Äįen": 10091,
  "àºĽ": 10092,
  "Ĵà¾±": 10093,
  "mber": 10094,
  "à½ĳà½´": 10095,
  "ĠÑıÐº": 10096,
  "usal": 10097,
  "ondon": 10098,
  "à¥ģà¤": 10099,
  "ersion": 10100,
  "åĲĦé¡¹": 10101,
  "Ġhistor": 10102,
  "Ġkao": 10103,
  "ØªÛĮ": 10104,
  "à°Ĥà°": 10105,
  "Ġgin": 10106,
  "ç»ĻäºĪ": 10107,
  "ÃŃm": 10108,
  "Ġintr": 10109,
  "ç»ıçĲĨ": 10110,
  "ilit": 10111,
  "Ġscreen": 10112,
  "æĶ¶çĽĬ": 10113,
  "å¼ķå¯¼": 10114,
  "Ġsamples": 10115,
  "True": 10116,
  "æĨ": 10117,
  "ç²Ĺ": 10118,
  "Ġoperation": 10119,
  "Ġrelease": 10120,
  "term": 10121,
  "æĭ¼": 10122,
  "lation": 10123,
  "¥àº°": 10124,
  "Ġcosts": 10125,
  "å°ĸ": 10126,
  "ĠØ§ÛĮÙĨ": 10127,
  "build": 10128,
  "Ùĳ": 10129,
  "EB": 10130,
  "Ġfeeling": 10131,
  "Ġmg": 10132,
  "omas": 10133,
  "æ¡ĥ": 10134,
  "like": 10135,
  "è±ª": 10136,
  "ç½²": 10137,
  "æ³ī": 10138,
  "ĠÏĦÎ·Î½": 10139,
  "Ġett": 10140,
  "itable": 10141,
  "ÉĶn": 10142,
  "ford": 10143,
  "áĬŃ": 10144,
  "Label": 10145,
  "Ġà¦ħ": 10146,
  "rief": 10147,
  "Ġhers": 10148,
  "(P": 10149,
  "/c": 10150,
  "Ġrecently": 10151,
  "Ġfloor": 10152,
  "rij": 10153,
  "(_": 10154,
  "Call": 10155,
  "Ġtool": 10156,
  "anks": 10157,
  "éº¦": 10158,
  "Ġnational": 10159,
  "Ġà¨ľ": 10160,
  "Ġaim": 10161,
  "bre": 10162,
  "ijos": 10163,
  "(data": 10164,
  "Ġlarger": 10165,
  "ĠÐĺ": 10166,
  "Ġexcept": 10167,
  "Ġdetermine": 10168,
  ".New": 10169,
  "Ġbooks": 10170,
  "ĠLog": 10171,
  "gg": 10172,
  "äººçĶŁ": 10173,
  "eness": 10174,
  "Ġsurv": 10175,
  "ÑĸÐ¼": 10176,
  "Ġvariety": 10177,
  "ĠFigure": 10178,
  "æ·»åĬł": 10179,
  "/p": 10180,
  "çŁ©": 10181,
  "Ġàª¨": 10182,
  "Ġfer": 10183,
  "Ġà®ħ": 10184,
  "isions": 10185,
  "Controller": 10186,
  "ĠEv": 10187,
  "Ġapplied": 10188,
  "åĵ¡": 10189,
  "KE": 10190,
  "Ġwarm": 10191,
  "bb": 10192,
  "çĴĥ": 10193,
  "Ġfiles": 10194,
  "anging": 10195,
  "Builder": 10196,
  "Ġurl": 10197,
  "áł¡áł·": 10198,
  "Ġmarg": 10199,
  "Ġà®µ": 10200,
  "Ġslight": 10201,
  "æĲľç´¢": 10202,
  "Õ¸ÖĢÕ": 10203,
  "iu": 10204,
  "çłĶåıĳ": 10205,
  "åħ©": 10206,
  "åĨįæ¬¡": 10207,
  "oly": 10208,
  "åĪĨéħį": 10209,
  "ttp": 10210,
  "flow": 10211,
  "hest": 10212,
  "èħ¾": 10213,
  "ĠáĢĶ": 10214,
  "åĪĽå»º": 10215,
  "Õ¹": 10216,
  "æīİ": 10217,
  ".re": 10218,
  "à¤¾à¤ľ": 10219,
  "Ġrates": 10220,
  "ÑĭÒ£": 10221,
  "inga": 10222,
  "áŀ¶áŀĶ": 10223,
  ".create": 10224,
  "inda": 10225,
  "ĠÕ½": 10226,
  "áŀĲ": 10227,
  "Ú¯Ûķ": 10228,
  "Ġdynam": 10229,
  "æ¸ł": 10230,
  "ĠSub": 10231,
  "ĠÐ¿ÑĢÐµÐ´": 10232,
  "Ver": 10233,
  "àª¸": 10234,
  "ä»ĵ": 10235,
  "ĠĠĊ": 10236,
  "éº¼": 10237,
  "æģĴ": 10238,
  "áĢ®áĢ¸": 10239,
  "Handler": 10240,
  "Ġdetermined": 10241,
  "à¤ķà¥ĭ": 10242,
  "äºĭå®ŀ": 10243,
  "Stream": 10244,
  "Ġreq": 10245,
  "ido": 10246,
  "ingi": 10247,
  "Ġakan": 10248,
  "à½ķ": 10249,
  "à¤¨à¤¾": 10250,
  "åĳĢ": 10251,
  "à»Ĥ": 10252,
  "áł¢áł¶": 10253,
  "Ġlif": 10254,
  "attle": 10255,
  "åİ»äºĨ": 10256,
  "ç¤¾ä¼ļä¸»ä¹ī": 10257,
  "They": 10258,
  "aur": 10259,
  "ĠsÃŃ": 10260,
  "RI": 10261,
  "æģĭ": 10262,
  "amente": 10263,
  "ç²ĺ": 10264,
  "ĠDef": 10265,
  "æĥħç»ª": 10266,
  "SA": 10267,
  "à²¿à²¦": 10268,
  "åĲĦä¸ª": 10269,
  "aje": 10270,
  "æīĢè°ĵ": 10271,
  "ķàµįà´ķ": 10272,
  "Ġsolid": 10273,
  "ugust": 10274,
  "Ġargs": 10275,
  "çļĦäºĭæĥħ": 10276,
  "Ġcurrently": 10277,
  "Õ¬": 10278,
  "Ġgreen": 10279,
  "ä¸»ä½ĵ": 10280,
  "æīĵéĢł": 10281,
  "é«ĺåº¦": 10282,
  "essa": 10283,
  "æĢİæł·": 10284,
  "Ġnian": 10285,
  "Äįe": 10286,
  "Ġsob": 10287,
  "áĢĬáĢºáĢ": 10288,
  "æŃ¥éª¤": 10289,
  "åĩłä¹İ": 10290,
  "åĬ¨çī©": 10291,
  "Ġwood": 10292,
  "è®©æĪĳ": 10293,
  "Ø±Ø§": 10294,
  "gamma": 10295,
  "Î½ÏĦ": 10296,
  "å±¥": 10297,
  "ÑĥÑĩ": 10298,
  "Ġdecided": 10299,
  "_str": 10300,
  "ĠSal": 10301,
  "itory": 10302,
  "tau": 10303,
  "Ġdil": 10304,
  "ä¹Łå°±æĺ¯": 10305,
  "hr": 10306,
  "èµĸ": 10307,
  "_string": 10308,
  "ë¦¬": 10309,
  "çļĦä¸į": 10310,
  "Ġsold": 10311,
  "vare": 10312,
  "ĠGerm": 10313,
  "Ð³Ð°": 10314,
  "æĮĳæĪĺ": 10315,
  "ç±į": 10316,
  "ä¼łæĴŃ": 10317,
  "olic": 10318,
  ".(": 10319,
  "inÄģ": 10320,
  "uks": 10321,
  "Ġwhose": 10322,
  "ĠSw": 10323,
  "å¾ŀ": 10324,
  "æķ¸": 10325,
  "Ð¸Ð¿": 10326,
  "Ġglass": 10327,
  "Ġneigh": 10328,
  "åĺī": 10329,
  "çľ¼çĿĽ": 10330,
  "_re": 10331,
  "Click": 10332,
  "éĹ²": 10333,
  "Ġdip": 10334,
  "elete": 10335,
  "Start": 10336,
  "èĤ¡ä»½": 10337,
  "now": 10338,
  "hte": 10339,
  "abs": 10340,
  "è¡Ģç®¡": 10341,
  "Ġstrength": 10342,
  "Ġdiscover": 10343,
  "check": 10344,
  "tid": 10345,
  "Ġhi": 10346,
  "Ġpu": 10347,
  "à²¨à³įà²¨à³ģ": 10348,
  "áĪ³": 10349,
  "Ġdegree": 10350,
  "éļĨ": 10351,
  "ĠSec": 10352,
  "æĵ¦": 10353,
  "Ġsometimes": 10354,
  "à·Ĵà¶º": 10355,
  "Ġtik": 10356,
  "}{\\": 10357,
  "angg": 10358,
  "×ķ×ł": 10359,
  "Ġsafety": 10360,
  "oja": 10361,
  "Ġmoved": 10362,
  "à¥įà¤Ł": 10363,
  "ä¿®æĶ¹": 10364,
  "çĻ»è®°": 10365,
  "kor": 10366,
  "áł¬": 10367,
  "áĢŃáĢ¯áĢĦáĢºáĢ": 10368,
  "çļĨ": 10369,
  "ĠÐ°Ð´": 10370,
  "Ġscale": 10371,
  "eler": 10372,
  "ords": 10373,
  "Ġculture": 10374,
  "Ð¾Ð²Ð°": 10375,
  "aws": 10376,
  "Ent": 10377,
  "åľ¨ä¸Ģèµ·": 10378,
  "×Ļ×ł": 10379,
  "åĬ¨ä½ľ": 10380,
  "ĠÕ¸ÖĢ": 10381,
  "è´¸æĺĵ": 10382,
  "Ġachieve": 10383,
  "ĠÙĪØ§ÙĦ": 10384,
  "Ġcat": 10385,
  "éģĵå¾·": 10386,
  "Ġtend": 10387,
  "ç»ĦåĲĪ": 10388,
  "Ġplayers": 10389,
  "Ġimpl": 10390,
  "Ġpom": 10391,
  "Ġera": 10392,
  "æľºåĻ¨": 10393,
  "height": 10394,
  "Ð»Ð°ÑĢ": 10395,
  "åĲ¸æĶ¶": 10396,
  "Ġtools": 10397,
  "åĩī": 10398,
  "åĵģè´¨": 10399,
  "(D": 10400,
  "Ġpurpose": 10401,
  "Ġlooks": 10402,
  "Ġuint": 10403,
  "ĠÚ©ÛĴ": 10404,
  "Ġallowed": 10405,
  "Ø¯ÛĮ": 10406,
  "ĠFirst": 10407,
  "Ġvid": 10408,
  "áĭĭ": 10409,
  "Ġreduce": 10410,
  "ĠNet": 10411,
  "å²¸": 10412,
  "ĠÎ¼Îµ": 10413,
  "Ġign": 10414,
  "Ġuit": 10415,
  "à³Ĭ": 10416,
  ".println": 10417,
  "size": 10418,
  "Ġremove": 10419,
  "è¿ĽæŃ¥": 10420,
  "æĽ´å¤ļçļĦ": 10421,
  "ĠÒ³": 10422,
  "ä»²": 10423,
  "Ġkita": 10424,
  "lib": 10425,
  "ĠMag": 10426,
  "ĠÐ¥": 10427,
  "Ġ\\\\": 10428,
  "Ġchanged": 10429,
  "Ġ\\%": 10430,
  "Ġdari": 10431,
  "ĠsÃº": 10432,
  "èħ°": 10433,
  "Ġdur": 10434,
  "Ġprograms": 10435,
  "è§£æŀĲ": 10436,
  "Ġparticularly": 10437,
  "Ġvolume": 10438,
  "Ġgro": 10439,
  "ambi": 10440,
  "å±ħæ°ĳ": 10441,
  "Ġapproxim": 10442,
  "Page": 10443,
  "ĠlÃł": 10444,
  "Ġbenefits": 10445,
  "oin": 10446,
  "agen": 10447,
  "Ġstream": 10448,
  "Ġspot": 10449,
  "çºł": 10450,
  "alm": 10451,
  "Ġsteps": 10452,
  "ĠRev": 10453,
  "nan": 10454,
  "×Ļ×¨": 10455,
  "æĦŁæĥħ": 10456,
  "ners": 10457,
  "èģĬ": 10458,
  "å¹´é¾Ħ": 10459,
  "ĠØ¥": 10460,
  "àª²": 10461,
  "ugar": 10462,
  "Ġ/>": 10463,
  "Ġcop": 10464,
  "Ġmount": 10465,
  "àº²àºĶ": 10466,
  "ä¸Ńæĸĩ": 10467,
  "à½Ģà¾±à½²": 10468,
  "Token": 10469,
  "ĠÕ¤": 10470,
  "æĪĳæĺ¯": 10471,
  "åıĺå¾Ĺ": 10472,
  "Ġua": 10473,
  "Ġcha": 10474,
  "ĠKing": 10475,
  "ebru": 10476,
  "Ġsolutions": 10477,
  "çľĭçĿĢ": 10478,
  "ervices": 10479,
  "Ġfight": 10480,
  "áĢĲáĢ¹": 10481,
  "params": 10482,
  "nych": 10483,
  "Ġdigital": 10484,
  "ä»¥ä¸º": 10485,
  "àª®àª¾àªĤ": 10486,
  "IZ": 10487,
  "ä¸įéĶĻ": 10488,
  "Ġbele": 10489,
  "Ġmaximum": 10490,
  "Ġnegative": 10491,
  "æľīä»Ģä¹Ī": 10492,
  "çĽĪ": 10493,
  "æĢĿç»´": 10494,
  "ais": 10495,
  "ä¿¡çĶ¨": 10496,
  "ĠsÃ¥": 10497,
  "ibly": 10498,
  "Ġfair": 10499,
  "ä½¢": 10500,
  "usu": 10501,
  "çļĦçłĶç©¶": 10502,
  "åŁºåĽł": 10503,
  "CR": 10504,
  "ae": 10505,
  "æİ¢ç´¢": 10506,
  "ä¹ĥ": 10507,
  "ãģķ": 10508,
  "éĸĢ": 10509,
  "Ġbey": 10510,
  "çŃ¹": 10511,
  "Ġná»į": 10512,
  "ĠÐ³Ð¾Ð´": 10513,
  "Ġzo": 10514,
  "åĨľæ°ĳ": 10515,
  "äººåı£": 10516,
  "æĴĳ": 10517,
  "æľīçĿĢ": 10518,
  "ĠWest": 10519,
  "Ã³r": 10520,
  "Ġà¸²": 10521,
  "Ø§Ø±ÛĮ": 10522,
  "ĠmÃŃ": 10523,
  "Ġartikel": 10524,
  "áłĭ": 10525,
  "Ġpoor": 10526,
  "ague": 10527,
  "åįıè°ĥ": 10528,
  "æĭĶ": 10529,
  "Ġexerc": 10530,
  "astr": 10531,
  "ĠSci": 10532,
  "PO": 10533,
  "yb": 10534,
  "Ġkids": 10535,
  "æĭľ": 10536,
  "hood": 10537,
  "Instance": 10538,
  "ĠvÃł": 10539,
  "éħĴåºĹ": 10540,
  "Ġsession": 10541,
  "ounter": 10542,
  "esan": 10543,
  "Ġadult": 10544,
  "Ġcore": 10545,
  "Ġfirm": 10546,
  "èģĮå·¥": 10547,
  "stract": 10548,
  "è§ĤçĤ¹": 10549,
  "ounc": 10550,
  "ĠRead": 10551,
  "osti": 10552,
  "ĠAir": 10553,
  "åŃ¦ä¼ļ": 10554,
  "Ġein": 10555,
  "-T": 10556,
  "à½ı": 10557,
  "Server": 10558,
  "Ã¬n": 10559,
  "anged": 10560,
  "å°±ä¸ļ": 10561,
  "Ð°Ñļ": 10562,
  "çĹħæ¯Ĵ": 10563,
  "Ġpsych": 10564,
  "Ġà¨¤": 10565,
  "Ġà¸ŀ": 10566,
  "ĠÅĭu": 10567,
  "Ġdemand": 10568,
  "ournal": 10569,
  "ç¼ºä¹ı": 10570,
  "Ġá¹£e": 10571,
  "ï»": 10572,
  "Update": 10573,
  "Ġabsol": 10574,
  "Ġgiving": 10575,
  "àŃĩà¬": 10576,
  "Ġcarry": 10577,
  "arter": 10578,
  "zd": 10579,
  "Ġproposed": 10580,
  "ÓĻÐ½": 10581,
  "ä¹ĭå¤ĸ": 10582,
  "clusion": 10583,
  "ÉĻt": 10584,
  "Ġà¤ķà¥ĭ": 10585,
  "_file": 10586,
  "Ġstarting": 10587,
  "è®©äºº": 10588,
  "ests": 10589,
  "çĬ¯ç½ª": 10590,
  "Create": 10591,
  "Ġfresh": 10592,
  "ĠUp": 10593,
  "Ġoverall": 10594,
  "Ġbor": 10595,
  "à¤¥": 10596,
  "ĠCenter": 10597,
  "å¥³äºº": 10598,
  "Ġcountries": 10599,
  "acion": 10600,
  "à´¯": 10601,
  "Ġattempt": 10602,
  "ä¼ı": 10603,
  "ĠOut": 10604,
  "ĠKom": 10605,
  "-re": 10606,
  "ĠÑĤÐ°Ðº": 10607,
  "igger": 10608,
  "Ð¾Ñĩ": 10609,
  "áĭ³": 10610,
  "Ġlub": 10611,
  "å¿į": 10612,
  "é½¿": 10613,
  ".find": 10614,
  "jes": 10615,
  "EF": 10616,
  "å¥ı": 10617,
  "Ð¸ÑĺÐ°": 10618,
  "ä»£çĲĨ": 10619,
  "ÏĦÎ·": 10620,
  "à½´à½Ħ": 10621,
  "à®±": 10622,
  "ĠOf": 10623,
  "ĠJust": 10624,
  "ç½ĳåıĭ": 10625,
  "(M": 10626,
  "Ġassum": 10627,
  "Ġà¤ķà¥Ģ": 10628,
  "Ġhin": 10629,
  "ä»İäºĭ": 10630,
  "bum": 10631,
  "Ġhund": 10632,
  "ç«¹": 10633,
  "á¹": 10634,
  "zed": 10635,
  "ĠKe": 10636,
  "ĠÐ¿ÐµÑĢ": 10637,
  "Ġsust": 10638,
  "ĠÏĥÏħ": 10639,
  "é¬¼": 10640,
  "Ġgoes": 10641,
  "ĠEst": 10642,
  "çºµ": 10643,
  "àª¨àª¾": 10644,
  "ijo": 10645,
  "æĳĩ": 10646,
  "ÙħØ§ÙĨ": 10647,
  "çī©æµģ": 10648,
  "å®ļä½į": 10649,
  "Ġsignal": 10650,
  "Ġrestr": 10651,
  "Ġhydro": 10652,
  "enza": 10653,
  "èµ¢": 10654,
  "à½ĳà½º": 10655,
  "è½¨": 10656,
  "Attribute": 10657,
  "pril": 10658,
  "ivil": 10659,
  "ĠÅ¡t": 10660,
  "Ref": 10661,
  "áº£": 10662,
  "Ġ\\&": 10663,
  "è§Ħå¾ĭ": 10664,
  "db": 10665,
  "è§Ĵèī²": 10666,
  "Ð¸Ðµ": 10667,
  "à´°": 10668,
  "ìĺ": 10669,
  "áŀļ": 10670,
  "Ġpic": 10671,
  "Ġfully": 10672,
  "ç¨į": 10673,
  "ĠmÃ«": 10674,
  "ĠBro": 10675,
  "types": 10676,
  "orge": 10677,
  "aq": 10678,
  "update": 10679,
  "ĠFile": 10680,
  "hul": 10681,
  "æĸĩåŃĹ": 10682,
  "Ġï¼Ī": 10683,
  "ï¼īãĢģ": 10684,
  "å°±è¦ģ": 10685,
  "Ã½m": 10686,
  "Ġning": 10687,
  "ÎµÏģ": 10688,
  "å¼ºè°ĥ": 10689,
  "Ġbutton": 10690,
  "qrt": 10691,
  "åŀĤ": 10692,
  "thern": 10693,
  "zu": 10694,
  "Ð½Ð¸Ðº": 10695,
  "Ġmeeting": 10696,
  "Ġbreath": 10697,
  "mitted": 10698,
  "oder": 10699,
  "Ġflex": 10700,
  "ĠIsrael": 10701,
  "Ġsell": 10702,
  "Ġapply": 10703,
  "ĠTom": 10704,
  "è²Į": 10705,
  "å°±èĥ½": 10706,
  "msg": 10707,
  "Ġrepe": 10708,
  "Ġhodi": 10709,
  "Ġdownload": 10710,
  "Ġjus": 10711,
  "à²¤à³įà²¤": 10712,
  "pc": 10713,
  "ãĢĤ(": 10714,
  "ĠOption": 10715,
  "ÑĢÐµÐ´": 10716,
  "Ġstraight": 10717,
  "itute": 10718,
  "ĠnÄ©": 10719,
  "ä»įçĦ¶": 10720,
  "áŀĶáŁĴáŀļáŀ": 10721,
  "ÑĥÑĪ": 10722,
  "parse": 10723,
  "é¢ľèī²": 10724,
  "ĠRed": 10725,
  "å¾Īå¤§": 10726,
  "Ġwel": 10727,
  "ashing": 10728,
  "åľ¨çº¿": 10729,
  "Ġprev": 10730,
  "ĠÕ¸ÖĤ": 10731,
  "ĠÐ¼ÐµÐ½": 10732,
  "åĬ¨æľº": 10733,
  "Ġedge": 10734,
  "éħ¶": 10735,
  "Ġcontains": 10736,
  "Ġplaying": 10737,
  "Ġmeaning": 10738,
  "áĪİ": 10739,
  "Ġrecommend": 10740,
  "å²Ĺä½į": 10741,
  "ÙĪØ§": 10742,
  "çī¹åĪ«æĺ¯": 10743,
  "cia": 10744,
  "æĿ¥äºĨ": 10745,
  "Ġbasic": 10746,
  "Ġregister": 10747,
  "ĠÐ¿Ð¾Ð´": 10748,
  "éģ¸": 10749,
  "çİ»çĴĥ": 10750,
  "à½¢à¾Ĵà¾±": 10751,
  "ĠThus": 10752,
  "Äħc": 10753,
  "áĪķ": 10754,
  "Ġclinical": 10755,
  "Ġnad": 10756,
  "Ø¤": 10757,
  "çĵľ": 10758,
  "ĠÖī": 10759,
  "iba": 10760,
  "Ġiki": 10761,
  "æĬ¢": 10762,
  "ĠAct": 10763,
  "Ġsyn": 10764,
  "à¯Ĩ": 10765,
  "ç¦»å¼Ģ": 10766,
  "ĠØ§ÙĦØª": 10767,
  "zjon": 10768,
  "åįĢ": 10769,
  "Ġsab": 10770,
  "Ġsad": 10771,
  "Ġtam": 10772,
  "then": 10773,
  "à²¸": 10774,
  "Ġerrors": 10775,
  "ĠÑģÐ¾": 10776,
  "à¸«": 10777,
  "ait": 10778,
  "ĠPort": 10779,
  "ĠHigh": 10780,
  "åĲ¯åĬ¨": 10781,
  "Ġfields": 10782,
  "áĢĢáĢ¼": 10783,
  "åī²": 10784,
  "Ġá¼": 10785,
  "Ġformer": 10786,
  "å©Ĩ": 10787,
  "éĢĨ": 10788,
  "æĢ§è´¨": 10789,
  "GB": 10790,
  "çĵ¦": 10791,
  "å¼ºåº¦": 10792,
  "æľŁçļĦ": 10793,
  "Ġuseful": 10794,
  "Ġbik": 10795,
  "Ġreflect": 10796,
  "éĿĴå¹´": 10797,
  "åĸ®": 10798,
  "é£İæł¼": 10799,
  "áŀ¹": 10800,
  "Ġkept": 10801,
  "Ġpoly": 10802,
  "Ġlocated": 10803,
  "Ġmoving": 10804,
  "æİ¨å¹¿": 10805,
  "rÄ©": 10806,
  "Ġdry": 10807,
  "ĠĊĠĠĠ": 10808,
  "ĠØ·": 10809,
  "Ġbiz": 10810,
  "Ġmouth": 10811,
  "Ġty": 10812,
  "CL": 10813,
  "áĢļáĢºáĢ": 10814,
  "ä¸Ĭä¼ł": 10815,
  "Ġbeyond": 10816,
  "agy": 10817,
  "Back": 10818,
  "Ġalgorith": 10819,
  "ĠlÃ¡": 10820,
  "Ðł": 10821,
  "åĪ°çļĦ": 10822,
  "Ġàª¬": 10823,
  "organ": 10824,
  "Ġtip": 10825,
  "nim": 10826,
  "ÑĥÐº": 10827,
  "SD": 10828,
  "ĠÄįl": 10829,
  "à½Ķà½łà½²": 10830,
  "Ġuses": 10831,
  "ç§Ĵ": 10832,
  "æĥħåĨµä¸ĭ": 10833,
  "Ġtour": 10834,
  "éĹ®é¢ĺçļĦ": 10835,
  "ÑĤÐ°ÑĢ": 10836,
  "ĠAustral": 10837,
  "uw": 10838,
  "Ġcentral": 10839,
  "çİ¯èĬĤ": 10840,
  "Ġexactly": 10841,
  "Ġapplications": 10842,
  "can": 10843,
  "áł¢áł¨": 10844,
  "åħ¬å¼Ģ": 10845,
  "Ġspirit": 10846,
  "agon": 10847,
  "ÙĪØ¨": 10848,
  "nem": 10849,
  "Ġtah": 10850,
  "web": 10851,
  "ebug": 10852,
  "Î½Î±": 10853,
  "ÃĹ": 10854,
  "Line": 10855,
  "(e": 10856,
  "Ġcomponents": 10857,
  "à±ĩ": 10858,
  "Ð»Ðµ": 10859,
  "tima": 10860,
  "çĭĤ": 10861,
  "Ġdaily": 10862,
  "${": 10863,
  "äº«åıĹ": 10864,
  "Ġà¹ĥ": 10865,
  "åħĦ": 10866,
  "áł¢áłŃ": 10867,
  "othes": 10868,
  "à¦ª": 10869,
  "è¿ĺåı¯ä»¥": 10870,
  "Ġà¶¯": 10871,
  "çī©çĲĨ": 10872,
  "à®®": 10873,
  "å¹´åº¦": 10874,
  "åħħæ»¡": 10875,
  "SO": 10876,
  "Ġhour": 10877,
  "Ġbroad": 10878,
  "\"))": 10879,
  "vy": 10880,
  "à¯įà®±": 10881,
  "ĠEven": 10882,
  "obj": 10883,
  "å·¥èµĦ": 10884,
  "åī©": 10885,
  "Ġà¸ģ": 10886,
  "Ġsik": 10887,
  "áĬ¨": 10888,
  "å®ŀè¡Į": 10889,
  "Ġcredit": 10890,
  "ĠTV": 10891,
  "Fe": 10892,
  "æ¯įäº²": 10893,
  "Ġàªķàª°": 10894,
  "Ġprepar": 10895,
  "hal": 10896,
  "igen": 10897,
  "Ġencour": 10898,
  "Ä±nÄ±": 10899,
  "æ¢¯": 10900,
  "Ġideas": 10901,
  "Ġhun": 10902,
  "Ġrelig": 10903,
  "Ġstorage": 10904,
  "å¤¹": 10905,
  "ATE": 10906,
  "è¯ģåĪ¸": 10907,
  "ãĢģâĢľ": 10908,
  "ä¸įäºĨ": 10909,
  "ĠAmerica": 10910,
  "ĠSl": 10911,
  "Ġcapt": 10912,
  "æı´": 10913,
  "ĠTw": 10914,
  "Ġboy": 10915,
  "åı¯èĥ½æĺ¯": 10916,
  "PL": 10917,
  "ÙĦÙĬ": 10918,
  "èĭ±åĽ½": 10919,
  "ä¸įçĶ¨": 10920,
  "åįµ": 10921,
  "Ġcolumn": 10922,
  "Ġned": 10923,
  "è¡°": 10924,
  "áĢĲáĢ½": 10925,
  "Ġcrate": 10926,
  "Ġadjust": 10927,
  "Ġharm": 10928,
  "Ġsetting": 10929,
  "Ass": 10930,
  "Ġbottom": 10931,
  "Ġproviding": 10932,
  "åĲįåŃĹ": 10933,
  "Ġ<=": 10934,
  "Ġearlier": 10935,
  "Ġcharg": 10936,
  "Ġala": 10937,
  "à²¿à²¸": 10938,
  "à¤¨à¥įà¤": 10939,
  "çĤī": 10940,
  "Ġpeng": 10941,
  "Ġpon": 10942,
  "Ġbrain": 10943,
  "ĠáĬ£áī¥": 10944,
  "det": 10945,
  "Ġuma": 10946,
  "µáł¤": 10947,
  "çµĲ": 10948,
  "Ġreached": 10949,
  "Ġgone": 10950,
  "anel": 10951,
  "Ġoc": 10952,
  "ä¹¦è®°": 10953,
  "æ¾³": 10954,
  "sz": 10955,
  "ughter": 10956,
  "Ġpil": 10957,
  "Ġyuta": 10958,
  "ĠÅ¾e": 10959,
  "Ġtests": 10960,
  "OW": 10961,
  "Ġhospital": 10962,
  "asion": 10963,
  "éļ¾ä»¥": 10964,
  "Ġgrup": 10965,
  "Ġreli": 10966,
  "rho": 10967,
  "è´¢æĶ¿": 10968,
  "Ġinteresting": 10969,
  "Ġsales": 10970,
  "pÉĶ": 10971,
  "Ġdifferences": 10972,
  "Ġtit": 10973,
  "æĺ¯ä¸įæĺ¯": 10974,
  "æī©å¤§": 10975,
  "æīĢåľ¨": 10976,
  "à¥ģà¤°": 10977,
  "ĠEU": 10978,
  "ÙĪÙĬ": 10979,
  "ĠØ§Ø³": 10980,
  "ĠtÃ¤": 10981,
  "ĠÐķ": 10982,
  "áį¡": 10983,
  "Ġprocesses": 10984,
  "arp": 10985,
  "Ġlabor": 10986,
  "QL": 10987,
  "Ġlid": 10988,
  "atas": 10989,
  "é¢Ħéĺ²": 10990,
  "Ġappropriate": 10991,
  "æĦıåĳ³": 10992,
  "áŀ¶áŀĺ": 10993,
  "udz": 10994,
  "å¹»": 10995,
  "ĠNULL": 10996,
  "à½²à½Ĥ": 10997,
  "Ġspeak": 10998,
  "amis": 10999,
  "Ġexisting": 11000,
  "æĻºæħ§": 11001,
  "Ġtsh": 11002,
  "èĩ³å°ĳ": 11003,
  "Ġeks": 11004,
  "å°½ç®¡": 11005,
  "ÑĢÐ¸": 11006,
  "Ġcounter": 11007,
  "æ¬£": 11008,
  "byte": 11009,
  "áłłáł¶áł¢áł": 11010,
  "Ġsynt": 11011,
  "éĢĥ": 11012,
  "ðŁ": 11013,
  "PD": 11014,
  "ãĤ¹": 11015,
  "âĢ¯áł¤": 11016,
  "Ġmonitor": 11017,
  "ĠÅ¾iv": 11018,
  "è¯¾åłĤ": 11019,
  "bin": 11020,
  "rint": 11021,
  "bul": 11022,
  "çĶŁæĪĲ": 11023,
  "asti": 11024,
  "ÑĢÐ°Ð²": 11025,
  "Ġinternal": 11026,
  "Ġmund": 11027,
  "teger": 11028,
  "ĠÎµÏĢ": 11029,
  "ego": 11030,
  "Ġblue": 11031,
  "å°ıåŃ¦": 11032,
  "è¯ĬæĸŃ": 11033,
  "Ġsuccessful": 11034,
  "eps": 11035,
  "è¿Ļæ¬¡": 11036,
  "å¿ł": 11037,
  "Ġkok": 11038,
  "Ġpros": 11039,
  "ä¸įçŁ¥": 11040,
  "å¦Ļ": 11041,
  "åĪĬ": 11042,
  "Ġshape": 11043,
  "å¼Ĥå¸¸": 11044,
  "Ġdik": 11045,
  "Ġreturned": 11046,
  "Resource": 11047,
  "èµĦæł¼": 11048,
  "Õ¡Õ¬": 11049,
  "ĠPart": 11050,
  "-se": 11051,
  "æĬ¤çĲĨ": 11052,
  "ëĵ¤": 11053,
  "Ġnje": 11054,
  "æ°Ľ": 11055,
  "Ġà¨®": 11056,
  "ĠáŁ": 11057,
  "grad": 11058,
  "Ġorganization": 11059,
  "hn": 11060,
  "å¾Ĵ": 11061,
  "Ġáł³": 11062,
  "Ġà¹Ħà¸": 11063,
  "Our": 11064,
  "çļĦåŁºæľ¬": 11065,
  "å®ı": 11066,
  "Ġ×Ĺ": 11067,
  "Ġinnov": 11068,
  "Ġhappened": 11069,
  "ä¹Į": 11070,
  "ÐµÐ½Ð¸Ñı": 11071,
  "(w": 11072,
  "æĸĳ": 11073,
  "igan": 11074,
  "Ġpiece": 11075,
  "ç¼Ŀ": 11076,
  "åĳ¼åĲ¸": 11077,
  "çļĦå¥½": 11078,
  "tives": 11079,
  "Ġcomponent": 11080,
  "reme": 11081,
  "Ġcá»": 11082,
  "ä¸įåĨį": 11083,
  "àµįà´¤": 11084,
  "atever": 11085,
  "é¥®é£Ł": 11086,
  "Ġpublished": 11087,
  "'.": 11088,
  "åľ¨æŃ¤": 11089,
  "ĠÎŃ": 11090,
  "Ġtiss": 11091,
  "æľīä¸Ģä¸ª": 11092,
  "Ġparams": 11093,
  "eria": 11094,
  "Ġcomment": 11095,
  "Å¡i": 11096,
  "vat": 11097,
  "output": 11098,
  "Ġonto": 11099,
  "Ġupd": 11100,
  "ives": 11101,
  "æ¶µ": 11102,
  "êµ": 11103,
  "×ķ×ĵ": 11104,
  "å°¤åħ¶æĺ¯": 11105,
  "ÑĥÐ±": 11106,
  "Header": 11107,
  "Ġï¼Į": 11108,
  "Ð°ÑĤÐ¸": 11109,
  "ÙĨÛĮ": 11110,
  "Ġà®ļ": 11111,
  "Ġfigure": 11112,
  "ĠÎ½Î±": 11113,
  "ä¹ĭä¸Ń": 11114,
  "Ġgets": 11115,
  "áĥĲáĥĵ": 11116,
  "Ġimmediately": 11117,
  "apo": 11118,
  "ç²®": 11119,
  "Ġthick": 11120,
  "Ġproduced": 11121,
  "Ġclients": 11122,
  "Ġtheory": 11123,
  "Ġcit": 11124,
  "ĠPaul": 11125,
  "Ġbaz": 11126,
  "ĠAlthough": 11127,
  "ĠPet": 11128,
  "soft": 11129,
  "æª": 11130,
  "Ġhyp": 11131,
  "áł¢áł¯": 11132,
  "XX": 11133,
  "åįģäºĮ": 11134,
  "åĮĢ": 11135,
  "ĠGover": 11136,
  "esto": 11137,
  "Ġscore": 11138,
  "Sa": 11139,
  "AA": 11140,
  "Ġwy": 11141,
  "Ġ>=": 11142,
  "å¨±ä¹Ĳ": 11143,
  "ä¸Ģå¤©": 11144,
  "äº§åĵģçļĦ": 11145,
  "ustr": 11146,
  "à°°": 11147,
  "æĭĨ": 11148,
  "Ġbeginning": 11149,
  "Ġgar": 11150,
  "Ġcold": 11151,
  "Ġmac": 11152,
  "Mat": 11153,
  "Ġrules": 11154,
  "Ġvil": 11155,
  "à³ĭ": 11156,
  "Ag": 11157,
  "Ġpassed": 11158,
  "áĮ¥": 11159,
  "æĺİçĻ½": 11160,
  "Ġfont": 11161,
  "Õ¥Õ¿": 11162,
  "åįĩçº§": 11163,
  "Ġkill": 11164,
  "ĠÏĢÏģÎ¿": 11165,
  "Ġprojects": 11166,
  "ÐµÐºÑĤ": 11167,
  "ĠWar": 11168,
  "åŀĭçļĦ": 11169,
  "Tom": 11170,
  "ĠMus": 11171,
  "Ġmemb": 11172,
  "Pa": 11173,
  "è³ª": 11174,
  "remove": 11175,
  "ĠCreate": 11176,
  "è½¬æį¢": 11177,
  "Ġsvoj": 11178,
  "}.": 11179,
  "del": 11180,
  "Ġrob": 11181,
  "rif": 11182,
  "Ġwouldn": 11183,
  "è°Ĳ": 11184,
  "Ġtraditional": 11185,
  "ention": 11186,
  "å¾Īå¥½": 11187,
  "number": 11188,
  "ãĢĭ,": 11189,
  "Ġsummer": 11190,
  "Ġmarketing": 11191,
  "Ġcritical": 11192,
  "roy": 11193,
  "hom": 11194,
  "Ġmig": 11195,
  "ç®Ĺæ³ķ": 11196,
  "áĥĶáĥļ": 11197,
  "Ġà²¹": 11198,
  "Ġinfo": 11199,
  "æ£ĢéªĮ": 11200,
  "Ġentre": 11201,
  "Å¡anas": 11202,
  "Ġà¸ª": 11203,
  "Ã©l": 11204,
  "});": 11205,
  "Ġreduced": 11206,
  "button": 11207,
  "Ġgenerally": 11208,
  "Ø±ÙĬ": 11209,
  "çĸ«æĥħ": 11210,
  "Ġresource": 11211,
  "Õ¥ÖĢÕ¨": 11212,
  "EO": 11213,
  "åĽ¾åĥı": 11214,
  "iments": 11215,
  "éĹª": 11216,
  "psilon": 11217,
  "Ġproduce": 11218,
  "Ĺàºµà»Ī": 11219,
  "unit": 11220,
  "áŁĤáŀĽ": 11221,
  "åĲįç§°": 11222,
  "ç±»ä¼¼": 11223,
  "Ġfear": 11224,
  "Ġgold": 11225,
  "ulate": 11226,
  "áŁĦáŁĩ": 11227,
  "Ġcareer": 11228,
  "Ġclosed": 11229,
  "uar": 11230,
  "utt": 11231,
  "tober": 11232,
  "à³ģà²µ": 11233,
  "åŃĺåĤ¨": 11234,
  "Ġexcell": 11235,
  "aine": 11236,
  "éĢĤå½ĵ": 11237,
  "Ġsaying": 11238,
  "à®ķ": 11239,
  "rea": 11240,
  "Õ£": 11241,
  "åĬłä¸Ĭ": 11242,
  "iciency": 11243,
  "å°±åĥı": 11244,
  "Ġdatabase": 11245,
  "áĢķáĢ¹": 11246,
  "Ġà®¤": 11247,
  "ç»¿èī²": 11248,
  "à¥įà¤·": 11249,
  "áŀĺáŁĴáŀ": 11250,
  "vention": 11251,
  "Den": 11252,
  "ëıĦ": 11253,
  "ĠÛĭ": 11254,
  "Ã¤Ã¤n": 11255,
  "æĭĸ": 11256,
  "ìĤ¬": 11257,
  "çĸı": 11258,
  "äººå·¥": 11259,
  "Ġcharge": 11260,
  "æĪĲåĪĨ": 11261,
  "ytes": 11262,
  "Ġsuff": 11263,
  "Ò¯ÑĢ": 11264,
  "çĮ«": 11265,
  "æ··åĲĪ": 11266,
  "ÐĹ": 11267,
  "èĲ¨": 11268,
  "ignment": 11269,
  "tification": 11270,
  "ador": 11271,
  "àºĤ": 11272,
  "press": 11273,
  ")ï¼Į": 11274,
  "Ġàª°": 11275,
  "ÑĭÐº": 11276,
  "èµĭ": 11277,
  "çİ¯ä¿Ŀ": 11278,
  "à½¼à½¦": 11279,
  "ĠLondon": 11280,
  "ëĭĪëĭ¤": 11281,
  "à¤¤à¤¾": 11282,
  "å¤ªéĺ³": 11283,
  "Ġà¶¸": 11284,
  "TA": 11285,
  "æĿ¥æºĲ": 11286,
  "tify": 11287,
  "Õ¥Öģ": 11288,
  "Ġdoub": 11289,
  "à²®": 11290,
  "ä¼¼ä¹İ": 11291,
  "Ġà¦ķà¦°": 11292,
  "pir": 11293,
  "è´¡çĮ®": 11294,
  "Ġkil": 11295,
  "has": 11296,
  "Ġplus": 11297,
  "Ġamaz": 11298,
  "Ġdib": 11299,
  "à¶ļà·Ĭ": 11300,
  "Ġdb": 11301,
  "¨à¯įà®¤": 11302,
  "aho": 11303,
  "æľĢå¤§çļĦ": 11304,
  "rier": 11305,
  "×Ļ×ľ": 11306,
  "Ã¥n": 11307,
  "Õ¸ÖĤÕ©ÕµÕ¸ÖĤÕ¶": 11308,
  "Ġempty": 11309,
  "áĳ": 11310,
  "åĲ«éĩı": 11311,
  "å£®": 11312,
  "ĠSk": 11313,
  "ĠFe": 11314,
  "Ġeconomic": 11315,
  "æ¯ıæ¬¡": 11316,
  "áĢ±áĢĽ": 11317,
  "æĥħæĦŁ": 11318,
  "áł¤áł¯áł": 11319,
  "ĠÐ°Ðº": 11320,
  "çĪ¶äº²": 11321,
  "Ste": 11322,
  "Ġmachine": 11323,
  "ĠGroup": 11324,
  "ç½ĳä¸Ĭ": 11325,
  "åĵ²": 11326,
  "wood": 11327,
  "èĩªè¡Į": 11328,
  "é¡Į": 11329,
  "iler": 11330,
  "rows": 11331,
  "å°ıçļĦ": 11332,
  "åĪ¥": 11333,
  "Ġforms": 11334,
  "Ġproduk": 11335,
  "jed": 11336,
  "Ġnen": 11337,
  "Ġzn": 11338,
  "inder": 11339,
  "ĠUser": 11340,
  "(String": 11341,
  "ĠSince": 11342,
  "lde": 11343,
  "ãĢĤï¼Ī": 11344,
  "Ö¶": 11345,
  "Ġreaction": 11346,
  "Ġpartner": 11347,
  "áĭķ": 11348,
  "æŁ¥çľĭ": 11349,
  "çĶµè·¯": 11350,
  "Ġyield": 11351,
  "PA": 11352,
  "æĬ¥éģĵ": 11353,
  "ĠBel": 11354,
  "Ð°Ð´Ñĭ": 11355,
  "ansa": 11356,
  "Äģc": 11357,
  "ä¸ĭåĪĹ": 11358,
  "çĽĳç®¡": 11359,
  "é¢¨": 11360,
  "ç¼´": 11361,
  "æŃ¤æĹ¶": 11362,
  "æµģéĩı": 11363,
  "Ġmaka": 11364,
  "overy": 11365,
  "åį±éĻ©": 11366,
  "agan": 11367,
  "ÑĸÐ·": 11368,
  "::{": 11369,
  "Options": 11370,
  "ĠRem": 11371,
  "ÐµÐ¸ÑĤ": 11372,
  "æłı": 11373,
  "Ġassist": 11374,
  "æĤ²": 11375,
  "ĠPat": 11376,
  "Ġ(\"": 11377,
  "Äģk": 11378,
  "áĢĴ": 11379,
  "å®¾": 11380,
  "ģàº²àºĻàº": 11381,
  "Now": 11382,
  "èĬ¯": 11383,
  "rote": 11384,
  "Ġran": 11385,
  "(T": 11386,
  "Ġlj": 11387,
  "Ġtun": 11388,
  "Ġconcept": 11389,
  "æŁ¥è¯¢": 11390,
  "åįķåħĥ": 11391,
  "ä¸įç®¡": 11392,
  "Ġvr": 11393,
  "ĠDay": 11394,
  "Ġselection": 11395,
  "Ġhappen": 11396,
  "ĠBlack": 11397,
  "å¯Ħ": 11398,
  "áŀĹ": 11399,
  "æľĢä½³": 11400,
  "á»ĳ": 11401,
  "pas": 11402,
  "Ġfollows": 11403,
  "Ġinfluence": 11404,
  "Ġáł¡áł": 11405,
  "Ġemb": 11406,
  "Ġrelative": 11407,
  "æĻĵ": 11408,
  "ĠÕ¾": 11409,
  "post": 11410,
  "Ġentry": 11411,
  "Ġnearly": 11412,
  "æ»¡æĦı": 11413,
  "Vis": 11414,
  "Ġana": 11415,
  "àºŃàºĩ": 11416,
  "child": 11417,
  "Ġzb": 11418,
  "çĽ¸åºĶçļĦ": 11419,
  "Ġpool": 11420,
  "osis": 11421,
  "cs": 11422,
  "ĠÅ¼": 11423,
  "<T": 11424,
  "è´¢äº§": 11425,
  "Ġinternational": 11426,
  "à³įà²¯": 11427,
  "env": 11428,
  "Ġcorrel": 11429,
  "æĿĥçĽĬ": 11430,
  "Ġremain": 11431,
  "ÑĭÑħ": 11432,
  "æ¬¢è¿İ": 11433,
  "Post": 11434,
  "æ²»çĲĨ": 11435,
  "áģĤ": 11436,
  "à´µ": 11437,
  "áĢķáĢ¼": 11438,
  "çľł": 11439,
  "æŀĿ": 11440,
  "åİŁçĲĨ": 11441,
  "ĠÐ¿Ð¾Ð»": 11442,
  "à¤¹à¥ĩ": 11443,
  "çĤ¸": 11444,
  "å¤§éĥ¨åĪĨ": 11445,
  "Check": 11446,
  "fu": 11447,
  "à½¦à¾Ĳ": 11448,
  "etch": 11449,
  "æĽ´æĺ¯": 11450,
  "Ġnice": 11451,
  "Ġseek": 11452,
  "Ġdamage": 11453,
  "entially": 11454,
  "ĠgÄ§and": 11455,
  "éĥ½åľ¨": 11456,
  "acht": 11457,
  "click": 11458,
  "æĿľ": 11459,
  "à¤ī": 11460,
  "ollow": 11461,
  "çĭ¬çī¹": 11462,
  "Ġkot": 11463,
  "olve": 11464,
  "çŁĽ": 11465,
  "IA": 11466,
  "Î¿Î¹": 11467,
  "ÑģÐºÐ¸": 11468,
  "è¯´çļĦ": 11469,
  "ĠbÃ¡": 11470,
  "çĶµæ±ł": 11471,
  "iform": 11472,
  "Äĵj": 11473,
  "à¸²à¸£": 11474,
  "æĳĺ": 11475,
  "æľĢæĸ°": 11476,
  "ä¸ĢåĢĭ": 11477,
  "Ġren": 11478,
  "ĠÂ»": 11479,
  "rot": 11480,
  "åłĨ": 11481,
  "Ġáĭĺ": 11482,
  "Ġrequires": 11483,
  "çķª": 11484,
  "æĭĴ": 11485,
  "Ġgrand": 11486,
  "ĠáŀĶ": 11487,
  "jel": 11488,
  "Ö¹": 11489,
  "ä¸²": 11490,
  "áŁī": 11491,
  "arden": 11492,
  "à§ĩà¦¨": 11493,
  "opa": 11494,
  "Ġrequirements": 11495,
  "æĪĲçĨŁ": 11496,
  "(j": 11497,
  "rim": 11498,
  "wal": 11499,
  "Ġmatrix": 11500,
  "ikt": 11501,
  "èĩ£": 11502,
  "ĠØµ": 11503,
  "à¯įà®ķà®³": 11504,
  "åŃ¦ç§ĳ": 11505,
  "åħ¬éĩĮ": 11506,
  ".value": 11507,
  "-H": 11508,
  "ĠìĹ": 11509,
  "iyo": 11510,
  "Ġconvers": 11511,
  "áĭİ": 11512,
  "äººåľ¨": 11513,
  "ESS": 11514,
  "Ġtai": 11515,
  "åĪ°åºķ": 11516,
  "âĸ": 11517,
  "Ġstrategy": 11518,
  "ä¹īåĬ¡": 11519,
  "Ġchannel": 11520,
  "è¡¥åħħ": 11521,
  "Ġpush": 11522,
  "Yes": 11523,
  "Ġtoken": 11524,
  "æĿ°": 11525,
  "lek": 11526,
  "Ġmort": 11527,
  "ä¸ĬäºĨ": 11528,
  "éĵľ": 11529,
  "---|": 11530,
  "ê²Į": 11531,
  "Ø§Ø®": 11532,
  "çļĦåİŁåĽł": 11533,
  "Ġema": 11534,
  "ĠPost": 11535,
  "ÛķÙĦ": 11536,
  "Ġcast": 11537,
  "éŃĤ": 11538,
  "Ġgih": 11539,
  "ÛķÙĥ": 11540,
  "äººçī©": 11541,
  "ĠÑģÐ°": 11542,
  "å¼ºçļĦ": 11543,
  "Ð¸Ð¾Ð½": 11544,
  "Ġjavax": 11545,
  "è¶³çĲĥ": 11546,
  "([": 11547,
  "è°ĭ": 11548,
  "Ġlock": 11549,
  "Ġou": 11550,
  "acebook": 11551,
  "tÃ³": 11552,
  "ÏĥÎ¼": 11553,
  "Ġsusp": 11554,
  "Ġkons": 11555,
  "Ġà²ª": 11556,
  "asure": 11557,
  "åīª": 11558,
  "áĭĪ": 11559,
  "ãĢĤï¼Į": 11560,
  "Ġcup": 11561,
  "Ġnation": 11562,
  "æĮº": 11563,
  "ĠBi": 11564,
  "è¾ŀ": 11565,
  "è®ºæĸĩ": 11566,
  "akse": 11567,
  "ĠNz": 11568,
  "å®ļæľŁ": 11569,
  "ĠGoogle": 11570,
  "ë°": 11571,
  "BS": 11572,
  "åı¯ä»¥åľ¨": 11573,
  "vest": 11574,
  "fs": 11575,
  "ĠáĥĴ": 11576,
  "Ġisang": 11577,
  "Û±": 11578,
  "Ġpang": 11579,
  "imate": 11580,
  "Ġplaced": 11581,
  "å±ķå¼Ģ": 11582,
  "usiness": 11583,
  "enter": 11584,
  "áĥĲáĥ¡": 11585,
  "à±ĭ": 11586,
  "Valid": 11587,
  "acement": 11588,
  "alaki": 11589,
  "æŃ£æĺ¯": 11590,
  "Ġessential": 11591,
  "Ġjan": 11592,
  "æ·ĺ": 11593,
  "å¼Ħ": 11594,
  "Ġkepada": 11595,
  "hentic": 11596,
  "æĪĳä¹Ł": 11597,
  "Ĳĺ": 11598,
  "ĠMost": 11599,
  "Ġpra": 11600,
  "ĠTherefore": 11601,
  "Ġrout": 11602,
  "ĠOp": 11603,
  "assa": 11604,
  "Ġpoz": 11605,
  "ÐµÐ»ÑĮ": 11606,
  "åĭĴ": 11607,
  "Ġprotect": 11608,
  "éĥ½èĥ½": 11609,
  "TS": 11610,
  "intu": 11611,
  "\\\\": 11612,
  "OC": 11613,
  "oval": 11614,
  "last": 11615,
  "ĠCour": 11616,
  "ayan": 11617,
  "åĲ¨": 11618,
  "æ¡Īä»¶": 11619,
  "aji": 11620,
  "Ġà¨¦à©ĩ": 11621,
  "àº»à»ī": 11622,
  "Ġmobile": 11623,
  "åĿ¦": 11624,
  "ìĿ¸": 11625,
  "Ġich": 11626,
  "æ°¨": 11627,
  "Ġcomo": 11628,
  "àº±àºļ": 11629,
  "ë¥¼": 11630,
  "Ġsand": 11631,
  "àº¼": 11632,
  "éĥ½è¦ģ": 11633,
  "æŁĲäºĽ": 11634,
  "Ġdrink": 11635,
  "Ġrom": 11636,
  "Ġdeli": 11637,
  "åĬ¨æĢģ": 11638,
  "static": 11639,
  "ç»Ŀå¯¹": 11640,
  "Ġcreating": 11641,
  "åıĳè¡Į": 11642,
  "othing": 11643,
  "áĢ¾áĢ¯": 11644,
  "fi": 11645,
  "ÐµÐ¶": 11646,
  "æľīçĤ¹": 11647,
  "Ġconnect": 11648,
  "Ġvariable": 11649,
  "Ġip": 11650,
  "Ġpie": 11651,
  "çº¤ç»´": 11652,
  "Ġlaik": 11653,
  "Ġmaybe": 11654,
  "Ġreference": 11655,
  ".html": 11656,
  "×ķ×Ĳ": 11657,
  "å°ºå¯¸": 11658,
  "á»ĩ": 11659,
  "ÑģÐ¿": 11660,
  "éĨĩ": 11661,
  "ãĢĭãĢĤ": 11662,
  "áŀĶáŀ¶áŀĵ": 11663,
  "é¢Ħæµĭ": 11664,
  "ĠâĢ¦": 11665,
  "çļĦåĨħå®¹": 11666,
  "æ³¨éĩį": 11667,
  "áĢŃáĢ¯áĢ¸áĢ": 11668,
  "å¿ĥéĩĮ": 11669,
  "None": 11670,
  "é¸Ł": 11671,
  "å¦Ĥä»Ĭ": 11672,
  "ç¬¬ä¸Ģæ¬¡": 11673,
  "(){": 11674,
  "éĥĳ": 11675,
  "pload": 11676,
  "Dec": 11677,
  "ĠChina": 11678,
  "è½¬ç§»": 11679,
  "æĽ¾ç»ı": 11680,
  "ç¨¿": 11681,
  "æµĨ": 11682,
  "åĳ¨æľŁ": 11683,
  "é¢Ī": 11684,
  "omin": 11685,
  "à¨£": 11686,
  "æĮĸ": 11687,
  "Ġ(*": 11688,
  "ĠChristi": 11689,
  "Ġcourt": 11690,
  "ĠsiÄĻ": 11691,
  "Ġà¤¸à¤®": 11692,
  "ç¢°": 11693,
  "Äģd": 11694,
  "Ġinhib": 11695,
  "Ġconver": 11696,
  "Ð½Ð¾Ð³Ð¾": 11697,
  "à¤²à¤¾": 11698,
  "áĢĺ": 11699,
  "æ³ķè§Ħ": 11700,
  "ederal": 11701,
  "Ġwife": 11702,
  "åĲ¹": 11703,
  "inde": 11704,
  "tyle": 11705,
  "Ġà¶ħ": 11706,
  "Ġvariables": 11707,
  "Ġcaused": 11708,
  "Ġperhaps": 11709,
  "umin": 11710,
  ".cont": 11711,
  "Ġsrc": 11712,
  "Ġconcentration": 11713,
  "Ġmuk": 11714,
  "ĠÚ©Ø±Ø¯": 11715,
  "çļĦçĶŁæ´»": 11716,
  "ajo": 11717,
  "Ġrock": 11718,
  "çĦĬ": 11719,
  "??": 11720,
  "Ġbij": 11721,
  "Ġolsem": 11722,
  "Ġrule": 11723,
  "æĥ³åĪ°": 11724,
  "ĠÎ·": 11725,
  "å¹¾": 11726,
  "àªĤàª": 11727,
  "åı¯è§ģ": 11728,
  "Buffer": 11729,
  "Ġnut": 11730,
  "ÉĻs": 11731,
  "iske": 11732,
  "ä¸ĢæĿ¡": 11733,
  "é©¾é©¶": 11734,
  "Ġaffect": 11735,
  "Ġring": 11736,
  "Å±": 11737,
  "Default": 11738,
  "æĸĩæľ¬": 11739,
  "è®¼": 11740,
  "çĶ·äºº": 11741,
  "éĩĩè´Ń": 11742,
  "ä¿Ħ": 11743,
  "àº·à»Ī": 11744,
  "æĽ¼": 11745,
  "çļĦè¦ģæ±Ĥ": 11746,
  "Ġà¨ī": 11747,
  "ÑĥÑĭ": 11748,
  "å¥ī": 11749,
  "Ġspread": 11750,
  "è¿Ł": 11751,
  "à½¤": 11752,
  "Ú©ÛĮ": 11753,
  "Ġkaj": 11754,
  "Õº": 11755,
  "Ø´Øª": 11756,
  "Ġsympt": 11757,
  "Ġsak": 11758,
  "Ġà¤ıà¤ķ": 11759,
  "aria": 11760,
  "Ġdrop": 11761,
  "Ġze": 11762,
  "åŃ¤": 11763,
  "Ġtesting": 11764,
  "ä¸ŃéĹ´": 11765,
  "èº«ä¸Ĭ": 11766,
  "çĶµåİĭ": 11767,
  "æĻ¨": 11768,
  "åĲĲ": 11769,
  "oming": 11770,
  "nia": 11771,
  "åĽ¾çīĩ": 11772,
  "ello": 11773,
  ".v": 11774,
  "Ġplans": 11775,
  "Ġmetal": 11776,
  "aten": 11777,
  "Ġlah": 11778,
  "ensions": 11779,
  "ĠØ¢ÙĨ": 11780,
  "esc": 11781,
  "ĠÐ¿ÑĢÐ¾": 11782,
  "áº¥": 11783,
  "ĠSur": 11784,
  "Ġsupply": 11785,
  "çłĤ": 11786,
  "Ġáģ": 11787,
  "Ġegy": 11788,
  "Ġcontinued": 11789,
  "æĻļä¸Ĭ": 11790,
  "Ġll": 11791,
  "ĠÕ©": 11792,
  "éĻ¶": 11793,
  "Ġhundred": 11794,
  "Sp": 11795,
  "Ġinterview": 11796,
  "à½£à¾": 11797,
  "ç¨Ģ": 11798,
  ",âĢĻ": 11799,
  "à²Ĥà²¦": 11800,
  "èĩªä¸»": 11801,
  "Ġbua": 11802,
  "åĲįçļĦ": 11803,
  "ĠÎ±ÏĢÏĮ": 11804,
  "åĲĦç±»": 11805,
  "æıĲç¤º": 11806,
  "è¦º": 11807,
  "Ġgam": 11808,
  "_ex": 11809,
  "Ġbod": 11810,
  "riend": 11811,
  "allel": 11812,
  "æīĢæľīçļĦ": 11813,
  "varepsilon": 11814,
  "tick": 11815,
  "æµģåĬ¨": 11816,
  "Ġyu": 11817,
  "Ġlit": 11818,
  "áĮ½": 11819,
  "Ġrelevant": 11820,
  "ÑĭÑĪ": 11821,
  "çļĦæĥħåĨµä¸ĭ": 11822,
  "å¤±è´¥": 11823,
  "vr": 11824,
  "ĠService": 11825,
  "áĢºáĢ¬": 11826,
  "buf": 11827,
  "Ġ((": 11828,
  "çĶŁç´ł": 11829,
  ".name": 11830,
  "Ġplaces": 11831,
  "ĠCD": 11832,
  "ä¼¤å®³": 11833,
  "():": 11834,
  "Block": 11835,
  "æ§½": 11836,
  "ĠSpec": 11837,
  "ĠGre": 11838,
  "ÑıÑĤ": 11839,
  "è·ĥ": 11840,
  "Ġfrequency": 11841,
  "Ġfarm": 11842,
  "eces": 11843,
  "Ġcelebr": 11844,
  "à¯ĭ": 11845,
  "Ġsets": 11846,
  "Ġyak": 11847,
  "æĥľ": 11848,
  "Ġcurr": 11849,
  "arian": 11850,
  "Ġkir": 11851,
  "ĠSam": 11852,
  "Ġgrowing": 11853,
  "å¼ºåĮĸ": 11854,
  "Î®ÏĤ": 11855,
  "Ġkung": 11856,
  "æķĻæİĪ": 11857,
  "Ġsuffer": 11858,
  "igu": 11859,
  "opt": 11860,
  "inin": 11861,
  "Ġcapital": 11862,
  "åħįçĸ«": 11863,
  "Ġopened": 11864,
  "ä»¤äºº": 11865,
  "Å£": 11866,
  "ãģı": 11867,
  "Ġbirth": 11868,
  "rics": 11869,
  "è¾¨": 11870,
  "Äĵt": 11871,
  "æ¸łéģĵ": 11872,
  "ĠSept": 11873,
  "edia": 11874,
  "Ġete": 11875,
  "ĠÖĩ": 11876,
  "éĴ»": 11877,
  "ĠAssoci": 11878,
  "Some": 11879,
  "áŀ¶áŀŁ": 11880,
  "Ġkoje": 11881,
  "works": 11882,
  "æ¨¡åĿĹ": 11883,
  "ingu": 11884,
  "×ķ×Ł": 11885,
  "åģļåĩº": 11886,
  "Ġplanning": 11887,
  "áŀł": 11888,
  "åĲĪéĢĤ": 11889,
  "Si": 11890,
  "Ġobvious": 11891,
  "Ġà¤¸à¤Ĥ": 11892,
  "kil": 11893,
  "è¾£": 11894,
  "Õ¸Õ¶": 11895,
  "ĠÑĤÐ°": 11896,
  "ÙĦÙīÙĤ": 11897,
  "ĠáłŃ": 11898,
  "ÐµÑĩ": 11899,
  "DB": 11900,
  "æľīæĹ¶": 11901,
  "Ä±l": 11902,
  "Ġox": 11903,
  "Ġfan": 11904,
  "éģĭ": 11905,
  "Ġplayed": 11906,
  "ulations": 11907,
  "Ġbuffer": 11908,
  "Ġjer": 11909,
  "åĳ½ä»¤": 11910,
  "çļĦåīį": 11911,
  "Ġpreviously": 11912,
  "Met": 11913,
  "à¤¾à¤¦": 11914,
  "áĪª": 11915,
  "ĠEvery": 11916,
  "host": 11917,
  "rov": 11918,
  "æĳ¸": 11919,
  "Ġmeasured": 11920,
  "Ã¼k": 11921,
  "éĢ»": 11922,
  "aign": 11923,
  "Ġratio": 11924,
  "select": 11925,
  "Ġmereka": 11926,
  "Ġofficial": 11927,
  "áĢ¬áĢĦáĢ¹": 11928,
  "ĠÏĢÎ¿Ïħ": 11929,
  "Ġwish": 11930,
  "á¿": 11931,
  "Ġrender": 11932,
  "rict": 11933,
  "bil": 11934,
  "Ġlibr": 11935,
  "Ġtrain": 11936,
  "oon": 11937,
  "obe": 11938,
  "æĤ¨çļĦ": 11939,
  "ĠìĿ´": 11940,
  "Ġhelps": 11941,
  "Ġestablished": 11942,
  "Ġsuc": 11943,
  "áĤı": 11944,
  "ç·ļ": 11945,
  "\",\"": 11946,
  "attr": 11947,
  "Ġidentified": 11948,
  "ĠáĬŃ": 11949,
  "Ġà®ĩ": 11950,
  "label": 11951,
  "Ġherself": 11952,
  "æµħ": 11953,
  "èĢĥæł¸": 11954,
  "ĠáĪ°": 11955,
  "Ġtruth": 11956,
  "ìĸ´": 11957,
  "ATION": 11958,
  "Ġburn": 11959,
  "ĠÏħ": 11960,
  "Ġdevices": 11961,
  "pped": 11962,
  "Ġconstruction": 11963,
  "Ġstim": 11964,
  "Õ¥Õ½": 11965,
  "Ġkod": 11966,
  "ÑįÑĢ": 11967,
  "å¤§ä¼ļ": 11968,
  "ivo": 11969,
  "Ġstock": 11970,
  "Ġzijn": 11971,
  "áī¶": 11972,
  "æĸľ": 11973,
  "Ġexhib": 11974,
  "aciÃ³n": 11975,
  "âĹ": 11976,
  "åĮ¹": 11977,
  "Ġà¤µà¤¿à¤": 11978,
  "Ġà¸§": 11979,
  "Ġà¬ķ": 11980,
  "Ġeuro": 11981,
  "åħļåĳĺ": 11982,
  "ĠCounty": 11983,
  "æŀª": 11984,
  "Ġborder": 11985,
  "å±Ĥæ¬¡": 11986,
  "kur": 11987,
  "Ġmotor": 11988,
  "æ±Ĺ": 11989,
  "issa": 11990,
  "TO": 11991,
  "Ġthin": 11992,
  "à®¿à®©": 11993,
  "âĢ¯áł¶": 11994,
  "Ġvs": 11995,
  "àª¨à«Ģ": 11996,
  "è¤": 11997,
  "Ġpolitical": 11998,
  "URL": 11999,
  "×ĳ×¨": 12000,
  "_time": 12001,
  "è®Ĭ": 12002,
  "ä¸Ĭåįĩ": 12003,
  "å¤§å¤ļæķ°": 12004,
  "Ĺàºµà»Īàº": 12005,
  "åŁĭ": 12006,
  "à²Ĺà²³": 12007,
  "Ġtalking": 12008,
  "CS": 12009,
  "Ġcapacity": 12010,
  "Ġspent": 12011,
  "Õ¡Õ£": 12012,
  "æĺĮ": 12013,
  "itud": 12014,
  "èĤ¿çĺ¤": 12015,
  "Õ¢": 12016,
  "Ġweak": 12017,
  "ked": 12018,
  "éĢļä¿¡": 12019,
  "stream": 12020,
  "Ìĥ": 12021,
  "DS": 12022,
  "fit": 12023,
  "Ġrez": 12024,
  "umber": 12025,
  "áĬ«": 12026,
  "åı¯éĿł": 12027,
  "éĻª": 12028,
  "Ã¡ll": 12029,
  "Ġska": 12030,
  "åĤ¬": 12031,
  "Ġzak": 12032,
  "áĬ½": 12033,
  "Ġcommerc": 12034,
  "elig": 12035,
  "à¥ĩà¤¶": 12036,
  "×ł×Ļ": 12037,
  "Ġphen": 12038,
  "èĳ£äºĭ": 12039,
  "kol": 12040,
  "zÄħ": 12041,
  "ä¸įèī¯": 12042,
  "ĠØ±ÙĪ": 12043,
  "å¹´çº§": 12044,
  "allow": 12045,
  "èĻķ": 12046,
  "lax": 12047,
  "çī¹æĢ§": 12048,
  "IB": 12049,
  "ĠCheck": 12050,
  "áŀ»áŀĦ": 12051,
  "Ġequal": 12052,
  "à¤°à¥Ģ": 12053,
  "PR": 12054,
  "èĥ½éĩı": 12055,
  "Ġwok": 12056,
  "Ã¤l": 12057,
  "ĠMarch": 12058,
  "ugin": 12059,
  "×ķ×ĳ": 12060,
  "erior": 12061,
  "-time": 12062,
  "áŀķ": 12063,
  "Ġari": 12064,
  "à½ĵà½¦": 12065,
  "èĤ¡ä¸ľ": 12066,
  "bool": 12067,
  "ĠsÄĥ": 12068,
  "Ġsche": 12069,
  "TER": 12070,
  "æ¨¡æĭŁ": 12071,
  "ç¡®è®¤": 12072,
  "Ġven": 12073,
  "Ġinterp": 12074,
  "ĠgÃ¶": 12075,
  "æĪĳå°±": 12076,
  "åľ°çļĦ": 12077,
  "è¯īè®¼": 12078,
  "oso": 12079,
  "Ġ×¨": 12080,
  "Ð°Ñİ": 12081,
  "Ġadalah": 12082,
  "Ġscen": 12083,
  "Ġfab": 12084,
  "áĥľ": 12085,
  "à²¾à²°": 12086,
  "çªģåĩº": 12087,
  "Ġpicture": 12088,
  "ĠÉĽ": 12089,
  "ĠáŀĬ": 12090,
  "Ġpy": 12091,
  "æŃ»äº¡": 12092,
  "ãģĹãģ¦": 12093,
  ".Add": 12094,
  "ĠApril": 12095,
  "elij": 12096,
  "isp": 12097,
  "ĠIII": 12098,
  "çŁĽçĽ¾": 12099,
  "ĠUK": 12100,
  ".Context": 12101,
  "ä¸¦": 12102,
  "Ġdelete": 12103,
  "Ġkug": 12104,
  "Ġawait": 12105,
  "ĠReturn": 12106,
  "ĠgÄ§all": 12107,
  "çĤ¹çļĦ": 12108,
  "àº²àº§": 12109,
  "ushed": 12110,
  "Ġvill": 12111,
  "æ·ĭ": 12112,
  "æĺ¯çĶ±": 12113,
  "à¸Ĺ": 12114,
  "Ġà¤Ķ": 12115,
  "Ġiniti": 12116,
  "éĽĨä½ĵ": 12117,
  "reci": 12118,
  "Source": 12119,
  "ÄŁÄ±": 12120,
  "çĩ¥": 12121,
  "å¸«": 12122,
  "áĢģáĢ»": 12123,
  "hens": 12124,
  "Ġà¸Ĥ": 12125,
  "jat": 12126,
  "Ġbaby": 12127,
  "(B": 12128,
  "Ġtub": 12129,
  "ä¸ĢæĹ¦": 12130,
  "áĢĶáĢºáĢ¸": 12131,
  "reb": 12132,
  "æµĻ": 12133,
  "estern": 12134,
  "Ġlatest": 12135,
  "Ã¡k": 12136,
  "Function": 12137,
  "hend": 12138,
  "Ġvend": 12139,
  "Ã«shtÃ«": 12140,
  "Ġserve": 12141,
  "Ġletter": 12142,
  "âĦ": 12143,
  "}^{\\": 12144,
  "ticles": 12145,
  "Ġhealthy": 12146,
  "åĥ¹": 12147,
  "_eq": 12148,
  "æĦ¿æĦı": 12149,
  "é¼ĵåĬ±": 12150,
  "Ġ_,": 12151,
  "Ġdomin": 12152,
  "æŀĦå»º": 12153,
  "áĭ¨": 12154,
  "çĽĴ": 12155,
  "éĬ": 12156,
  "Ġhuge": 12157,
  "Ġnuk": 12158,
  "à½ºà½¦": 12159,
  "Ġcommunication": 12160,
  "æ´ª": 12161,
  "çĤĴ": 12162,
  "áģ¼": 12163,
  "áŁĴáŀĻ": 12164,
  "Equ": 12165,
  "amat": 12166,
  "asis": 12167,
  "à®¤à¯ģ": 12168,
  "æĺ¯ä¸ª": 12169,
  "Ġdob": 12170,
  "Ng": 12171,
  "à¤¾à¤ļ": 12172,
  "å¼¯": 12173,
  "Ġvic": 12174,
  "-R": 12175,
  "cha": 12176,
  "Ø§ÙĪ": 12177,
  "Ð°Ð»Ð¸": 12178,
  "è§Ĥå¿µ": 12179,
  "Ġhous": 12180,
  "áįĪ": 12181,
  "Ġcontain": 12182,
  "åħļçļĦ": 12183,
  "á»ģ": 12184,
  "Ġmovement": 12185,
  "ĠÏĦÏīÎ½": 12186,
  "æľºçļĦ": 12187,
  "awe": 12188,
  "infty": 12189,
  "emu": 12190,
  "vider": 12191,
  "ÑĥÑ": 12192,
  "ypes": 12193,
  "ĠJehov": 12194,
  "çģĮ": 12195,
  "Ġsáº½n": 12196,
  "à¦Ĺ": 12197,
  "ĠJune": 12198,
  "cons": 12199,
  "Î¿Ïģ": 12200,
  "requ": 12201,
  "sqrt": 12202,
  "Oh": 12203,
  "æĹ¨": 12204,
  "à¸ķ": 12205,
  "Co": 12206,
  "åĪĽä½ľ": 12207,
  "Ġrend": 12208,
  "Ġprepared": 12209,
  "ehowa": 12210,
  "à«Ĥ": 12211,
  "Ġsurround": 12212,
  "Ġmix": 12213,
  "Ġequipment": 12214,
  "ĠÃ«shtÃ«": 12215,
  "Ġdirek": 12216,
  "Ġsul": 12217,
  "Order": 12218,
  "Ġregist": 12219,
  "à¨¾à¨°": 12220,
  "Ġà¸¡": 12221,
  "Ġkatak": 12222,
  "àºķ": 12223,
  ".swing": 12224,
  "Ġ×¤": 12225,
  "ä»ĸäºº": 12226,
  "></": 12227,
  "Ġà¬¸": 12228,
  "Ġreasons": 12229,
  "ÑĸÑĤ": 12230,
  "ĠDepartment": 12231,
  "à³Ģ": 12232,
  "isation": 12233,
  "idl": 12234,
  "'a": 12235,
  "Ġcertainly": 12236,
  "ĠÐºÐ¾": 12237,
  "Ġcarried": 12238,
  "åĮħè£ħ": 12239,
  "éĥģ": 12240,
  "ells": 12241,
  "ilip": 12242,
  "ĠAny": 12243,
  "ç»ĻæĪĳ": 12244,
  "è´§å¸ģ": 12245,
  "Ġextrem": 12246,
  "è®¿éĹ®": 12247,
  "Äįn": 12248,
  "åĮºåĪ«": 12249,
  "Ġsmaller": 12250,
  "sm": 12251,
  "ç¾İçļĦ": 12252,
  "Äĵm": 12253,
  "AI": 12254,
  "kar": 12255,
  "à¨µ": 12256,
  "Ġkana": 12257,
  "asy": 12258,
  "erd": 12259,
  "æľ¬æ¬¡": 12260,
  "Bar": 12261,
  "<String": 12262,
  "ç«ĭåį³": 12263,
  "ĠwÃ²": 12264,
[...]
